{
    "": 2,
    "<0x00>": 3,
    "<0x01>": 4,
    "<0x02>": 5,
    "<0x03>": 6,
    "<0x04>": 7,
    "<0x05>": 8,
    "<0x06>": 9,
    "<0x07>": 10,
    "<0x08>": 11,
    "<0x09>": 12,
    "<0x0A>": 13,
    "<0x0B>": 14,
    "<0x0C>": 15,
    "<0x0D>": 16,
    "<0x0E>": 17,
    "<0x0F>": 18,
    "<0x10>": 19,
    "<0x11>": 20,
    "<0x12>": 21,
    "<0x13>": 22,
    "<0x14>": 23,
    "<0x15>": 24,
    "<0x16>": 25,
    "<0x17>": 26,
    "<0x18>": 27,
    "<0x19>": 28,
    "<0x1A>": 29,
    "<0x1B>": 30,
    "<0x1C>": 31,
    "<0x1D>": 32,
    "<0x1E>": 33,
    "<0x1F>": 34,
    "<0x20>": 35,
    "<0x21>": 36,
    "<0x22>": 37,
    "<0x23>": 38,
    "<0x24>": 39,
    "<0x25>": 40,
    "<0x26>": 41,
    "<0x27>": 42,
    "<0x28>": 43,
    "<0x29>": 44,
    "<0x2A>": 45,
    "<0x2B>": 46,
    "<0x2C>": 47,
    "<0x2D>": 48,
    "<0x2E>": 49,
    "<0x2F>": 50,
    "<0x30>": 51,
    "<0x31>": 52,
    "<0x32>": 53,
    "<0x33>": 54,
    "<0x34>": 55,
    "<0x35>": 56,
    "<0x36>": 57,
    "<0x37>": 58,
    "<0x38>": 59,
    "<0x39>": 60,
    "<0x3A>": 61,
    "<0x3B>": 62,
    "<0x3C>": 63,
    "<0x3D>": 64,
    "<0x3E>": 65,
    "<0x3F>": 66,
    "<0x40>": 67,
    "<0x41>": 68,
    "<0x42>": 69,
    "<0x43>": 70,
    "<0x44>": 71,
    "<0x45>": 72,
    "<0x46>": 73,
    "<0x47>": 74,
    "<0x48>": 75,
    "<0x49>": 76,
    "<0x4A>": 77,
    "<0x4B>": 78,
    "<0x4C>": 79,
    "<0x4D>": 80,
    "<0x4E>": 81,
    "<0x4F>": 82,
    "<0x50>": 83,
    "<0x51>": 84,
    "<0x52>": 85,
    "<0x53>": 86,
    "<0x54>": 87,
    "<0x55>": 88,
    "<0x56>": 89,
    "<0x57>": 90,
    "<0x58>": 91,
    "<0x59>": 92,
    "<0x5A>": 93,
    "<0x5B>": 94,
    "<0x5C>": 95,
    "<0x5D>": 96,
    "<0x5E>": 97,
    "<0x5F>": 98,
    "<0x60>": 99,
    "<0x61>": 100,
    "<0x62>": 101,
    "<0x63>": 102,
    "<0x64>": 103,
    "<0x65>": 104,
    "<0x66>": 105,
    "<0x67>": 106,
    "<0x68>": 107,
    "<0x69>": 108,
    "<0x6A>": 109,
    "<0x6B>": 110,
    "<0x6C>": 111,
    "<0x6D>": 112,
    "<0x6E>": 113,
    "<0x6F>": 114,
    "<0x70>": 115,
    "<0x71>": 116,
    "<0x72>": 117,
    "<0x73>": 118,
    "<0x74>": 119,
    "<0x75>": 120,
    "<0x76>": 121,
    "<0x77>": 122,
    "<0x78>": 123,
    "<0x79>": 124,
    "<0x7A>": 125,
    "<0x7B>": 126,
    "<0x7C>": 127,
    "<0x7D>": 128,
    "<0x7E>": 129,
    "<0x7F>": 130,
    "<0x80>": 131,
    "<0x81>": 132,
    "<0x82>": 133,
    "<0x83>": 134,
    "<0x84>": 135,
    "<0x85>": 136,
    "<0x86>": 137,
    "<0x87>": 138,
    "<0x88>": 139,
    "<0x89>": 140,
    "<0x8A>": 141,
    "<0x8B>": 142,
    "<0x8C>": 143,
    "<0x8D>": 144,
    "<0x8E>": 145,
    "<0x8F>": 146,
    "<0x90>": 147,
    "<0x91>": 148,
    "<0x92>": 149,
    "<0x93>": 150,
    "<0x94>": 151,
    "<0x95>": 152,
    "<0x96>": 153,
    "<0x97>": 154,
    "<0x98>": 155,
    "<0x99>": 156,
    "<0x9A>": 157,
    "<0x9B>": 158,
    "<0x9C>": 159,
    "<0x9D>": 160,
    "<0x9E>": 161,
    "<0x9F>": 162,
    "<0xA0>": 163,
    "<0xA1>": 164,
    "<0xA2>": 165,
    "<0xA3>": 166,
    "<0xA4>": 167,
    "<0xA5>": 168,
    "<0xA6>": 169,
    "<0xA7>": 170,
    "<0xA8>": 171,
    "<0xA9>": 172,
    "<0xAA>": 173,
    "<0xAB>": 174,
    "<0xAC>": 175,
    "<0xAD>": 176,
    "<0xAE>": 177,
    "<0xAF>": 178,
    "<0xB0>": 179,
    "<0xB1>": 180,
    "<0xB2>": 181,
    "<0xB3>": 182,
    "<0xB4>": 183,
    "<0xB5>": 184,
    "<0xB6>": 185,
    "<0xB7>": 186,
    "<0xB8>": 187,
    "<0xB9>": 188,
    "<0xBA>": 189,
    "<0xBB>": 190,
    "<0xBC>": 191,
    "<0xBD>": 192,
    "<0xBE>": 193,
    "<0xBF>": 194,
    "<0xC0>": 195,
    "<0xC1>": 196,
    "<0xC2>": 197,
    "<0xC3>": 198,
    "<0xC4>": 199,
    "<0xC5>": 200,
    "<0xC6>": 201,
    "<0xC7>": 202,
    "<0xC8>": 203,
    "<0xC9>": 204,
    "<0xCA>": 205,
    "<0xCB>": 206,
    "<0xCC>": 207,
    "<0xCD>": 208,
    "<0xCE>": 209,
    "<0xCF>": 210,
    "<0xD0>": 211,
    "<0xD1>": 212,
    "<0xD2>": 213,
    "<0xD3>": 214,
    "<0xD4>": 215,
    "<0xD5>": 216,
    "<0xD6>": 217,
    "<0xD7>": 218,
    "<0xD8>": 219,
    "<0xD9>": 220,
    "<0xDA>": 221,
    "<0xDB>": 222,
    "<0xDC>": 223,
    "<0xDD>": 224,
    "<0xDE>": 225,
    "<0xDF>": 226,
    "<0xE0>": 227,
    "<0xE1>": 228,
    "<0xE2>": 229,
    "<0xE3>": 230,
    "<0xE4>": 231,
    "<0xE5>": 232,
    "<0xE6>": 233,
    "<0xE7>": 234,
    "<0xE8>": 235,
    "<0xE9>": 236,
    "<0xEA>": 237,
    "<0xEB>": 238,
    "<0xEC>": 239,
    "<0xED>": 240,
    "<0xEE>": 241,
    "<0xEF>": 242,
    "<0xF0>": 243,
    "<0xF1>": 244,
    "<0xF2>": 245,
    "<0xF3>": 246,
    "<0xF4>": 247,
    "<0xF5>": 248,
    "<0xF6>": 249,
    "<0xF7>": 250,
    "<0xF8>": 251,
    "<0xF9>": 252,
    "<0xFA>": 253,
    "<0xFB>": 254,
    "<0xFC>": 255,
    "<0xFD>": 256,
    "<0xFE>": 257,
    "<0xFF>": 258,
    "\u2581t": 259,
    "\u2581a": 260,
    "in": 261,
    "he": 262,
    "re": 263,
    "on": 264,
    "\u2581\u2581": 265,
    "er": 266,
    "\u2581the": 267,
    "\u2581s": 268,
    "at": 269,
    "\u2581o": 270,
    "\u2581w": 271,
    "en": 272,
    "\u2581c": 273,
    "or": 274,
    "it": 275,
    "is": 276,
    "an": 277,
    "es": 278,
    "\u2581f": 279,
    "\u2581b": 280,
    "\u2581p": 281,
    "ou": 282,
    "ing": 283,
    "\u2581an": 284,
    "al": 285,
    "ed": 286,
    "ar": 287,
    "\u2581m": 288,
    "\u2581to": 289,
    "\u2581of": 290,
    "\u2581in": 291,
    "\u2581d": 292,
    "\u2581and": 293,
    "ic": 294,
    "le": 295,
    "\u2581\u2581\u2581\u2581": 296,
    "ion": 297,
    "as": 298,
    "\u2581h": 299,
    "om": 300,
    "\u2581th": 301,
    "ent": 302,
    "il": 303,
    "\u2581T": 304,
    "st": 305,
    "\u2581l": 306,
    "\u2581I": 307,
    "el": 308,
    "ro": 309,
    "\u2581n": 310,
    "\u2581re": 311,
    "et": 312,
    "ct": 313,
    "\u2581S": 314,
    "\u2581e": 315,
    "\u2581A": 316,
    "\u2581g": 317,
    "ve": 318,
    "\u2581C": 319,
    "id": 320,
    "ut": 321,
    "ot": 322,
    "\u2581is": 323,
    "\u2581y": 324,
    "ol": 325,
    "im": 326,
    "am": 327,
    "ur": 328,
    "ly": 329,
    "\u2581be": 330,
    "\u2581on": 331,
    "\u2581for": 332,
    "ad": 333,
    "ay": 334,
    "ig": 335,
    "ow": 336,
    "us": 337,
    "ac": 338,
    "\u2581M": 339,
    "ation": 340,
    "ver": 341,
    "un": 342,
    "\u2581that": 343,
    "\u2581you": 344,
    "\u2581st": 345,
    "\u2581P": 346,
    "\u2581B": 347,
    "ith": 348,
    "ch": 349,
    "ir": 350,
    "ce": 351,
    "\u2581\u2581\u2581\u2581\u2581\u2581\u2581\u2581": 352,
    "\u2581The": 353,
    "\u2581it": 354,
    "\u2581he": 355,
    "\u2581with": 356,
    "\u2581W": 357,
    "ul": 358,
    "\u2581(": 359,
    "se": 360,
    "\u2581H": 361,
    "\u2581as": 362,
    "ter": 363,
    "if": 364,
    "\u2581al": 365,
    "\u2581wh": 366,
    "\u2581D": 367,
    "\u2581F": 368,
    "ag": 369,
    "ill": 370,
    "\u2581R": 371,
    "em": 372,
    "\u2581con": 373,
    "od": 374,
    "\u2581pro": 375,
    "ers": 376,
    "ra": 377,
    "ri": 378,
    "\u2581we": 379,
    "\u2581L": 380,
    "ate": 381,
    "her": 382,
    "\u2581are": 383,
    "\u2581de": 384,
    "ist": 385,
    "est": 386,
    "ke": 387,
    "\u2581at": 388,
    "pp": 389,
    "\u2581N": 390,
    "ess": 391,
    "um": 392,
    "ab": 393,
    "and": 394,
    "ld": 395,
    "\u2581com": 396,
    "\u2581E": 397,
    "th": 398,
    "\u2581v": 399,
    "\u2581or": 400,
    "\u2581was": 401,
    "\u2581G": 402,
    "ore": 403,
    "op": 404,
    "\u2581ha": 405,
    "qu": 406,
    "rom": 407,
    "ew": 408,
    "ht": 409,
    "oun": 410,
    "os": 411,
    "\u2581ex": 412,
    "\u2581se": 413,
    "res": 414,
    "ity": 415,
    "\u2581r": 416,
    "ant": 417,
    "ort": 418,
    "\u2581O": 419,
    "oc": 420,
    "ment": 421,
    "\u2581by": 422,
    "art": 423,
    "ain": 424,
    "\u2581su": 425,
    "ect": 426,
    "..": 427,
    "\u2581from": 428,
    "iv": 429,
    "\u2581not": 430,
    "\u2581have": 431,
    "\u2581J": 432,
    "ies": 433,
    "\u2581this": 434,
    "ive": 435,
    "ust": 436,
    "end": 437,
    "\u2581sh": 438,
    "ight": 439,
    "\u2581ch": 440,
    "ud": 441,
    "all": 442,
    "\u2581un": 443,
    "our": 444,
    "\u2581In": 445,
    "ard": 446,
    "\u2581le": 447,
    "ould": 448,
    "\u2581\"": 449,
    "out": 450,
    "\u2581us": 451,
    "red": 452,
    "ost": 453,
    "ren": 454,
    "up": 455,
    "ell": 456,
    "\u2581can": 457,
    "ome": 458,
    "ial": 459,
    "ear": 460,
    "\u2581ab": 461,
    "\u2581wor": 462,
    "og": 463,
    "ap": 464,
    "ge": 465,
    "\u2581U": 466,
    "\u2581j": 467,
    "\u2581k": 468,
    "ok": 469,
    "ast": 470,
    "\u2581will": 471,
    "ack": 472,
    "\u2581sp": 473,
    "ak": 474,
    "\u2581your": 475,
    "\u2581pl": 476,
    "ure": 477,
    "ine": 478,
    "\u2581all": 479,
    "\u2581do": 480,
    "ich": 481,
    "\u2581Th": 482,
    "te": 483,
    "ide": 484,
    "ie": 485,
    "ff": 486,
    "oug": 487,
    "pt": 488,
    "\u2581ne": 489,
    "\u2581go": 490,
    "ally": 491,
    "pl": 492,
    "\u2581whe": 493,
    "\u2581has": 494,
    "ions": 495,
    "\u2581me": 496,
    "\u2581K": 497,
    "\u2581but": 498,
    "\u2581tr": 499,
    "age": 500,
    "ice": 501,
    "ame": 502,
    "ther": 503,
    "\u2581en": 504,
    "der": 505,
    "\u2581$": 506,
    "ber": 507,
    "per": 508,
    "iz": 509,
    "ans": 510,
    "ip": 511,
    "ong": 512,
    "\u2581im": 513,
    "ia": 514,
    "ind": 515,
    "ec": 516,
    "ound": 517,
    "ue": 518,
    "ated": 519,
    "\u2581\u201c": 520,
    "one": 521,
    "\u2581ad": 522,
    "\u2581they": 523,
    "\u2581cl": 524,
    "\u2581comp": 525,
    "\u2581his": 526,
    "ous": 527,
    "\u2581out": 528,
    "ime": 529,
    "ass": 530,
    "able": 531,
    "orm": 532,
    "\u2581ar": 533,
    "ub": 534,
    "\u2581St": 535,
    "act": 536,
    "\u2581their": 537,
    "ook": 538,
    "cc": 539,
    "\u2581so": 540,
    "\u2581up": 541,
    "\u2581=": 542,
    "\u2581Y": 543,
    "\u2581one": 544,
    "ary": 545,
    "ult": 546,
    "ake": 547,
    "\u2581more": 548,
    "cl": 549,
    "\u2581V": 550,
    "very": 551,
    "\u2581my": 552,
    "ep": 553,
    "\u2581who": 554,
    "ough": 555,
    "\u2581cont": 556,
    "ib": 557,
    "\u2581int": 558,
    "\u2581which": 559,
    "\u2581-": 560,
    "\u2581res": 561,
    "ance": 562,
    "ace": 563,
    "ry": 564,
    "\u2581about": 565,
    "\u2581An": 566,
    "ign": 567,
    "ire": 568,
    "are": 569,
    "av": 570,
    "so": 571,
    "ite": 572,
    "\u2581Ch": 573,
    "ical": 574,
    "ations": 575,
    "\u2581man": 576,
    "\u2581It": 577,
    "\u2581li": 578,
    "ction": 579,
    "\u2581qu": 580,
    "du": 581,
    "ase": 582,
    "ach": 583,
    "\u2581sa": 584,
    "ks": 585,
    "ile": 586,
    "\u2581app": 587,
    "\u2581if": 588,
    "ence": 589,
    "\u2581per": 590,
    "ail": 591,
    "int": 592,
    "\u2581other": 593,
    "ose": 594,
    "ents": 595,
    "\u2581te": 596,
    "\u2581our": 597,
    "ays": 598,
    "\u2581had": 599,
    "ord": 600,
    "\u2581dis": 601,
    "ll": 602,
    "\u2581year": 603,
    "ount": 604,
    "\u2581ev": 605,
    "reat": 606,
    "form": 607,
    "port": 608,
    "vel": 609,
    "ens": 610,
    "\u2581off": 611,
    "\u2581any": 612,
    "\u2581part": 613,
    "\u2581were": 614,
    "ory": 615,
    "erv": 616,
    "ress": 617,
    "now": 618,
    "\u2581ag": 619,
    "ely": 620,
    "--": 621,
    "\u2581time": 622,
    "\u2581new": 623,
    "ition": 624,
    "ru": 625,
    "\u2581would": 626,
    "\u2581there": 627,
    "\u2581been": 628,
    "\u2581also": 629,
    "lic": 630,
    "\u2581He": 631,
    "ree": 632,
    "ings": 633,
    "\u2581get": 634,
    "\u2581some": 635,
    "\u2581work": 636,
    "\u2581her": 637,
    "ang": 638,
    "ond": 639,
    "\u2581them": 640,
    "ob": 641,
    "ove": 642,
    "ark": 643,
    "\u2581pe": 644,
    "ors": 645,
    "ov": 646,
    "\u2581\u2581\u2581\u2581\u2581\u2581\u2581\u2581\u2581\u2581\u2581\u2581\u2581\u2581\u2581\u2581": 647,
    "ath": 648,
    ").": 649,
    "\u2581when": 650,
    "\u2581sc": 651,
    "mer": 652,
    "rent": 653,
    "ild": 654,
    "\u2581over": 655,
    "fe": 656,
    "\u2581We": 657,
    "\u2581what": 658,
    "\u2581like": 659,
    "ish": 660,
    "\u2581rec": 661,
    "use": 662,
    "vers": 663,
    "\u2581than": 664,
    "urn": 665,
    "\u2581This": 666,
    "\u2581its": 667,
    "\u2581ro": 668,
    "\u2581pre": 669,
    "ph": 670,
    "ian": 671,
    "ick": 672,
    "ink": 673,
    "\u2581am": 674,
    "\u2581bec": 675,
    "irst": 676,
    "ople": 677,
    "\u2581gr": 678,
    "ne": 679,
    "\u2581just": 680,
    "xt": 681,
    ");": 682,
    "\u2581know": 683,
    "elf": 684,
    "),": 685,
    "wn": 686,
    "\u2581no": 687,
    "ood": 688,
    "gr": 689,
    "own": 690,
    "\u2581des": 691,
    "oy": 692,
    "\u2581into": 693,
    "fter": 694,
    "ft": 695,
    "rit": 696,
    "ons": 697,
    "oll": 698,
    "\u2581tw": 699,
    "ade": 700,
    "\u2581\\": 701,
    "\u2581acc": 702,
    "anc": 703,
    "pe": 704,
    "\u2581people": 705,
    "\u2581said": 706,
    "ater": 707,
    "\u2581Un": 708,
    "\u2581how": 709,
    "\u2581pr": 710,
    "ates": 711,
    "\u2581fe": 712,
    "\u2581comm": 713,
    "ual": 714,
    "clud": 715,
    "ont": 716,
    "old": 717,
    "\u2581she": 718,
    "ious": 719,
    "\u2581need": 720,
    "ject": 721,
    "ict": 722,
    "\u2581Re": 723,
    "tern": 724,
    "ug": 725,
    "\u2581first": 726,
    "\u2581\u2013": 727,
    "hed": 728,
    "\u2581{": 729,
    "igh": 730,
    "ck": 731,
    "ool": 732,
    "//": 733,
    "we": 734,
    "\u2581Wh": 735,
    "\u2581la": 736,
    "amp": 737,
    "ause": 738,
    "iew": 739,
    "\u2581may": 740,
    "\u2581bl": 741,
    "\u2581only": 742,
    "\u2581act": 743,
    "eth": 744,
    "iss": 745,
    "\u2581ind": 746,
    "hen": 747,
    "\u2581As": 748,
    "lect": 749,
    "\u2581bet": 750,
    "com": 751,
    "get": 752,
    "\u2581\u2581\u2581\u2581\u2581\u2581\u2581\u2581\u2581\u2581\u2581\u2581": 753,
    "ning": 754,
    "rough": 755,
    "\u2581under": 756,
    "ert": 757,
    "\u2581prov": 758,
    "ful": 759,
    "\u2581cons": 760,
    "...": 761,
    "itt": 762,
    "enc": 763,
    "day": 764,
    "\u2581'": 765,
    "\u2581most": 766,
    "\u2581em": 767,
    "ise": 768,
    "\u2581two": 769,
    "ational": 770,
    "erm": 771,
    "ty": 772,
    "les": 773,
    "ific": 774,
    "ities": 775,
    "\u2581back": 776,
    "\u2581see": 777,
    "\u2581includ": 778,
    "row": 779,
    "oint": 780,
    "\u2581Com": 781,
    "\u2581through": 782,
    "\u2581rel": 783,
    "\u2581add": 784,
    "ata": 785,
    "\u2581could": 786,
    "pect": 787,
    "\u2581}": 788,
    "ife": 789,
    "\u2581[": 790,
    "ating": 791,
    "\u2581use": 792,
    "\u2581&": 793,
    "\u2581make": 794,
    "\u2581fl": 795,
    "\u2581att": 796,
    "uch": 797,
    "olog": 798,
    "yst": 799,
    "\u2581want": 800,
    "\u2581dif": 801,
    "\u2581these": 802,
    "\u2581every": 803,
    "lp": 804,
    "\u2581him": 805,
    "\u2581after": 806,
    "\u2581reg": 807,
    "\u2581well": 808,
    "\u2581You": 809,
    "\u2581look": 810,
    "fore": 811,
    "\u2581where": 812,
    "\u2581years": 813,
    "\u2581And": 814,
    "\u2581ph": 815,
    "\u2581co": 816,
    "\u2581fun": 817,
    "rib": 818,
    "ied": 819,
    "ock": 820,
    "oth": 821,
    "\u2581br": 822,
    "ics": 823,
    "\u2581ass": 824,
    "\u2581stud": 825,
    "ys": 826,
    "\u2581ret": 827,
    "\u2581inv": 828,
    "ublic": 829,
    "\u2581imp": 830,
    "ident": 831,
    "\u2581then": 832,
    "\u2581help": 833,
    "ments": 834,
    "ener": 835,
    "oss": 836,
    "\u2581bu": 837,
    "\u2581serv": 838,
    "\u2581If": 839,
    "oup": 840,
    "io": 841,
    "....": 842,
    "als": 843,
    "\u2581very": 844,
    "ily": 845,
    "\u2581supp": 846,
    "ices": 847,
    "ward": 848,
    "\u2581did": 849,
    "\u2581produ": 850,
    "erson": 851,
    "\u2581way": 852,
    "\u2581many": 853,
    "\u2581rem": 854,
    "\u2581Pro": 855,
    "cess": 856,
    "\u2581Al": 857,
    "\u2581col": 858,
    "ange": 859,
    "ible": 860,
    "\u2581inc": 861,
    "\u2581even": 862,
    "\u2581play": 863,
    "ased": 864,
    "\u2581should": 865,
    "\u2581such": 866,
    "ork": 867,
    "ract": 868,
    "\u2581now": 869,
    "\u2581sec": 870,
    "\u2581ent": 871,
    "\u2581sub": 872,
    "any": 873,
    "ystem": 874,
    "ting": 875,
    "ular": 876,
    "\u2581set": 877,
    "\u2581good": 878,
    "\u2581New": 879,
    "ility": 880,
    "\u2581because": 881,
    "\u2581fin": 882,
    "\u2581don": 883,
    "\u2581def": 884,
    "ited": 885,
    "\u2581De": 886,
    "\u2581En": 887,
    "\u2581right": 888,
    "pr": 889,
    "\u2581tra": 890,
    "arch": 891,
    "ull": 892,
    "\u2581think": 893,
    "ble": 894,
    "\u2581Ar": 895,
    "\u2581ob": 896,
    "uring": 897,
    "ower": 898,
    "hip": 899,
    "\u2581ke": 900,
    "ient": 901,
    "aking": 902,
    "\u2581ac": 903,
    "ement": 904,
    "ax": 905,
    "\u2581<": 906,
    "\u2581pol": 907,
    "ures": 908,
    "other": 909,
    "its": 910,
    "ative": 911,
    ".\"": 912,
    "\u2581But": 913,
    "ex": 914,
    "\u2581much": 915,
    "\u2581pres": 916,
    "\u2581own": 917,
    "\u2581.": 918,
    "\u2581sm": 919,
    "\u2581For": 920,
    "riv": 921,
    "velop": 922,
    "iness": 923,
    "hes": 924,
    "ix": 925,
    "\u2581dec": 926,
    "\u2581again": 927,
    "ience": 928,
    "\u2581exper": 929,
    "\u2581mod": 930,
    "\u2581gu": 931,
    "**": 932,
    "ts": 933,
    "\u2581end": 934,
    "gan": 935,
    "iel": 936,
    "\u2581import": 937,
    "\u2581long": 938,
    "\u2581inst": 939,
    "\u2581start": 940,
    "\u2581great": 941,
    "\u2581down": 942,
    "ues": 943,
    "\u2581being": 944,
    "\u2581Se": 945,
    "\u2581eff": 946,
    "air": 947,
    "tt": 948,
    "ars": 949,
    "\u2581read": 950,
    "chool": 951,
    "cept": 952,
    "\u2581does": 953,
    "\u2581str": 954,
    "ivers": 955,
    "formation": 956,
    "ss": 957,
    "\u2581show": 958,
    "\u2581diffe": 959,
    "land": 960,
    "ank": 961,
    "\u2581those": 962,
    "\u2581sur": 963,
    "alth": 964,
    "ah": 965,
    "\u2581trans": 966,
    "\u2581spec": 967,
    "ten": 968,
    "ier": 969,
    "ash": 970,
    "\u2581loc": 971,
    "\u2581bel": 972,
    "\u2581i": 973,
    "ces": 974,
    "\u2581call": 975,
    "ins": 976,
    "_{": 977,
    "con": 978,
    "\u2581som": 979,
    "ven": 980,
    "rest": 981,
    "\u2581num": 982,
    "az": 983,
    "ek": 984,
    "\u2581here": 985,
    "----": 986,
    "ution": 987,
    "way": 988,
    "\u2581el": 989,
    "\u2581find": 990,
    "ize": 991,
    "\u2581inter": 992,
    "\u2581world": 993,
    "\u2581bus": 994,
    "ric": 995,
    "\u2581ins": 996,
    "\u2581made": 997,
    "\u2581requ": 998,
    "\u2581high": 999,
    "\u2581before": 1000,
    "\u2581Sh": 1001,
    "ince": 1002,
    "ale": 1003,
    "ollow": 1004,
    "ateg": 1005,
    "uc": 1006,
    "\u2581fam": 1007,
    "\u2581Le": 1008,
    "\u2581mon": 1009,
    "ason": 1010,
    "de": 1011,
    "__": 1012,
    "meric": 1013,
    "imes": 1014,
    "\u2581class": 1015,
    ".\u201d": 1016,
    "ner": 1017,
    "\u2581person": 1018,
    "irect": 1019,
    "\u2581op": 1020,
    "ced": 1021,
    "\u2581form": 1022,
    "\u2581day": 1023,
    "ually": 1024,
    "\u2581take": 1025,
    "gram": 1026,
    "alk": 1027,
    "\u2581min": 1028,
    "arg": 1029,
    "\u2581sim": 1030,
    "led": 1031,
    "self": 1032,
    "ton": 1033,
    "\u2581art": 1034,
    "\u2581mem": 1035,
    "The": 1036,
    "\u2581|": 1037,
    "ween": 1038,
    "ave": 1039,
    "man": 1040,
    "ather": 1041,
    "read": 1042,
    "\u2581There": 1043,
    "\u2581count": 1044,
    "\u2581life": 1045,
    "ives": 1046,
    "\u2581disc": 1047,
    "\u2581system": 1048,
    "iet": 1049,
    "\u2581used": 1050,
    "ouse": 1051,
    "\u2581exp": 1052,
    "\u2581develop": 1053,
    "\u2581det": 1054,
    "atch": 1055,
    "uth": 1056,
    "\u2581val": 1057,
    "ought": 1058,
    "\u2581last": 1059,
    "\u2581inte": 1060,
    "\u2581med": 1061,
    "ines": 1062,
    "oh": 1063,
    "\u2581car": 1064,
    "\u2581public": 1065,
    "\u2581cur": 1066,
    "view": 1067,
    "ages": 1068,
    "\u2581ra": 1069,
    "\u2581Q": 1070,
    "ene": 1071,
    "\u2581How": 1072,
    "els": 1073,
    "\u2581between": 1074,
    "\u2581ser": 1075,
    "\u2581On": 1076,
    "\u2581best": 1077,
    "\u2581ext": 1078,
    "aw": 1079,
    "\u2581Americ": 1080,
    "\u2581ed": 1081,
    "ism": 1082,
    "ps": 1083,
    "ds": 1084,
    "\u2581ear": 1085,
    "\u2581same": 1086,
    "chn": 1087,
    "ww": 1088,
    "\u2581cour": 1089,
    "\u2581return": 1090,
    "\u2581che": 1091,
    "\u2581follow": 1092,
    "ever": 1093,
    "\u2581av": 1094,
    "let": 1095,
    "\u2581while": 1096,
    "\u2581information": 1097,
    "ode": 1098,
    "\u2581point": 1099,
    "\u2581rep": 1100,
    "\u2581lead": 1101,
    "ern": 1102,
    "arm": 1103,
    "=\"": 1104,
    "\u2581say": 1105,
    "\u2581Cl": 1106,
    "\u2581hand": 1107,
    "\u2581each": 1108,
    "orn": 1109,
    "vern": 1110,
    "\u2581child": 1111,
    "\u2581still": 1112,
    "ists": 1113,
    "\u2581really": 1114,
    "\u2581real": 1115,
    "uss": 1116,
    "\u2581sign": 1117,
    "\u2581They": 1118,
    "\u2581cre": 1119,
    "\u2581var": 1120,
    "arket": 1121,
    "be": 1122,
    "()": 1123,
    "\u2581Tr": 1124,
    "\u2581vis": 1125,
    "\u2581#": 1126,
    "\u2581fil": 1127,
    "vent": 1128,
    "ters": 1129,
    "\u2581book": 1130,
    "line": 1131,
    "\u2581going": 1132,
    ".,": 1133,
    "\u2581different": 1134,
    "sc": 1135,
    "\u2581home": 1136,
    "ER": 1137,
    "\u2581gener": 1138,
    "ames": 1139,
    "ik": 1140,
    "the": 1141,
    "\u2581Ad": 1142,
    "to": 1143,
    "\u2581business": 1144,
    "akes": 1145,
    "ute": 1146,
    "\u2581post": 1147,
    "\u2581both": 1148,
    "\u2581around": 1149,
    "\u2581So": 1150,
    "\u2581commun": 1151,
    "\u2581Sc": 1152,
    "\u2581found": 1153,
    "\u2581bo": 1154,
    "\u2581care": 1155,
    "ness": 1156,
    "\u2581del": 1157,
    "ized": 1158,
    "ional": 1159,
    "ann": 1160,
    "ology": 1161,
    "\u2581fr": 1162,
    "\u2581Is": 1163,
    "ined": 1164,
    "\u2581She": 1165,
    "\u2581data": 1166,
    "\u2581Be": 1167,
    "\u2581support": 1168,
    "\u2581result": 1169,
    "\u2581sl": 1170,
    "bs": 1171,
    "\u2581ty": 1172,
    "\u2581Fr": 1173,
    "\u2581provid": 1174,
    "\u2581gl": 1175,
    "ret": 1176,
    "\u2581const": 1177,
    "\u2581Sp": 1178,
    "\u2581dist": 1179,
    "ital": 1180,
    "ody": 1181,
    "\u2581cor": 1182,
    "\u2581inf": 1183,
    ",\"": 1184,
    ",\u201d": 1185,
    "\u2581est": 1186,
    "\u2581fact": 1187,
    "\u2581cent": 1188,
    "aj": 1189,
    "ger": 1190,
    "\u2581run": 1191,
    "\u2581Z": 1192,
    "\u2581too": 1193,
    "\u2581three": 1194,
    "ants": 1195,
    "\u2581program": 1196,
    "ature": 1197,
    "ring": 1198,
    "ross": 1199,
    "\u2581dep": 1200,
    "ved": 1201,
    "yn": 1202,
    "ruct": 1203,
    "ired": 1204,
    "\u2581team": 1205,
    "iversity": 1206,
    "ying": 1207,
    "\u2581Ex": 1208,
    "ways": 1209,
    "oad": 1210,
    "app": 1211,
    "\u2581design": 1212,
    "ittle": 1213,
    "://": 1214,
    "ym": 1215,
    "\u2581Ph": 1216,
    "ets": 1217,
    "riend": 1218,
    "\u2581appro": 1219,
    "\u2581partic": 1220,
    "\u2581ref": 1221,
    "\u2581happ": 1222,
    "\u2581Bl": 1223,
    "ving": 1224,
    "In": 1225,
    "\u2581process": 1226,
    "\u2581using": 1227,
    "\u2581conf": 1228,
    "\u2581Con": 1229,
    "\u2581list": 1230,
    "\u2581during": 1231,
    "\u2581sol": 1232,
    "ms": 1233,
    "\u2581place": 1234,
    "{\\": 1235,
    "\u2581\u2581\u2581\u2581\u2581\u2581": 1236,
    "\u2581char": 1237,
    "arn": 1238,
    "\u2581resp": 1239,
    "\u2581few": 1240,
    "\u2581writ": 1241,
    "ething": 1242,
    "rist": 1243,
    "ished": 1244,
    "bers": 1245,
    "\u2581To": 1246,
    "\u2581cle": 1247,
    "ural": 1248,
    "\u2581z": 1249,
    "ield": 1250,
    "\u2581group": 1251,
    "\",": 1252,
    "ared": 1253,
    "\u2581self": 1254,
    "ision": 1255,
    "\u2581Gr": 1256,
    "\u2581things": 1257,
    "\u2581cap": 1258,
    "\u2581sk": 1259,
    "\u2581school": 1260,
    "\u2581prof": 1261,
    "raph": 1262,
    "\u2581contin": 1263,
    "ense": 1264,
    "\u2581pur": 1265,
    "\u2581What": 1266,
    "ically": 1267,
    "\u2581par": 1268,
    "thing": 1269,
    "\u2581+": 1270,
    "\u2581lot": 1271,
    "\u2581pass": 1272,
    "\u2581poss": 1273,
    "que": 1274,
    "\u2581interest": 1275,
    "\u2581number": 1276,
    "\u2581open": 1277,
    "math": 1278,
    "ral": 1279,
    "\u2581$\\": 1280,
    "\u2581Pl": 1281,
    "oot": 1282,
    "rence": 1283,
    "\u2581report": 1284,
    "\u2581iss": 1285,
    "att": 1286,
    "\u2581cr": 1287,
    "\u2581adv": 1288,
    "cent": 1289,
    "less": 1290,
    "inal": 1291,
    "\u2581All": 1292,
    "\u2581Ind": 1293,
    "li": 1294,
    "\u2581soc": 1295,
    "\u2581must": 1296,
    "\u2581stat": 1297,
    "gg": 1298,
    "\u2581product": 1299,
    "err": 1300,
    "\u2581main": 1301,
    "iving": 1302,
    "\u2581\u2014": 1303,
    "\u2581something": 1304,
    "ially": 1305,
    "ator": 1306,
    "\u2581second": 1307,
    "\u2581pat": 1308,
    "stand": 1309,
    "\u2581When": 1310,
    "\u2581come": 1311,
    "\u2581*": 1312,
    "\u2581That": 1313,
    "\u2581direct": 1314,
    "\u2581\u2018": 1315,
    "\u2581et": 1316,
    "ining": 1317,
    "\u2581techn": 1318,
    "\u2581market": 1319,
    "St": 1320,
    "\u2581another": 1321,
    "\u2581feel": 1322,
    "eng": 1323,
    "\u2581_": 1324,
    "\u2581since": 1325,
    "ina": 1326,
    "IN": 1327,
    "\u2581di": 1328,
    "\u2581month": 1329,
    "\u2581quest": 1330,
    "\u2581including": 1331,
    "\u2581little": 1332,
    "und": 1333,
    "\u2581expl": 1334,
    "br": 1335,
    "\u2581never": 1336,
    "\u2581week": 1337,
    "lease": 1338,
    "\u2581rest": 1339,
    "\u2581law": 1340,
    "\u2581top": 1341,
    "ves": 1342,
    "\u2581let": 1343,
    "ider": 1344,
    "\u2581Or": 1345,
    "\u2581Col": 1346,
    "rol": 1347,
    "\u2581proble": 1348,
    "ality": 1349,
    "illion": 1350,
    "\u2581mus": 1351,
    "ote": 1352,
    "\u2581state": 1353,
    "\u2581health": 1354,
    "\u2581eas": 1355,
    "\u2581without": 1356,
    "\u2581put": 1357,
    "ered": 1358,
    "ploy": 1359,
    "\u2581head": 1360,
    "\u2581effect": 1361,
    "\u2581small": 1362,
    "\u2581:": 1363,
    "\u2581organ": 1364,
    "\u2581wom": 1365,
    "\u2581always": 1366,
    "\u2581ide": 1367,
    "\u2581Te": 1368,
    "ember": 1369,
    "\u2581mov": 1370,
    "\u2581Comm": 1371,
    "rem": 1372,
    "\u2581stand": 1373,
    "\u2581better": 1374,
    "ON": 1375,
    "\u2581tri": 1376,
    "\u2581plan": 1377,
    "\u2581build": 1378,
    "\u2581love": 1379,
    "ertain": 1380,
    "\u2581/": 1381,
    "son": 1382,
    "\u2581project": 1383,
    "\u2581pos": 1384,
    "\u2581might": 1385,
    "\u2581family": 1386,
    "vernment": 1387,
    "ustom": 1388,
    "\u2581At": 1389,
    "\u2581got": 1390,
    "esp": 1391,
    "\u2581won": 1392,
    "\u2581old": 1393,
    "ron": 1394,
    "ccess": 1395,
    "\u2581against": 1396,
    "\u2581next": 1397,
    "gin": 1398,
    "\u2581perform": 1399,
    "\u2581opp": 1400,
    "isc": 1401,
    "\u2581case": 1402,
    "\u2581allow": 1403,
    "min": 1404,
    "gy": 1405,
    "ope": 1406,
    "\u2581keep": 1407,
    "\u2581US": 1408,
    "\u2581incre": 1409,
    "ately": 1410,
    "ission": 1411,
    "pro": 1412,
    "\u2581oper": 1413,
    "\u2581belie": 1414,
    "\u2581seem": 1415,
    "\u2581hist": 1416,
    "\u2581Mar": 1417,
    "lement": 1418,
    "\u2581big": 1419,
    "pos": 1420,
    "ior": 1421,
    "put": 1422,
    "reen": 1423,
    "\u2581dem": 1424,
    "\u2581rece": 1425,
    "nect": 1426,
    "==": 1427,
    "\u2581power": 1428,
    "\u2581test": 1429,
    "\u2581prot": 1430,
    "ency": 1431,
    "ases": 1432,
    "au": 1433,
    "\u2581leg": 1434,
    "\u2581opt": 1435,
    "ery": 1436,
    "\u2581hum": 1437,
    "\u2581equ": 1438,
    "over": 1439,
    "ailable": 1440,
    "\u2581company": 1441,
    "\u2581mat": 1442,
    "ript": 1443,
    "par": 1444,
    "\u2581htt": 1445,
    "ox": 1446,
    "\u2581important": 1447,
    "of": 1448,
    "ohn": 1449,
    "\u2581game": 1450,
    "\u2581University": 1451,
    "outh": 1452,
    "\u2581turn": 1453,
    "\u2581friend": 1454,
    "\u2581bro": 1455,
    "\u2581pay": 1456,
    "sp": 1457,
    "\u2581says": 1458,
    "\u2581ask": 1459,
    "ling": 1460,
    "ott": 1461,
    "\u2581name": 1462,
    "\u2581hard": 1463,
    "\u2581invest": 1464,
    "\u2581current": 1465,
    "\u2581spe": 1466,
    "ample": 1467,
    "\u0441\u0442": 1468,
    "uro": 1469,
    "ma": 1470,
    "\u2581With": 1471,
    "\u2581level": 1472,
    "}$": 1473,
    "\u2581\u043f": 1474,
    "enn": 1475,
    "ury": 1476,
    "\u2581No": 1477,
    "here": 1478,
    "oney": 1479,
    "sh": 1480,
    "tain": 1481,
    "\u2581less": 1482,
    "\u2581rese": 1483,
    "\u2581ann": 1484,
    "\u2581Christ": 1485,
    "eb": 1486,
    "ivid": 1487,
    "AT": 1488,
    "orth": 1489,
    "ES": 1490,
    "ley": 1491,
    "ization": 1492,
    "\u2581met": 1493,
    "\u2581May": 1494,
    "til": 1495,
    "uthor": 1496,
    "iven": 1497,
    "ple": 1498,
    "oid": 1499,
    "med": 1500,
    "\u2581free": 1501,
    "ably": 1502,
    "\u2581term": 1503,
    "\u2581pop": 1504,
    "ised": 1505,
    "\u2581sure": 1506,
    "\u2581water": 1507,
    "\u2581present": 1508,
    "mber": 1509,
    "\u2581My": 1510,
    "\u2581bre": 1511,
    "arent": 1512,
    "\u2581proper": 1513,
    "\u2581order": 1514,
    "\u2581manag": 1515,
    "(\"": 1516,
    "por": 1517,
    "oci": 1518,
    "uck": 1519,
    "ream": 1520,
    "ering": 1521,
    "ention": 1522,
    "inc": 1523,
    "\u2581experience": 1524,
    "\u2581available": 1525,
    "\u2581dr": 1526,
    "\u2581cost": 1527,
    "):": 1528,
    "\u2581able": 1529,
    "lection": 1530,
    "\u2581Cent": 1531,
    "\u2581view": 1532,
    "ane": 1533,
    "\u2581grow": 1534,
    "\u2581sit": 1535,
    "\u2581Go": 1536,
    "\u043d\u0430": 1537,
    "ium": 1538,
    "\u2581within": 1539,
    "ified": 1540,
    "vious": 1541,
    "\u2581John": 1542,
    "\u2581aff": 1543,
    "\u2581cho": 1544,
    "\u2581give": 1545,
    "oor": 1546,
    "itions": 1547,
    "\u2581service": 1548,
    "\u2581four": 1549,
    "........": 1550,
    "\u2581beh": 1551,
    "ently": 1552,
    "une": 1553,
    "icle": 1554,
    "arge": 1555,
    "by": 1556,
    "ump": 1557,
    "ived": 1558,
    "\u2581children": 1559,
    "\u2581Res": 1560,
    "\u2581days": 1561,
    "\u2581sing": 1562,
    "val": 1563,
    "ards": 1564,
    "\u2581Rep": 1565,
    "ration": 1566,
    "ats": 1567,
    "AR": 1568,
    "iron": 1569,
    "\u2581thought": 1570,
    "conom": 1571,
    "\u2581God": 1572,
    "\u2581record": 1573,
    "\u2581full": 1574,
    "\u2581bas": 1575,
    "ument": 1576,
    "ird": 1577,
    "lish": 1578,
    "OR": 1579,
    "\u2581,": 1580,
    "\u2581Can": 1581,
    "\u2581local": 1582,
    "\u2581fac": 1583,
    "aut": 1584,
    "\u2581prom": 1585,
    "\u2581eng": 1586,
    "->": 1587,
    "ured": 1588,
    "',": 1589,
    "ains": 1590,
    "ung": 1591,
    "\u2581Am": 1592,
    "\u2581Eng": 1593,
    "\u2581change": 1594,
    "ortun": 1595,
    "ories": 1596,
    "ead": 1597,
    "ively": 1598,
    "\u2581\u0432": 1599,
    "\u2581Car": 1600,
    "\u2581intern": 1601,
    "\u2581Man": 1602,
    "\u2581American": 1603,
    "\u2581custom": 1604,
    "omm": 1605,
    "ng": 1606,
    "\u2581left": 1607,
    "iety": 1608,
    "\u2581chang": 1609,
    "\u2581win": 1610,
    "ours": 1611,
    "ries": 1612,
    "right": 1613,
    "work": 1614,
    "urs": 1615,
    "\u2581elect": 1616,
    "\u2581understand": 1617,
    "\u2581One": 1618,
    "ability": 1619,
    "ney": 1620,
    "\u2581Pr": 1621,
    "lex": 1622,
    "\u2581area": 1623,
    "\u2581why": 1624,
    "\u2581non": 1625,
    "\u2581away": 1626,
    "\u2581thing": 1627,
    "\u2581provide": 1628,
    "ethod": 1629,
    "\u2581meet": 1630,
    "ush": 1631,
    "aim": 1632,
    "\u2581working": 1633,
    "set": 1634,
    "\u0440\u0430": 1635,
    "ajor": 1636,
    "ients": 1637,
    "\u2581didn": 1638,
    "\u2581cond": 1639,
    "acy": 1640,
    "\u043d\u0438": 1641,
    "\u2581pract": 1642,
    "ource": 1643,
    "fr": 1644,
    "\u2581Co": 1645,
    "\u2581expect": 1646,
    "\u2581X": 1647,
    "text": 1648,
    "\u2581course": 1649,
    "\u2581students": 1650,
    "AN": 1651,
    "\u2581conc": 1652,
    "elt": 1653,
    "\u2581government": 1654,
    "ination": 1655,
    "\u2581Ne": 1656,
    "\u2581mar": 1657,
    "::": 1658,
    "--------": 1659,
    "ential": 1660,
    "\u2581today": 1661,
    "\u2581services": 1662,
    "\u2581success": 1663,
    "\u2581past": 1664,
    "for": 1665,
    "\u2581light": 1666,
    "ait": 1667,
    "ee": 1668,
    "\u2581story": 1669,
    "ending": 1670,
    "!!": 1671,
    "\u2581job": 1672,
    "ware": 1673,
    "\u2581function": 1674,
    "\u2581access": 1675,
    "\u2581until": 1676,
    "irc": 1677,
    "\u2581activ": 1678,
    "me": 1679,
    "\u2581near": 1680,
    "\u2581country": 1681,
    "\u2581offic": 1682,
    "\u2581making": 1683,
    "\u2581Br": 1684,
    "\u2581event": 1685,
    "ober": 1686,
    "aster": 1687,
    "atic": 1688,
    "aug": 1689,
    "\u2581By": 1690,
    "\u2581exc": 1691,
    "\u2581Fl": 1692,
    "ising": 1693,
    "ians": 1694,
    "\u2581called": 1695,
    "\u2581priv": 1696,
    "^{": 1697,
    "\u2581dev": 1698,
    "\u2581line": 1699,
    "\u2581employ": 1700,
    "\u2581addition": 1701,
    "ots": 1702,
    "\u2581times": 1703,
    "new": 1704,
    "EN": 1705,
    "iver": 1706,
    "\u2581wr": 1707,
    "idd": 1708,
    "\u2581having": 1709,
    "\u2581phot": 1710,
    "\u2581mean": 1711,
    "\u2581often": 1712,
    "veral": 1713,
    "\u2581money": 1714,
    "\u2581kind": 1715,
    "rop": 1716,
    "\u2581occ": 1717,
    "ready": 1718,
    "\u2581tell": 1719,
    "\u2581special": 1720,
    "\u2581desc": 1721,
    "ister": 1722,
    "uff": 1723,
    "leg": 1724,
    "\u2581United": 1725,
    "resent": 1726,
    "\u2581move": 1727,
    "ocus": 1728,
    "\u043a\u043e": 1729,
    "\u2581far": 1730,
    "\u2581mil": 1731,
    "\u2581Wor": 1732,
    "osed": 1733,
    "\u2581charact": 1734,
    "ended": 1735,
    "duct": 1736,
    "ograph": 1737,
    "\u2581along": 1738,
    "\u2581applic": 1739,
    "\u2581men": 1740,
    "arr": 1741,
    "\u2581tem": 1742,
    "side": 1743,
    "fer": 1744,
    "\u2581ve": 1745,
    "eter": 1746,
    "\u2581orig": 1747,
    "\u2581App": 1748,
    "\u2581aut": 1749,
    "ording": 1750,
    "ither": 1751,
    "\u2581value": 1752,
    "\u2581music": 1753,
    "##": 1754,
    "\u2581else": 1755,
    "\u2581land": 1756,
    "uly": 1757,
    "alf": 1758,
    "ances": 1759,
    "\u2581least": 1760,
    "ulation": 1761,
    "\u2581following": 1762,
    "\u2581sw": 1763,
    "ST": 1764,
    "\u2581ever": 1765,
    "viron": 1766,
    "\u2581based": 1767,
    "\u2581learn": 1768,
    "\u2581research": 1769,
    "\u2581polit": 1770,
    "\u2581fore": 1771,
    "pped": 1772,
    "\u043d\u043e": 1773,
    "not": 1774,
    "\u2581enough": 1775,
    "\u2581profess": 1776,
    "ales": 1777,
    "}\\": 1778,
    "\u2581lim": 1779,
    "\u2581become": 1780,
    "\u2581though": 1781,
    "\u2581indust": 1782,
    "\u2581done": 1783,
    "ai": 1784,
    "\u2581talk": 1785,
    "\u2581Do": 1786,
    "ference": 1787,
    "\u2581night": 1788,
    "ividual": 1789,
    "\u2581community": 1790,
    "\u2581visit": 1791,
    "ique": 1792,
    "\u2581lik": 1793,
    "rap": 1794,
    "ows": 1795,
    "\u2581large": 1796,
    "uture": 1797,
    "aff": 1798,
    "\u2581certain": 1799,
    "\u2581impro": 1800,
    "ole": 1801,
    "itive": 1802,
    "sel": 1803,
    "\u2581\u0441": 1804,
    "osp": 1805,
    "\u2581already": 1806,
    "\u2581After": 1807,
    "\u2581short": 1808,
    "\u2581possible": 1809,
    "gether": 1810,
    "\u2581together": 1811,
    "\u2581Med": 1812,
    "ike": 1813,
    "\u2581major": 1814,
    "\u2581camp": 1815,
    "\u2581connect": 1816,
    "urch": 1817,
    "\u2581came": 1818,
    "\u2581women": 1819,
    "\u0440\u043e": 1820,
    "\u2581million": 1821,
    "\u2581example": 1822,
    "\u2581others": 1823,
    "ids": 1824,
    "\u2581members": 1825,
    "\u2581Me": 1826,
    "ergy": 1827,
    "\u2581However": 1828,
    "\u2581food": 1829,
    "\u2581house": 1830,
    "\u2581These": 1831,
    "\u2581Euro": 1832,
    "</": 1833,
    "\u2581educ": 1834,
    "raw": 1835,
    "joy": 1836,
    "\u2581looking": 1837,
    "\u2581anal": 1838,
    "\u2581Im": 1839,
    "\u2581Ste": 1840,
    "aps": 1841,
    "\u2581social": 1842,
    "ills": 1843,
    "\u2581control": 1844,
    "\u2581given": 1845,
    "\u2581room": 1846,
    "yl": 1847,
    "\u2581Jan": 1848,
    "ted": 1849,
    "yle": 1850,
    "\u2581several": 1851,
    "\u2581lo": 1852,
    "\u2581means": 1853,
    "aces": 1854,
    "\u2581Ab": 1855,
    "\u2581//": 1856,
    "amb": 1857,
    "aterial": 1858,
    "lished": 1859,
    "\u2581include": 1860,
    "\u2581treat": 1861,
    "\u0433\u043e": 1862,
    "\u2581mult": 1863,
    "\u2581Ass": 1864,
    "\u2581protect": 1865,
    "\u2581webs": 1866,
    "aus": 1867,
    "\u2581clear": 1868,
    "\u2581human": 1869,
    "\u2581York": 1870,
    "AL": 1871,
    "\u2581ident": 1872,
    "\u2581Intern": 1873,
    "urity": 1874,
    "\u2581later": 1875,
    "\u2581site": 1876,
    "wards": 1877,
    "\u2581season": 1878,
    "iod": 1879,
    "\u2581trad": 1880,
    "enef": 1881,
    "ored": 1882,
    "ences": 1883,
    "tr": 1884,
    "\">": 1885,
    "\u2581air": 1886,
    "\u2581creat": 1887,
    "\u2581doesn": 1888,
    "ideo": 1889,
    "utes": 1890,
    "\u2581particular": 1891,
    "\u2581Dr": 1892,
    "roll": 1893,
    "\u2581individual": 1894,
    "\u2581doing": 1895,
    "\u2581side": 1896,
    "ama": 1897,
    "\u2581pain": 1898,
    "artment": 1899,
    "ison": 1900,
    "\u2581pot": 1901,
    "sw": 1902,
    "\u2581Ed": 1903,
    "\u2581net": 1904,
    "\u2581Pol": 1905,
    "\u2581author": 1906,
    "ourn": 1907,
    "\u2581consider": 1908,
    "lev": 1909,
    "\u2581econom": 1910,
    "\u2581city": 1911,
    "\u2581vers": 1912,
    "\u2581bit": 1913,
    "aper": 1914,
    "most": 1915,
    "org": 1916,
    "\u2581problem": 1917,
    "\u2581development": 1918,
    "load": 1919,
    "\u2581reason": 1920,
    "icy": 1921,
    "\u2581type": 1922,
    "\u2581focus": 1923,
    "ament": 1924,
    "\u2581Gu": 1925,
    "\u2581account": 1926,
    "\u2581invol": 1927,
    "urther": 1928,
    "ze": 1929,
    "\u2581film": 1930,
    "();": 1931,
    "\u2581Not": 1932,
    "\u2581took": 1933,
    "\u2581body": 1934,
    "aring": 1935,
    "vironment": 1936,
    "\u2581Post": 1937,
    "\u2581der": 1938,
    "\u2581State": 1939,
    "\u2581ce": 1940,
    "\u2581makes": 1941,
    "\u2581mind": 1942,
    "aken": 1943,
    "isk": 1944,
    "www": 1945,
    "ify": 1946,
    "\u2581actually": 1947,
    "\u2581across": 1948,
    "\u2581known": 1949,
    "ape": 1950,
    "go": 1951,
    "\u2581early": 1952,
    "ask": 1953,
    "\u2581vol": 1954,
    "ones": 1955,
    "hing": 1956,
    "eral": 1957,
    "\u2581online": 1958,
    "\u2581prob": 1959,
    "hat": 1960,
    "\u2581try": 1961,
    "\u2581works": 1962,
    "\u2581mom": 1963,
    "ands": 1964,
    "\u2581Cont": 1965,
    "orts": 1966,
    "\u2581live": 1967,
    "rict": 1968,
    "\u2581method": 1969,
    "\u2581happen": 1970,
    "\u2581went": 1971,
    "idence": 1972,
    "che": 1973,
    "\u2581fre": 1974,
    "\u2581Inst": 1975,
    "ched": 1976,
    "\u2581Our": 1977,
    "irl": 1978,
    "\u2581National": 1979,
    "rie": 1980,
    "fl": 1981,
    "\u2581needs": 1982,
    "\u2581Ge": 1983,
    "fect": 1984,
    "\u2581once": 1985,
    "))": 1986,
    "\u2581enjoy": 1987,
    "\u2581Cal": 1988,
    "\u2581@": 1989,
    "\u2581hold": 1990,
    "\u2581sum": 1991,
    "\u2581tot": 1992,
    "\u2581history": 1993,
    "\u2581x": 1994,
    "rain": 1995,
    "\u2581future": 1996,
    "\u2581Sec": 1997,
    "IT": 1998,
    "\u2581getting": 1999,
    "\u2581States": 2000,
    "\u2581dri": 2001,
    "\u2581deal": 2002,
    "ilar": 2003,
    "ued": 2004,
    "ails": 2005,
    "\u2581personal": 2006,
    "rew": 2007,
    "back": 2008,
    "\u2581feat": 2009,
    "ctor": 2010,
    "\u2581Bro": 2011,
    "ball": 2012,
    "ffic": 2013,
    "\u2581benef": 2014,
    "\u2581Europe": 2015,
    "\u2581http": 2016,
    "ams": 2017,
    "\u2581Pres": 2018,
    "\u2581cult": 2019,
    "\u2581discuss": 2020,
    "\u2581question": 2021,
    "play": 2022,
    "ources": 2023,
    "\u2581check": 2024,
    "\u2581typ": 2025,
    "af": 2026,
    "\u2581Will": 2027,
    "lege": 2028,
    "('": 2029,
    "\u2581Min": 2030,
    "ler": 2031,
    "\u2581low": 2032,
    "\u2581true": 2033,
    "\u2581strong": 2034,
    "ides": 2035,
    "\u2581review": 2036,
    "\u2581ant": 2037,
    "\u2581key": 2038,
    "\u2581World": 2039,
    "itor": 2040,
    "\u2581hig": 2041,
    "utions": 2042,
    "\u2581His": 2043,
    "ada": 2044,
    "\u2581Em": 2045,
    "\u2581>": 2046,
    "\u2581claim": 2047,
    "\u2581seen": 2048,
    "\u2581Mr": 2049,
    "\u2581war": 2050,
    "\u2581Count": 2051,
    "\u2581enc": 2052,
    "It": 2053,
    "\u2581super": 2054,
    "\u2581opportun": 2055,
    "\u2581create": 2056,
    "\u2581Qu": 2057,
    "agn": 2058,
    "}}": 2059,
    "\u2581study": 2060,
    "\u2581appear": 2061,
    "\u2581material": 2062,
    "lete": 2063,
    "\u2581Apr": 2064,
    "add": 2065,
    "reg": 2066,
    "ounds": 2067,
    "\u2581pub": 2068,
    "str": 2069,
    "uf": 2070,
    "ged": 2071,
    "ained": 2072,
    "\u2581told": 2073,
    "co": 2074,
    "obal": 2075,
    "\u2581specific": 2076,
    "\u2581started": 2077,
    "\u2581require": 2078,
    "\u2581yet": 2079,
    "AS": 2080,
    "reet": 2081,
    "bl": 2082,
    "ony": 2083,
    "\u2581Mc": 2084,
    "anks": 2085,
    "upp": 2086,
    "\u2581among": 2087,
    "\u2581tax": 2088,
    "\u2581City": 2089,
    "raft": 2090,
    "ED": 2091,
    "\u2581model": 2092,
    "\u2581--": 2093,
    "\u2581ey": 2094,
    "\u2581Comp": 2095,
    "imate": 2096,
    "abor": 2097,
    "\u2581percent": 2098,
    "\u2581young": 2099,
    "pping": 2100,
    "\u2581period": 2101,
    "\u2581El": 2102,
    "____": 2103,
    "IC": 2104,
    "\u2581believe": 2105,
    "nd": 2106,
    "\u2581comb": 2107,
    "\u2581Aug": 2108,
    "\u2581Part": 2109,
    "\u2581TH": 2110,
    "oard": 2111,
    "time": 2112,
    "\u2581offer": 2113,
    "\u2581comes": 2114,
    "ogn": 2115,
    "\u2581series": 2116,
    "\u2581port": 2117,
    "\u2581compet": 2118,
    "ster": 2119,
    "ray": 2120,
    "vert": 2121,
    "iol": 2122,
    "ID": 2123,
    "\u2581Oct": 2124,
    "\u2581Categ": 2125,
    "\u2581relations": 2126,
    "\u2581complet": 2127,
    "\u2581whether": 2128,
    "\u2581above": 2129,
    "\u2581months": 2130,
    "\u2581fav": 2131,
    "ights": 2132,
    "\u2581website": 2133,
    "\u2581five": 2134,
    "\u2581begin": 2135,
    "\u2581results": 2136,
    "\u2581Dep": 2137,
    "\u2581Pe": 2138,
    "illed": 2139,
    "\u2581doc": 2140,
    "esc": 2141,
    "book": 2142,
    "\u2581Par": 2143,
    "though": 2144,
    "\u2581quality": 2145,
    "\u2581heart": 2146,
    "\u0440\u0435": 2147,
    "verage": 2148,
    "ift": 2149,
    "\u2581larg": 2150,
    "\u2581deb": 2151,
    "\u2581redu": 2152,
    "\u2581School": 2153,
    "\u2581Serv": 2154,
    "\u2581step": 2155,
    "hers": 2156,
    "\u2581...": 2157,
    "\u2581crit": 2158,
    "my": 2159,
    "\u2581single": 2160,
    "ried": 2161,
    "\u0440\u0438": 2162,
    "ches": 2163,
    "\u2581South": 2164,
    "\u2581space": 2165,
    "ili": 2166,
    "\u2581pri": 2167,
    "fic": 2168,
    "\u2581Act": 2169,
    "ilities": 2170,
    "itle": 2171,
    "\u2581More": 2172,
    "\u2581due": 2173,
    "\u2581respons": 2174,
    "\u2581phys": 2175,
    "\u2581bring": 2176,
    "uation": 2177,
    "(\\": 2178,
    "\u2581Now": 2179,
    "anies": 2180,
    "ault": 2181,
    "\u2581someone": 2182,
    "\u2581meas": 2183,
    "rodu": 2184,
    "iter": 2185,
    "\u2581products": 2186,
    "\u2581represent": 2187,
    "\u2581wind": 2188,
    "\u2581jo": 2189,
    "angu": 2190,
    "\u2581whole": 2191,
    "\u2581Per": 2192,
    "\u2581Tw": 2193,
    "\u2581Af": 2194,
    "\u2581press": 2195,
    "\u2581esp": 2196,
    "ule": 2197,
    "\u2581cal": 2198,
    "oud": 2199,
    "****": 2200,
    "\u2581Che": 2201,
    "\u2581mor": 2202,
    "\u2581Aust": 2203,
    "\u2581init": 2204,
    "\u2581share": 2205,
    "RE": 2206,
    "selves": 2207,
    "ibility": 2208,
    "ators": 2209,
    "\u2581mess": 2210,
    "\u2581und": 2211,
    "\u2581Feb": 2212,
    "\u2581Just": 2213,
    "ilt": 2214,
    "\u2581break": 2215,
    "\u2581anything": 2216,
    "\u2581private": 2217,
    "urg": 2218,
    "error": 2219,
    "empt": 2220,
    "ume": 2221,
    "\u2581North": 2222,
    "\u2581Gl": 2223,
    "\u2581Sept": 2224,
    "cer": 2225,
    "uary": 2226,
    "olution": 2227,
    "\u2581mot": 2228,
    "\u2581common": 2229,
    "\u2581arg": 2230,
    "\u2581field": 2231,
    "\u2581exist": 2232,
    "\u2581address": 2233,
    "\u2581friends": 2234,
    "\u2581either": 2235,
    "\u2581idea": 2236,
    "ecially": 2237,
    "umb": 2238,
    "\u2581Sun": 2239,
    "\u2581fund": 2240,
    "\u2581Ag": 2241,
    "room": 2242,
    "itted": 2243,
    "ival": 2244,
    "\u2581March": 2245,
    "IS": 2246,
    "\u2581energy": 2247,
    "onse": 2248,
    "ancial": 2249,
    "\u2581chall": 2250,
    "gress": 2251,
    "ibr": 2252,
    "AC": 2253,
    "\u2581text": 2254,
    "abel": 2255,
    "\u2581final": 2256,
    "\u2581dou": 2257,
    "\u2581object": 2258,
    "oon": 2259,
    "\u2581Your": 2260,
    "ples": 2261,
    ")$": 2262,
    "\u2581amount": 2263,
    "\u2581walk": 2264,
    "part": 2265,
    "We": 2266,
    "\u2581Dav": 2267,
    "\u2581hope": 2268,
    "\u2581sugg": 2269,
    "arget": 2270,
    "ners": 2271,
    "\u2581suggest": 2272,
    "\u2581character": 2273,
    "head": 2274,
    "\u2581Some": 2275,
    "\u2581quick": 2276,
    "wh": 2277,
    "\u2581ago": 2278,
    "atural": 2279,
    "era": 2280,
    "ops": 2281,
    "\u2581respect": 2282,
    "\u2581beaut": 2283,
    "\u2581Art": 2284,
    "irm": 2285,
    "\u2581page": 2286,
    "\u2581half": 2287,
    "\u2581range": 2288,
    "atur": 2289,
    "ux": 2290,
    "\u2581Ke": 2291,
    "\u2581general": 2292,
    "\u2581easy": 2293,
    "\u2581industry": 2294,
    "\u2581hours": 2295,
    "\u2581determ": 2296,
    "\u2581everything": 2297,
    "\u2581Stud": 2298,
    "unch": 2299,
    "\u2581April": 2300,
    "\u2581signific": 2301,
    "\u2581parent": 2302,
    "\u2581cell": 2303,
    "ino": 2304,
    "\u2581cut": 2305,
    "face": 2306,
    "\u2581face": 2307,
    "\u2581Bar": 2308,
    "\u2581almost": 2309,
    "\u2581building": 2310,
    "\u2581struct": 2311,
    "\u2581sent": 2312,
    "\u2581environment": 2313,
    "ij": 2314,
    "\u2581further": 2315,
    "\u2581death": 2316,
    "\u2581\u0438": 2317,
    "\u2581contact": 2318,
    "\u2581trying": 2319,
    "\u2581June": 2320,
    "\u2581media": 2321,
    "cal": 2322,
    "name": 2323,
    "iday": 2324,
    "ser": 2325,
    "\u2581issues": 2326,
    "aid": 2327,
    "\u2581video": 2328,
    "\u2581While": 2329,
    "\u2581bad": 2330,
    "ification": 2331,
    "\u2581fall": 2332,
    "\u2581Cor": 2333,
    "fully": 2334,
    "\u2581log": 2335,
    "asing": 2336,
    "\u2581taking": 2337,
    "\u2581Reg": 2338,
    "oph": 2339,
    "\u2581age": 2340,
    "LE": 2341,
    "\u2581War": 2342,
    "\u2581hot": 2343,
    "chie": 2344,
    "na": 2345,
    "\u2581subject": 2346,
    "Th": 2347,
    "\u2581\u043e": 2348,
    "ana": 2349,
    "ledge": 2350,
    "\u2581soft": 2351,
    "ci": 2352,
    "\u2581rather": 2353,
    "\u2581rad": 2354,
    "\u2581taken": 2355,
    "ips": 2356,
    "\u2581position": 2357,
    "\u2581shall": 2358,
    "\u2581print": 2359,
    "ply": 2360,
    "\u2581companies": 2361,
    "elling": 2362,
    "ruction": 2363,
    "\u2581Sch": 2364,
    "rm": 2365,
    "ided": 2366,
    "aul": 2367,
    "\u2581pret": 2368,
    "\u2581ste": 2369,
    "irt": 2370,
    "\u2581pack": 2371,
    "\u2581)": 2372,
    "\u2581necess": 2373,
    "\u2581news": 2374,
    "\u2581Sm": 2375,
    "ends": 2376,
    "dd": 2377,
    "\u2581miss": 2378,
    "\u2581Don": 2379,
    "minist": 2380,
    "\u2581Rec": 2381,
    "ille": 2382,
    "Re": 2383,
    "\u2581content": 2384,
    "\u2581entire": 2385,
    "\u2581From": 2386,
    "\u2581describ": 2387,
    "\u2581third": 2388,
    "\u2581quite": 2389,
    "\u2581action": 2390,
    "\u2581America": 2391,
    "bb": 2392,
    "\u2581Here": 2393,
    "ype": 2394,
    "\u2581Brit": 2395,
    "\u2581po": 2396,
    "ises": 2397,
    "istic": 2398,
    "\u2581Soc": 2399,
    "\u2581President": 2400,
    "\u2581comput": 2401,
    "\u2581similar": 2402,
    "\u2581perfect": 2403,
    "\u2581cred": 2404,
    "\u2581infl": 2405,
    "\u2581compl": 2406,
    "ules": 2407,
    "\u2581close": 2408,
    "key": 2409,
    "\u2581probably": 2410,
    "\u2581repl": 2411,
    "\u2581ens": 2412,
    "\u2581stay": 2413,
    "\u2581estab": 2414,
    "\u2581front": 2415,
    "\u2581hom": 2416,
    "\u2581abs": 2417,
    "aur": 2418,
    "uk": 2419,
    "\u2581issue": 2420,
    "erc": 2421,
    "\u2581aud": 2422,
    "ief": 2423,
    "mit": 2424,
    ".)": 2425,
    "\u2581below": 2426,
    "\u2581fail": 2427,
    "ta": 2428,
    "\u2581particip": 2429,
    "\u2581nothing": 2430,
    "\u2581July": 2431,
    "\u2581role": 2432,
    "ication": 2433,
    "\u2581however": 2434,
    "_{\\": 2435,
    "\u0432\u0430": 2436,
    "\u2581six": 2437,
    "cle": 2438,
    "\u2581den": 2439,
    "\u2581Mus": 2440,
    "ems": 2441,
    "ites": 2442,
    "ari": 2443,
    "\u0442\u0435": 2444,
    "frac": 2445,
    "\".": 2446,
    "\u2581associ": 2447,
    "\u2581song": 2448,
    "ental": 2449,
    "\u2581track": 2450,
    "\u2581pie": 2451,
    "aged": 2452,
    "\u2581Acc": 2453,
    "igned": 2454,
    "ude": 2455,
    "\u2581wanted": 2456,
    "Ch": 2457,
    "\u2581national": 2458,
    "\u2581gen": 2459,
    "ficult": 2460,
    "\u2581previous": 2461,
    "\u2581especially": 2462,
    "\u2581various": 2463,
    "ades": 2464,
    "\u2581likely": 2465,
    "aching": 2466,
    "\u2581matter": 2467,
    "\u2581Her": 2468,
    "ires": 2469,
    "AM": 2470,
    "\u2581technology": 2471,
    "oe": 2472,
    "itch": 2473,
    "\u2581September": 2474,
    "year": 2475,
    "\u2581games": 2476,
    "\u2581black": 2477,
    "iting": 2478,
    "\")": 2479,
    "aving": 2480,
    "rug": 2481,
    "\u2581relationship": 2482,
    "aced": 2483,
    "ocr": 2484,
    "\u2581West": 2485,
    "\u2581Mon": 2486,
    "\u2581Fin": 2487,
    "\u2581upon": 2488,
    "\u2581answ": 2489,
    "ception": 2490,
    "icro": 2491,
    "iction": 2492,
    "\u2581property": 2493,
    "\u2581living": 2494,
    "\u2581hon": 2495,
    "\u2581isn": 2496,
    "\u2581host": 2497,
    "\u2581circ": 2498,
    "\u2581words": 2499,
    "\u2581August": 2500,
    "\u2581House": 2501,
    "\u2581size": 2502,
    "iful": 2503,
    "\u2581watch": 2504,
    "\u2581buy": 2505,
    "oved": 2506,
    "\u2581Har": 2507,
    "ensive": 2508,
    "clus": 2509,
    "\u2581required": 2510,
    "\u2581seems": 2511,
    "\u2581PM": 2512,
    "opy": 2513,
    "\u2581asked": 2514,
    "\u043b\u0438": 2515,
    "epend": 2516,
    "\u2581dom": 2517,
    "\u2581training": 2518,
    "rect": 2519,
    "\u2581lat": 2520,
    "ham": 2521,
    "\u2581que": 2522,
    "\u2581hy": 2523,
    "ovember": 2524,
    "lin": 2525,
    "\u2581Of": 2526,
    "\u2581significant": 2527,
    "ournal": 2528,
    "\u2581difficult": 2529,
    "\u2581held": 2530,
    "rel": 2531,
    "\u2581performance": 2532,
    "\u2581accept": 2533,
    "\u2581points": 2534,
    "date": 2535,
    "ounc": 2536,
    "ores": 2537,
    "\u2581January": 2538,
    "ression": 2539,
    "\u2581everyone": 2540,
    "\u2581contrib": 2541,
    "\u2581blog": 2542,
    "\u2581fig": 2543,
    "\u0442\u043e": 2544,
    "\u2581foot": 2545,
    "\u2581total": 2546,
    "],": 2547,
    "iff": 2548,
    "\u2581prim": 2549,
    "off": 2550,
    "alt": 2551,
    "\u2581pict": 2552,
    "\u043a\u0430": 2553,
    "\u2581questions": 2554,
    "\u2581request": 2555,
    "\u2581provided": 2556,
    "action": 2557,
    "OU": 2558,
    "\u2581travel": 2559,
    "ength": 2560,
    "\u2581Ob": 2561,
    "\u2581County": 2562,
    "ny": 2563,
    "\u2581coming": 2564,
    "\u2581Then": 2565,
    "\u2581areas": 2566,
    "\u2581collect": 2567,
    "iam": 2568,
    "\u2581original": 2569,
    "ml": 2570,
    "iddle": 2571,
    "\u2581ren": 2572,
    "\u2581sat": 2573,
    "\u2581Park": 2574,
    "\u2581Center": 2575,
    "\u2581education": 2576,
    "cember": 2577,
    "adem": 2578,
    "\u2581bar": 2579,
    "\u2581according": 2580,
    "ological": 2581,
    "bor": 2582,
    "\u2581tool": 2583,
    "\u2581article": 2584,
    "\u2581coll": 2585,
    "\u2581price": 2586,
    "\u2581office": 2587,
    "\u2581ess": 2588,
    "\u2581\u2581\u2581\u2581\u2581\u2581\u2581\u2581\u2581\u2581": 2589,
    "ington": 2590,
    "\u2581needed": 2591,
    "\u2581caus": 2592,
    "\u2581neg": 2593,
    "\u2581dest": 2594,
    "\u2581Cour": 2595,
    "amed": 2596,
    "earch": 2597,
    "\u2581shows": 2598,
    "ysis": 2599,
    "OT": 2600,
    "\u2581pick": 2601,
    "\u2581improve": 2602,
    "\u2581red": 2603,
    "\u2581minutes": 2604,
    "\u2581wonder": 2605,
    "\u2581select": 2606,
    "\u2581clos": 2607,
    "\u2581aw": 2608,
    "\u2581risk": 2609,
    "hib": 2610,
    "\u2581continue": 2611,
    "\u2581member": 2612,
    "\u2581management": 2613,
    "\u2581political": 2614,
    "\u2581behind": 2615,
    "\u2581strateg": 2616,
    "\u2581events": 2617,
    "\u2581sym": 2618,
    "\u2581recogn": 2619,
    "\u2581Pre": 2620,
    "\u2581ver": 2621,
    "etimes": 2622,
    "ables": 2623,
    "oo": 2624,
    "\u2581Mich": 2625,
    "this": 2626,
    "\u2581ill": 2627,
    "\u2581dig": 2628,
    "ging": 2629,
    "\u2581mass": 2630,
    "\u2581purch": 2631,
    "\u2581October": 2632,
    "ruary": 2633,
    "\u2581cannot": 2634,
    "\u2581attack": 2635,
    "\u2581viol": 2636,
    "\u2581recomm": 2637,
    "====": 2638,
    "\u2581link": 2639,
    "serv": 2640,
    "\u2581Let": 2641,
    "\u2581problems": 2642,
    "\u2581die": 2643,
    "\u2581regard": 2644,
    "anguage": 2645,
    "div": 2646,
    "itting": 2647,
    "leased": 2648,
    "\u2581file": 2649,
    "\u2581writing": 2650,
    "\u2581soon": 2651,
    "\u2581achie": 2652,
    "\u2581impact": 2653,
    "\u2581pretty": 2654,
    "\u2581defin": 2655,
    "come": 2656,
    "\u2581Char": 2657,
    "col": 2658,
    "\u2581search": 2659,
    "\u2581Russ": 2660,
    "\u2581sense": 2661,
    "cont": 2662,
    "\u2581party": 2663,
    "\u2581Health": 2664,
    "iple": 2665,
    "\u2581ways": 2666,
    "\u2581Germ": 2667,
    "\u2581former": 2668,
    "Con": 2669,
    "\u2581coup": 2670,
    "\u2581announ": 2671,
    "ession": 2672,
    "ica": 2673,
    "\u2581wait": 2674,
    "\u2581changes": 2675,
    "ees": 2676,
    "\u2581dam": 2677,
    "\u2581simply": 2678,
    "\u0435\u043d": 2679,
    "\u2581exam": 2680,
    "\u2581agre": 2681,
    "\u2581concern": 2682,
    "itional": 2683,
    "\u2581received": 2684,
    "inks": 2685,
    "ender": 2686,
    "\u2581forward": 2687,
    "urance": 2688,
    "\u2581girl": 2689,
    "\u2581November": 2690,
    "\u2581word": 2691,
    "\u2581deg": 2692,
    "\u2581Afric": 2693,
    "\u2581terms": 2694,
    "\u2581Home": 2695,
    "da": 2696,
    "\u2581official": 2697,
    "\u2581moment": 2698,
    "ceed": 2699,
    "\u2581recent": 2700,
    "\u2581\u0434": 2701,
    "uge": 2702,
    "\u2581became": 2703,
    "medi": 2704,
    "\u2581court": 2705,
    "alse": 2706,
    "idge": 2707,
    "\u2581La": 2708,
    "itte": 2709,
    "atory": 2710,
    "ection": 2711,
    "ederal": 2712,
    "\u2581experi": 2713,
    "\u2581pers": 2714,
    "\u2581financial": 2715,
    "\u2581bi": 2716,
    "\u2581son": 2717,
    "\u2581simple": 2718,
    "\u2581First": 2719,
    "ecut": 2720,
    "\u2581anim": 2721,
    "\u2581Hol": 2722,
    "\u2581staff": 2723,
    "OM": 2724,
    "\u2581\u043d\u0430": 2725,
    "\u2581outside": 2726,
    "\u2581systems": 2727,
    "ague": 2728,
    "LL": 2729,
    "hel": 2730,
    "\u2581==": 2731,
    "\u2581town": 2732,
    "itary": 2733,
    "\u2581fire": 2734,
    "\u2581Val": 2735,
    "\u2581provides": 2736,
    "resh": 2737,
    "\u2581ep": 2738,
    "\u2581added": 2739,
    "aging": 2740,
    "bum": 2741,
    "hern": 2742,
    "\u2581ut": 2743,
    "\u2581contract": 2744,
    "arning": 2745,
    "\u2581security": 2746,
    "ET": 2747,
    "ondon": 2748,
    "\u2581December": 2749,
    "\u2581higher": 2750,
    "\u2581sound": 2751,
    "\u2581norm": 2752,
    "\u2581table": 2753,
    "ayer": 2754,
    "\u0442\u0430": 2755,
    "\u2581$$": 2756,
    "\u2581assist": 2757,
    "ogle": 2758,
    "\u2581date": 2759,
    "\u2581sex": 2760,
    "\u2581complete": 2761,
    "\u2581tre": 2762,
    "\u2581saw": 2763,
    "cy": 2764,
    "\u2581white": 2765,
    "\u2581road": 2766,
    "aining": 2767,
    "\u2581created": 2768,
    "].": 2769,
    "ese": 2770,
    "sec": 2771,
    "\u2581version": 2772,
    "ags": 2773,
    "\u2581features": 2774,
    "eks": 2775,
    "\u2581Pat": 2776,
    "\u2581Sw": 2777,
    "\u2581policy": 2778,
    "overed": 2779,
    "sy": 2780,
    "uel": 2781,
    "AP": 2782,
    "\u2581rate": 2783,
    "\u043b\u0430": 2784,
    "\u2581Austral": 2785,
    "icles": 2786,
    "\u2581potential": 2787,
    "ety": 2788,
    "\u2581II": 2789,
    "\u2581International": 2790,
    "\u2581takes": 2791,
    "\u043b\u044c": 2792,
    "\u2581High": 2793,
    "Pro": 2794,
    "\u2581user": 2795,
    "\u2581path": 2796,
    "\u2581favor": 2797,
    "\u2581San": 2798,
    "\u2581anyone": 2799,
    "\u2581increase": 2800,
    "cial": 2801,
    "nes": 2802,
    "ground": 2803,
    "\u2581network": 2804,
    "\u2581February": 2805,
    "irit": 2806,
    "apt": 2807,
    "\u2581Ang": 2808,
    "\u2581engine": 2809,
    "mb": 2810,
    "ida": 2811,
    "\u2581loss": 2812,
    "inary": 2813,
    "\u2581clean": 2814,
    "oice": 2815,
    "\u2581books": 2816,
    "\u2581rights": 2817,
    "\u2581Off": 2818,
    "fort": 2819,
    "\u2581speak": 2820,
    "ga": 2821,
    "urb": 2822,
    "sk": 2823,
    "\u2581leaders": 2824,
    "\u2581natural": 2825,
    "\u2581consum": 2826,
    "\u2581target": 2827,
    "\u2581themselves": 2828,
    "EC": 2829,
    "icated": 2830,
    "\u2581began": 2831,
    "\u2581international": 2832,
    "\u2581popular": 2833,
    "\u2581stop": 2834,
    "\u2581late": 2835,
    "\u2581lives": 2836,
    "\u2581Gener": 2837,
    "ension": 2838,
    "\u2581News": 2839,
    "\u2581Ser": 2840,
    "\u2581knowledge": 2841,
    "ached": 2842,
    "\u2581reading": 2843,
    "\u2581itself": 2844,
    "\u2581inn": 2845,
    "lebr": 2846,
    "\u2581includes": 2847,
    "\u2581imm": 2848,
    "ouncil": 2849,
    "\u2581grad": 2850,
    "augh": 2851,
    "\u2581Read": 2852,
    "ING": 2853,
    "\u2581paper": 2854,
    "ald": 2855,
    "ION": 2856,
    "\u2581Day": 2857,
    "aign": 2858,
    "\u2581etc": 2859,
    "rences": 2860,
    "\u2581install": 2861,
    "\u2581image": 2862,
    "cast": 2863,
    "\u2581cover": 2864,
    "\u043a\u0438": 2865,
    "izing": 2866,
    "anced": 2867,
    "\u2581cases": 2868,
    "\u2581Law": 2869,
    "\u2581Tra": 2870,
    "\u2581Je": 2871,
    "\u2581pm": 2872,
    "ivil": 2873,
    "\u2581written": 2874,
    "\u2581jud": 2875,
    "ett": 2876,
    "ror": 2877,
    "itution": 2878,
    "ctions": 2879,
    "\u2581worked": 2880,
    "\u2581bir": 2881,
    "\u2581Cons": 2882,
    "left": 2883,
    "\u2581beautiful": 2884,
    "\u2581sens": 2885,
    "\u2581https": 2886,
    "\u2581code": 2887,
    "pose": 2888,
    "umn": 2889,
    "\u2581Sup": 2890,
    "eta": 2891,
    "ouch": 2892,
    "\u2581</": 2893,
    "\u2581longer": 2894,
    "pm": 2895,
    "iqu": 2896,
    "rup": 2897,
    "hood": 2898,
    "data": 2899,
    "\u2581King": 2900,
    "\u2581treatment": 2901,
    "\u2581Department": 2902,
    "ivity": 2903,
    "\u2581David": 2904,
    "\u2581mother": 2905,
    "\u2581THE": 2906,
    "\u2581decision": 2907,
    "\u2581Direct": 2908,
    "\u2581pred": 2909,
    "\u2581becom": 2910,
    "\u2581section": 2911,
    "\u2581hol": 2912,
    "\u2581web": 2913,
    "\u2581Calif": 2914,
    "rote": 2915,
    "\u2581investig": 2916,
    "\u2581running": 2917,
    "\u2581career": 2918,
    "\u2581London": 2919,
    "\u2581offers": 2920,
    "\u2581professional": 2921,
    "\u2581countries": 2922,
    "\u2581exact": 2923,
    "\u2581growth": 2924,
    "ado": 2925,
    "\u2581introdu": 2926,
    "\u2581production": 2927,
    "\u2581\u2022": 2928,
    "\u2581please": 2929,
    "uments": 2930,
    "\u2581rev": 2931,
    "\":": 2932,
    "ara": 2933,
    "\u2581Category": 2934,
    "\u2581\u043f\u043e": 2935,
    "\u2581global": 2936,
    "based": 2937,
    "\u2581propos": 2938,
    "??": 2939,
    "astic": 2940,
    "\u2581bed": 2941,
    "\u2581Ac": 2942,
    "lim": 2943,
    "\u2581base": 2944,
    "ription": 2945,
    "\u2581learning": 2946,
    "aily": 2947,
    "................": 2948,
    "\u2581Associ": 2949,
    "\u2581worth": 2950,
    "\u2581\u2581\u2581": 2951,
    "haps": 2952,
    "ening": 2953,
    "\u2581himself": 2954,
    "\u2581practice": 2955,
    "\u2581affect": 2956,
    "\u2581lost": 2957,
    "\u2581cause": 2958,
    "\u2581English": 2959,
    "zy": 2960,
    "oring": 2961,
    "\u2581ful": 2962,
    "\u2581approach": 2963,
    "arter": 2964,
    "\u2581weeks": 2965,
    "Ex": 2966,
    "\u2581Bu": 2967,
    "ael": 2968,
    "\u2581leave": 2969,
    "oke": 2970,
    "\u2581tour": 2971,
    "\u2581wasn": 2972,
    "\u2581opportunity": 2973,
    "\u2581\u00bb": 2974,
    "\u2581card": 2975,
    "atives": 2976,
    "\u2581China": 2977,
    "\u2581application": 2978,
    "\u2581sus": 2979,
    "attle": 2980,
    "\u2581prior": 2981,
    "ges": 2982,
    "\u2581president": 2983,
    "\u2581wrong": 2984,
    "\u2581players": 2985,
    "\u2581ground": 2986,
    "\u2581recently": 2987,
    "obile": 2988,
    "\u2581instead": 2989,
    "\u2581deep": 2990,
    "\u2581couple": 2991,
    "\u2581Sen": 2992,
    "uit": 2993,
    "\u2581Inc": 2994,
    "\u2581document": 2995,
    "\u2581inj": 2996,
    "iment": 2997,
    "\u2581Dem": 2998,
    "\u2581teac": 2999,
    "\u2581appe": 3000,
    "\u2581woman": 3001,
    "agement": 3002,
    "\u2581er": 3003,
    "airs": 3004,
    "ufact": 3005,
    "}{": 3006,
    "\u2581heav": 3007,
    "\u2581conditions": 3008,
    "\u2581Red": 3009,
    "\u2581response": 3010,
    "\u2581regular": 3011,
    "\u2581groups": 3012,
    "unk": 3013,
    "\u2581div": 3014,
    "order": 3015,
    "\u2581related": 3016,
    "dom": 3017,
    "\u2581customers": 3018,
    "\u2581Sim": 3019,
    "iles": 3020,
    "apan": 3021,
    "\u2581style": 3022,
    "\u2581usually": 3023,
    "\u2581Paul": 3024,
    "lier": 3025,
    "\u2581currently": 3026,
    "ornia": 3027,
    "\u2581source": 3028,
    "\u2581hit": 3029,
    "\u2581throughout": 3030,
    "asc": 3031,
    "\u2581attempt": 3032,
    "\u2581via": 3033,
    "oul": 3034,
    "\u2581involved": 3035,
    "\u2581Are": 3036,
    "asons": 3037,
    "ford": 3038,
    "\u2581patients": 3039,
    "\u2581yourself": 3040,
    "\u2581dise": 3041,
    "\u2581comment": 3042,
    "\u2581distrib": 3043,
    "itute": 3044,
    "\u2581separ": 3045,
    "mon": 3046,
    "\u2581unique": 3047,
    "\u2581IN": 3048,
    "\u2581AN": 3049,
    "\u2581board": 3050,
    "ares": 3051,
    "\u2581student": 3052,
    "\u2581arch": 3053,
    "\u2581kids": 3054,
    "aves": 3055,
    "\u2581Book": 3056,
    "\u2581built": 3057,
    "\u2581Add": 3058,
    "def": 3059,
    "\u2581oil": 3060,
    "\u2581mention": 3061,
    "\u2581saf": 3062,
    "rown": 3063,
    ",\\": 3064,
    "\u2581Court": 3065,
    "\u2581sett": 3066,
    "pri": 3067,
    "\u2581TV": 3068,
    "$.": 3069,
    "orge": 3070,
    "aint": 3071,
    "\u2581write": 3072,
    "ris": 3073,
    "\u2581stri": 3074,
    "\u2581medical": 3075,
    "\u2581Hist": 3076,
    "\u2581included": 3077,
    "?\"": 3078,
    "where": 3079,
    "\u2581inside": 3080,
    "\u2581influ": 3081,
    "imum": 3082,
    "ressed": 3083,
    "\u2581hor": 3084,
    "lying": 3085,
    "ittee": 3086,
    "idered": 3087,
    "\u2581lower": 3088,
    "cing": 3089,
    "gen": 3090,
    "\u2581Commun": 3091,
    "\u2581wrote": 3092,
    "\u2581Wash": 3093,
    "\u2581ge": 3094,
    "\u2581extra": 3095,
    "\u2581activities": 3096,
    "\u2581mag": 3097,
    "\u2581veh": 3098,
    "\u2581integr": 3099,
    "\u2581email": 3100,
    "\u2581UK": 3101,
    "\u2581histor": 3102,
    "\u2581Ear": 3103,
    "ager": 3104,
    "\u2581gra": 3105,
    "aries": 3106,
    "\u2581Trans": 3107,
    "\u2581System": 3108,
    "Name": 3109,
    "\u2581legal": 3110,
    "oper": 3111,
    "\u2581sil": 3112,
    "\u2581serious": 3113,
    "\u2581vari": 3114,
    "\u2581meeting": 3115,
    "isions": 3116,
    "AD": 3117,
    "body": 3118,
    "ming": 3119,
    "\u2581Des": 3120,
    "\u2581relig": 3121,
    "\u2581Why": 3122,
    "ico": 3123,
    "ien": 3124,
    "\u043b\u043e": 3125,
    "rael": 3126,
    "ospital": 3127,
    "\u2581Bec": 3128,
    "itation": 3129,
    "\u2581fight": 3130,
    "\"\"": 3131,
    "\u2581California": 3132,
    "lements": 3133,
    "\u2581vot": 3134,
    "htt": 3135,
    "\u2581states": 3136,
    "\u2581father": 3137,
    "\u2581Black": 3138,
    "\u2581necessary": 3139,
    "\u2581void": 3140,
    "\u043b\u0435": 3141,
    "\u2581Every": 3142,
    "\u2581Ir": 3143,
    "\u2581AM": 3144,
    "\u2581saying": 3145,
    "\u2581vict": 3146,
    "\u2581color": 3147,
    "\u2581Most": 3148,
    "$,": 3149,
    "\u2581sle": 3150,
    "\u2581decl": 3151,
    "fig": 3152,
    "\u2581modern": 3153,
    "omen": 3154,
    "\u2581wall": 3155,
    "----------------": 3156,
    "omb": 3157,
    "\u2581playing": 3158,
    "\u2581prep": 3159,
    "\u2581band": 3160,
    "\u2581expected": 3161,
    "Cl": 3162,
    "\u2581hear": 3163,
    "\u2581fast": 3164,
    "\u2581maintain": 3165,
    "sequ": 3166,
    "\u2581myself": 3167,
    "pha": 3168,
    "\u2581prevent": 3169,
    "\u2581remember": 3170,
    "mathcal": 3171,
    "\u2581designed": 3172,
    "\u2581parents": 3173,
    "\u2581sold": 3174,
    "light": 3175,
    "OS": 3176,
    "\u2581cand": 3177,
    "\u2581police": 3178,
    "\u2581cross": 3179,
    "\u2581conduct": 3180,
    "\u2581programs": 3181,
    "\u2581Well": 3182,
    "\u2581obtain": 3183,
    "\u2581drug": 3184,
    "atform": 3185,
    "\u2581College": 3186,
    "\u2581draw": 3187,
    "\u2581heard": 3188,
    "\u2581du": 3189,
    "\u2581interesting": 3190,
    "\u2581box": 3191,
    "////": 3192,
    "\u2581Net": 3193,
    "ements": 3194,
    "\u2581played": 3195,
    "rs": 3196,
    "wood": 3197,
    "\u2581standard": 3198,
    "\u2581published": 3199,
    "\u2581Pal": 3200,
    "\u2581!": 3201,
    "\u2581campaign": 3202,
    "\u2581blood": 3203,
    "ville": 3204,
    "\u2581gave": 3205,
    "\u2581goes": 3206,
    "log": 3207,
    "\u2581surpr": 3208,
    "\u2581album": 3209,
    "ha": 3210,
    "\u2581title": 3211,
    "enced": 3212,
    "\u2581\u0437": 3213,
    "ategor": 3214,
    "\u2581administ": 3215,
    "anger": 3216,
    "\u2581Even": 3217,
    "unt": 3218,
    "\u2581felt": 3219,
    "sych": 3220,
    "\u2581average": 3221,
    "ests": 3222,
    "ibrary": 3223,
    "\u2581happy": 3224,
    "\u2581Us": 3225,
    "\u2581fa": 3226,
    "\u2581mach": 3227,
    "\u2581cy": 3228,
    "\u2581led": 3229,
    "\u2581wid": 3230,
    "\u2581Bus": 3231,
    "wise": 3232,
    "\u2581hands": 3233,
    "\u2581\u043c": 3234,
    "\u2581considered": 3235,
    "\u2581complex": 3236,
    "\u2581celebr": 3237,
    "\u2581answer": 3238,
    "\u2581language": 3239,
    "\u2581il": 3240,
    "\u2581immedi": 3241,
    "iber": 3242,
    "\u2581emb": 3243,
    "\u2581software": 3244,
    "\u2581release": 3245,
    "\u2581dog": 3246,
    "\u2581Up": 3247,
    "ications": 3248,
    "ato": 3249,
    "\u2581additional": 3250,
    "resp": 3251,
    "\u2581emer": 3252,
    "ocal": 3253,
    "\u2581princ": 3254,
    "\u2581driv": 3255,
    "\u2581options": 3256,
    "\u2581phone": 3257,
    "\u2581morning": 3258,
    "\u2581reported": 3259,
    "\u2581Since": 3260,
    "\u2581evidence": 3261,
    "\u2581looks": 3262,
    "\u2581ten": 3263,
    "\u2581ability": 3264,
    "\u2581knew": 3265,
    "\u2581Prof": 3266,
    "\u2581ensure": 3267,
    "\u2581Japan": 3268,
    "odel": 3269,
    "\u2581receive": 3270,
    "\u2581located": 3271,
    "estern": 3272,
    "\u2581ball": 3273,
    "mp": 3274,
    "\u2581implement": 3275,
    "\u2581Jes": 3276,
    "\u2581movie": 3277,
    "useum": 3278,
    "ulations": 3279,
    "\u2581coun": 3280,
    "atter": 3281,
    "\u2581insp": 3282,
    "\u2581Air": 3283,
    "\u2581Dis": 3284,
    "like": 3285,
    "\u2581Get": 3286,
    "\u2581nature": 3287,
    "\u2581region": 3288,
    "ography": 3289,
    "US": 3290,
    "\u2581extrem": 3291,
    "\u2581Washington": 3292,
    "\u2581tal": 3293,
    "reng": 3294,
    "path": 3295,
    "\u2581details": 3296,
    "word": 3297,
    "\u2581Also": 3298,
    "\u2581bott": 3299,
    "\u2581goal": 3300,
    "arc": 3301,
    "\u2581attention": 3302,
    "duc": 3303,
    "\u0432\u043e": 3304,
    "used": 3305,
    "yond": 3306,
    "\u2581leading": 3307,
    "\u2581=>": 3308,
    "\u2581India": 3309,
    "\u2581ones": 3310,
    "itter": 3311,
    "\u2581door": 3312,
    "\u2581correct": 3313,
    "\u2581suff": 3314,
    "mission": 3315,
    "\u2581boy": 3316,
    "\u2581levels": 3317,
    "vey": 3318,
    "Ar": 3319,
    "illing": 3320,
    "\u2581challeng": 3321,
    "rench": 3322,
    "\u2581Mor": 3323,
    "Id": 3324,
    "\u2581Great": 3325,
    "\u2581center": 3326,
    "\u2581ready": 3327,
    "lick": 3328,
    "\u2581Op": 3329,
    "\u2581sales": 3330,
    "\u2581choose": 3331,
    "\u2581pan": 3332,
    "\u2581East": 3333,
    "\u2581||": 3334,
    "\u2581stru": 3335,
    "BC": 3336,
    "IG": 3337,
    "band": 3338,
    "ened": 3339,
    "rang": 3340,
    "\u2581James": 3341,
    "\u2581credit": 3342,
    "hem": 3343,
    "\u2581bank": 3344,
    "\u0435\u0440": 3345,
    "ref": 3346,
    "\u2581dead": 3347,
    "\u2581fair": 3348,
    "\u2581Cong": 3349,
    "\u2581economic": 3350,
    "\u2581released": 3351,
    "\u2581Other": 3352,
    "list": 3353,
    "\u2581Israel": 3354,
    "osing": 3355,
    "\u2581analysis": 3356,
    "\u2581drive": 3357,
    "\u2581max": 3358,
    "\u2581decided": 3359,
    "azing": 3360,
    "\u2581born": 3361,
    "\u2581Any": 3362,
    "\u2581thinking": 3363,
    "ixed": 3364,
    "\u2581Ret": 3365,
    "\u2581Street": 3366,
    "\u2581eyes": 3367,
    "\u2581Sk": 3368,
    "\u2581broad": 3369,
    "edd": 3370,
    "\u2581autom": 3371,
    "aker": 3372,
    "\u2581screen": 3373,
    "\u2581projects": 3374,
    "\u2581display": 3375,
    "\u2581Friday": 3376,
    "He": 3377,
    "\u2581store": 3378,
    "urt": 3379,
    "opt": 3380,
    "\u2581behav": 3381,
    "oom": 3382,
    "\u2581sn": 3383,
    "ram": 3384,
    "\u2581interview": 3385,
    "\u2581users": 3386,
    "')": 3387,
    "\u2581ap": 3388,
    "\u2581quickly": 3389,
    "\u2581British": 3390,
    "\u2581chance": 3391,
    "field": 3392,
    "\u2581IS": 3393,
    "oto": 3394,
    "bol": 3395,
    "ava": 3396,
    "\u2581choice": 3397,
    "\u2581message": 3398,
    "\u2581Church": 3399,
    "\u2581costs": 3400,
    "ils": 3401,
    "\u2581summer": 3402,
    "\u2581bal": 3403,
    "men": 3404,
    "\u2581fit": 3405,
    "ext": 3406,
    "\u2581cook": 3407,
    "uted": 3408,
    "aught": 3409,
    "ties": 3410,
    "\u2581independ": 3411,
    "\u2581situation": 3412,
    "\u00e9s": 3413,
    "\u2581manufact": 3414,
    "enty": 3415,
    "\u2581sal": 3416,
    "\u2581Dec": 3417,
    "\u2581**": 3418,
    "\u2581brought": 3419,
    "bf": 3420,
    "\u2581ideas": 3421,
    "\u2581%": 3422,
    "\u2581Over": 3423,
    "la": 3424,
    "anch": 3425,
    "\u2581subst": 3426,
    "\u2581European": 3427,
    "\u2581Out": 3428,
    "\u2581squ": 3429,
    "\u2581parts": 3430,
    "inter": 3431,
    "vis": 3432,
    "OL": 3433,
    "just": 3434,
    "\u2581id": 3435,
    "aren": 3436,
    "atal": 3437,
    "\u2581Republic": 3438,
    "\u2581Group": 3439,
    "iring": 3440,
    "uate": 3441,
    "\u043d\u0435": 3442,
    "imately": 3443,
    "aby": 3444,
    "\u2581cam": 3445,
    "\u2581encour": 3446,
    "\u2581whose": 3447,
    "\u2581gets": 3448,
    "\u2581observ": 3449,
    "\u2581match": 3450,
    "ellow": 3451,
    "\u2581Jack": 3452,
    "den": 3453,
    "\u2581qual": 3454,
    "\u2581park": 3455,
    "etic": 3456,
    "\u2581effective": 3457,
    "\u2581computer": 3458,
    "\u2581Rom": 3459,
    "\u2581reve": 3460,
    "\u2581ter": 3461,
    "\u2581skills": 3462,
    "Ph": 3463,
    "apter": 3464,
    "\u2581resources": 3465,
    "\u2581rout": 3466,
    "\u2581Rich": 3467,
    "\u2581charg": 3468,
    "\u0442\u0438": 3469,
    "List": 3470,
    "\u2581progress": 3471,
    "chan": 3472,
    "\u2581Rober": 3473,
    "####": 3474,
    "\u2581Dan": 3475,
    "\u2581avoid": 3476,
    "\u2581sometimes": 3477,
    "\u2581mark": 3478,
    "\u2581Ann": 3479,
    "mercial": 3480,
    "arily": 3481,
    "\u2581sort": 3482,
    "\u2581flow": 3483,
    "\u0434\u0430": 3484,
    "\u2581Please": 3485,
    "omp": 3486,
    "\u2581Techn": 3487,
    "za": 3488,
    "mitted": 3489,
    "\u2581physical": 3490,
    "aches": 3491,
    "\u2581consist": 3492,
    "ester": 3493,
    "no": 3494,
    "\u2581Research": 3495,
    "\u2581See": 3496,
    "\u2581solution": 3497,
    "\u2581Inter": 3498,
    "\u2581turned": 3499,
    "\u2581trust": 3500,
    "\u2581famil": 3501,
    "tic": 3502,
    "see": 3503,
    "idents": 3504,
    "hold": 3505,
    "\u2581bud": 3506,
    "\u2581Sunday": 3507,
    "wor": 3508,
    "\u2581military": 3509,
    "\u2581gives": 3510,
    "\u2581Dist": 3511,
    "\u2581except": 3512,
    "\u2581mid": 3513,
    "\u2581Many": 3514,
    "\u2581swe": 3515,
    "Tr": 3516,
    "ici": 3517,
    "De": 3518,
    "\u2581Sub": 3519,
    "more": 3520,
    "\u2581\u00e0": 3521,
    "iding": 3522,
    "\u2581Thanks": 3523,
    "ho": 3524,
    "ned": 3525,
    "\u2581General": 3526,
    "istry": 3527,
    "\u2581nice": 3528,
    "umber": 3529,
    "aturday": 3530,
    "quest": 3531,
    "\u2581ang": 3532,
    "\u2581mis": 3533,
    "\u2581van": 3534,
    "\u2581star": 3535,
    "down": 3536,
    "\u2581plans": 3537,
    "\u2581culture": 3538,
    "ste": 3539,
    "\u2581condition": 3540,
    "\u2581imag": 3541,
    "\u2581shown": 3542,
    "type": 3543,
    "\u2581safe": 3544,
    "erve": 3545,
    "\u2581ri": 3546,
    "acing": 3547,
    "\u2581values": 3548,
    "\u2581tried": 3549,
    "verse": 3550,
    "ius": 3551,
    "\u2581lif": 3552,
    "fo": 3553,
    "\u2581dark": 3554,
    "ago": 3555,
    "\u2581Cr": 3556,
    "\u2581sell": 3557,
    "\u2581weight": 3558,
    "\u2581scient": 3559,
    "\u2581capital": 3560,
    "\u2581streng": 3561,
    "\u2581liter": 3562,
    "\u2581lack": 3563,
    "\u2581threat": 3564,
    "\u2581Canada": 3565,
    "\u2581giving": 3566,
    "pper": 3567,
    "\u2581Google": 3568,
    "\u2581brand": 3569,
    "\u2581Michael": 3570,
    "\u2581u": 3571,
    "\u2581wife": 3572,
    "\u2581comfort": 3573,
    "\u2581Good": 3574,
    "odes": 3575,
    "])": 3576,
    "\u2581easily": 3577,
    "\u2581organization": 3578,
    "\u2581block": 3579,
    "\u201d.": 3580,
    "\u2581\u00ab": 3581,
    "\u2581Council": 3582,
    "\u2581player": 3583,
    "\u2581location": 3584,
    "bar": 3585,
    "\u2581Trump": 3586,
    "\u2581looked": 3587,
    "EL": 3588,
    "\u2581completely": 3589,
    "\u2581stra": 3590,
    "\u2581detail": 3591,
    "isl": 3592,
    "\u2581syn": 3593,
    "String": 3594,
    "\u2581neigh": 3595,
    "\u2581developed": 3596,
    "\u2581multiple": 3597,
    "\u2581nation": 3598,
    "\u2581concept": 3599,
    "\u2581force": 3600,
    "ii": 3601,
    "\u2581Mond": 3602,
    "\u2581Educ": 3603,
    "ields": 3604,
    "\u2581Int": 3605,
    "\u2581dat": 3606,
    "}^": 3607,
    "\u2581types": 3608,
    "\u2581towards": 3609,
    "\u2581birth": 3610,
    "\u2581sun": 3611,
    "\u2581device": 3612,
    "round": 3613,
    "\u2581feed": 3614,
    "\u2581Rel": 3615,
    "vin": 3616,
    "\u2581Jew": 3617,
    "\u2581club": 3618,
    "aling": 3619,
    "isf": 3620,
    "\u2581positive": 3621,
    "}(": 3622,
    "\u2581wide": 3623,
    "mas": 3624,
    "\u2581stories": 3625,
    "\u2581round": 3626,
    "\u2581White": 3627,
    "\u2581frequ": 3628,
    "\u2581cool": 3629,
    "\u2581slow": 3630,
    "includ": 3631,
    "\u2581prem": 3632,
    "\u2581insurance": 3633,
    "\u2581\u041a": 3634,
    "\u2581pull": 3635,
    "\u2581difference": 3636,
    "\u2581Indian": 3637,
    "\u2581Christian": 3638,
    "\u2581collection": 3639,
    "\u2581demon": 3640,
    "\u2581science": 3641,
    "amm": 3642,
    "\u2581Tod": 3643,
    "enge": 3644,
    "ishing": 3645,
    "\u2581Ber": 3646,
    "itiz": 3647,
    "\u2581directly": 3648,
    "\u2581sem": 3649,
    "IM": 3650,
    "You": 3651,
    "ero": 3652,
    "roid": 3653,
    "\u2581stage": 3654,
    "\u2581Bel": 3655,
    "\u2581Saturday": 3656,
    "chen": 3657,
    "\u2581Port": 3658,
    "\u2581lic": 3659,
    "bit": 3660,
    "\u2581occur": 3661,
    "\u2581platform": 3662,
    "ios": 3663,
    "\u2581latest": 3664,
    "\u2581stuff": 3665,
    "\u2581limited": 3666,
    "\u2581recommend": 3667,
    "\u2581Company": 3668,
    "\u2581safety": 3669,
    "\u2581save": 3670,
    "\u2581church": 3671,
    "\u2581Jesus": 3672,
    "\u2581grand": 3673,
    "ube": 3674,
    "\u2581acqu": 3675,
    "\u2581huge": 3676,
    "\u2581Cap": 3677,
    "\u2581\u2026": 3678,
    "\u2581Face": 3679,
    "\u2581variety": 3680,
    "\u2581Program": 3681,
    "itect": 3682,
    "ano": 3683,
    "\u2581spent": 3684,
    "\u2581seek": 3685,
    "\u2581population": 3686,
    "\u2581plant": 3687,
    "\u2581Tex": 3688,
    "\u2581beginning": 3689,
    "ibly": 3690,
    "\u2581providing": 3691,
    "\u2581$$\\": 3692,
    "\u2581Fe": 3693,
    "unction": 3694,
    "\u2581Service": 3695,
    "\u2581century": 3696,
    "ancy": 3697,
    "\u2581Fil": 3698,
    "\u2581highly": 3699,
    "\u2581hous": 3700,
    "\u2581Thom": 3701,
    "\u2581Mart": 3702,
    "do": 3703,
    "\u2581organiz": 3704,
    "ipment": 3705,
    "\u00f3n": 3706,
    "\u2581\u0431": 3707,
    "\u2581prec": 3708,
    "\u2581schools": 3709,
    "ption": 3710,
    "\u2581arriv": 3711,
    "\u2581ded": 3712,
    "vest": 3713,
    "\u2581benefits": 3714,
    "\u2581copy": 3715,
    "\u2581speed": 3716,
    "inated": 3717,
    "undred": 3718,
    "UR": 3719,
    "\u2581convers": 3720,
    "\u2581fine": 3721,
    "\u2581temper": 3722,
    "\u2581fem": 3723,
    "\u2581names": 3724,
    "\u2581award": 3725,
    "\u2581understanding": 3726,
    "\u2581places": 3727,
    "\u2581\u0443": 3728,
    "\u2581\u2581\u2581\u2581\u2581": 3729,
    "\u2581Business": 3730,
    "\u2581lay": 3731,
    "\u2581Wed": 3732,
    "ros": 3733,
    "itude": 3734,
    "ken": 3735,
    "\u2581refer": 3736,
    "ae": 3737,
    "bre": 3738,
    "\u2581Ev": 3739,
    "iant": 3740,
    "zz": 3741,
    "\u2581piece": 3742,
    "file": 3743,
    "\u2581appl": 3744,
    "\u2581finally": 3745,
    "\u2581Phil": 3746,
    "\u2581purpose": 3747,
    "\u2581effects": 3748,
    "\u2581enter": 3749,
    "\u2581les": 3750,
    "\u2581spirit": 3751,
    "board": 3752,
    "IV": 3753,
    "\u2581laws": 3754,
    "\u2581Public": 3755,
    "\u2581option": 3756,
    "Type": 3757,
    "\u2581respond": 3758,
    "\u2581note": 3759,
    "aughter": 3760,
    "ecutive": 3761,
    "rast": 3762,
    "\u2581allows": 3763,
    "\u2581director": 3764,
    "alpha": 3765,
    "\u2581nearly": 3766,
    "html": 3767,
    "\u2581rock": 3768,
    "ENT": 3769,
    "burg": 3770,
    "wide": 3771,
    "onent": 3772,
    "\u2581degree": 3773,
    "but": 3774,
    "\u2581customer": 3775,
    "\u2581thous": 3776,
    "\u2581successful": 3777,
    "ulated": 3778,
    "\u2581inform": 3779,
    "\u2581sen": 3780,
    "\u2581agree": 3781,
    "\u2581surv": 3782,
    "yd": 3783,
    "\u2581Oh": 3784,
    "\u2581According": 3785,
    "\u2581partners": 3786,
    "ears": 3787,
    "change": 3788,
    "\u2581starting": 3789,
    "\u2581structure": 3790,
    "\u2581Mary": 3791,
    "\u2581statement": 3792,
    "return": 3793,
    "\u2581measure": 3794,
    "\u043d\u044b": 3795,
    "\u2581achieve": 3796,
    "\u2581wel": 3797,
    "\u2581exactly": 3798,
    "\u2581Ital": 3799,
    "\u2581hop": 3800,
    "\u2581doub": 3801,
    "\u2581Although": 3802,
    "elta": 3803,
    "\u2581carry": 3804,
    "}_": 3805,
    "\u2581string": 3806,
    "\u2581Sur": 3807,
    "\u2581excell": 3808,
    "OD": 3809,
    "met": 3810,
    "ka": 3811,
    "\u2581associated": 3812,
    "IL": 3813,
    "itely": 3814,
    "\u2581sche": 3815,
    "\u2581activity": 3816,
    "amic": 3817,
    "\u2581demand": 3818,
    "\u2581trade": 3819,
    "\u2581OF": 3820,
    "\u2581digital": 3821,
    "\u2581Life": 3822,
    "\u2581announced": 3823,
    "EM": 3824,
    "\u2581gas": 3825,
    "\u2581dro": 3826,
    "\u2581Hall": 3827,
    "\u2581Work": 3828,
    "\u2581ST": 3829,
    "\u2581French": 3830,
    "\u2581race": 3831,
    "\u2581beyond": 3832,
    "\u2581Posted": 3833,
    "ously": 3834,
    "\u2581basis": 3835,
    "\u2581Mat": 3836,
    "\u2581opin": 3837,
    "icip": 3838,
    "IP": 3839,
    "\u2581aim": 3840,
    "class": 3841,
    "\u2581named": 3842,
    "\u2581studies": 3843,
    "aled": 3844,
    "uman": 3845,
    "\u2581items": 3846,
    "\u2581Green": 3847,
    "ech": 3848,
    "OP": 3849,
    "\u2581disease": 3850,
    "\u2581college": 3851,
    "\u2581capt": 3852,
    "\u2581particularly": 3853,
    "\u2581feature": 3854,
    "rab": 3855,
    "\u2581earlier": 3856,
    "\u2581meaning": 3857,
    "\u2581Wind": 3858,
    "\u2581numbers": 3859,
    "\u2581reach": 3860,
    "\u2581individuals": 3861,
    "\u2581send": 3862,
    "force": 3863,
    "\u2581Under": 3864,
    "\u2581Develop": 3865,
    "\u2581maybe": 3866,
    "\u2581increasing": 3867,
    "\u2581Board": 3868,
    "\u2581candid": 3869,
    "\u2581Monday": 3870,
    "\u2581mount": 3871,
    "rupt": 3872,
    "rial": 3873,
    "\u2581Kategor": 3874,
    "\u2581moved": 3875,
    "\u2581paid": 3876,
    "rep": 3877,
    "\u2581clients": 3878,
    "\u2581interested": 3879,
    "\u2581assess": 3880,
    "\u2581growing": 3881,
    "equ": 3882,
    "\u2581indic": 3883,
    "\u2581appropri": 3884,
    "\u2581died": 3885,
    "\u2581Arch": 3886,
    "encies": 3887,
    "\u2581dream": 3888,
    "CT": 3889,
    "\u2581touch": 3890,
    "\u2581although": 3891,
    "ults": 3892,
    ")\\": 3893,
    "urrent": 3894,
    "\u2581families": 3895,
    "berg": 3896,
    "osition": 3897,
    "\u2581impl": 3898,
    "\u2581Review": 3899,
    "\u2581Mem": 3900,
    "\u2581novel": 3901,
    "\u2581Mac": 3902,
    "sum": 3903,
    "istics": 3904,
    "\u2581farm": 3905,
    "\u2581normal": 3906,
    "\u2581Association": 3907,
    "\u2581voice": 3908,
    "\u2581altern": 3909,
    "\u2581firm": 3910,
    "\u2581billion": 3911,
    "\u2581Er": 3912,
    "\u2581skin": 3913,
    "\u2581allowed": 3914,
    "ports": 3915,
    "\u2581alone": 3916,
    "\u2581promot": 3917,
    "han": 3918,
    "This": 3919,
    "Cont": 3920,
    "ronic": 3921,
    "ey": 3922,
    "\u2581moving": 3923,
    "\u2581Rem": 3924,
    "Val": 3925,
    "\u2581load": 3926,
    "\u2581society": 3927,
    "\u2581marketing": 3928,
    "\u2581People": 3929,
    "\u2581emot": 3930,
    "ston": 3931,
    "iers": 3932,
    "gest": 3933,
    "\u2581calc": 3934,
    "olic": 3935,
    "\u2581ple": 3936,
    "\u2581Franc": 3937,
    "\u2581civil": 3938,
    "\u2581changed": 3939,
    "\u2581Press": 3940,
    "\u2581certainly": 3941,
    "\u2581amazing": 3942,
    "Un": 3943,
    "venue": 3944,
    "itz": 3945,
    "\u2581Flor": 3946,
    "\u2581fully": 3947,
    "\u2581reflect": 3948,
    "\u2581effort": 3949,
    "\u2581lines": 3950,
    "\u2581talking": 3951,
    "\u2581materials": 3952,
    "CC": 3953,
    "En": 3954,
    "state": 3955,
    "label": 3956,
    "irection": 3957,
    "\u2581Del": 3958,
    "ipl": 3959,
    "comp": 3960,
    "mathbb": 3961,
    "Sh": 3962,
    "atever": 3963,
    "\u2581wood": 3964,
    "\u2581ult": 3965,
    "\u2581double": 3966,
    "\u2581Vol": 3967,
    "\u2581roll": 3968,
    "\u2581employees": 3969,
    "\u2581England": 3970,
    "hest": 3971,
    "net": 3972,
    "\u2581apply": 3973,
    "\u2581Spec": 3974,
    "ambda": 3975,
    "lands": 3976,
    "\u2581fol": 3977,
    "\u2581feet": 3978,
    "\u2581false": 3979,
    "\u2581increased": 3980,
    "ella": 3981,
    "\u2581described": 3982,
    "\u2581happened": 3983,
    "\u2581traditional": 3984,
    "lear": 3985,
    "\u2581Mal": 3986,
    "CH": 3987,
    "\u2581wants": 3988,
    "\u2581rules": 3989,
    "\u2581Mark": 3990,
    "\u2581daily": 3991,
    "\u2581Best": 3992,
    "rief": 3993,
    "oms": 3994,
    "ona": 3995,
    "\u2581Science": 3996,
    "\u2581middle": 3997,
    "lo": 3998,
    "iation": 3999,
    "\u2581innov": 4000,
    "\u2581Sam": 4001,
    "box": 4002,
    "iance": 4003,
    "\u2581Angel": 4004,
    "['": 4005,
    "\u2581\u00e9": 4006,
    "olf": 4007,
    "imal": 4008,
    "\u2581floor": 4009,
    "\u2581Texas": 4010,
    "orage": 4011,
    "\u2581hour": 4012,
    "mm": 4013,
    "\u2581Found": 4014,
    "annel": 4015,
    "\u2581regist": 4016,
    "\u2581Services": 4017,
    "\u2581couldn": 4018,
    "\u2581\u0421": 4019,
    "\u2581wish": 4020,
    "\u2581George": 4021,
    "size": 4022,
    "itar": 4023,
    "\u2581favorite": 4024,
    "ustr": 4025,
    "\u2581picture": 4026,
    "\u2581federal": 4027,
    "ula": 4028,
    "\u2581green": 4029,
    "izes": 4030,
    "\u2581govern": 4031,
    "\u2581stock": 4032,
    "\u2581Gold": 4033,
    "\u2581Institute": 4034,
    "\u2581feeling": 4035,
    "eters": 4036,
    "\u2581pattern": 4037,
    "Data": 4038,
    "\u2581sleep": 4039,
    "\u2581\"\"\"": 4040,
    "reci": 4041,
    "\u2581hundred": 4042,
    "\u2581cast": 4043,
    "\u2581served": 4044,
    "gor": 4045,
    "\u2581Lord": 4046,
    "\u2581active": 4047,
    "\u2581models": 4048,
    "\u2581vac": 4049,
    "\u2581Facebook": 4050,
    "\u2581click": 4051,
    "\u2581Australia": 4052,
    "\u2581tim": 4053,
    "\u2581images": 4054,
    "andom": 4055,
    "\u2581aspect": 4056,
    "\u2581remain": 4057,
    "\u2581Obama": 4058,
    "UT": 4059,
    "\u2581continu": 4060,
    "\");": 4061,
    "rian": 4062,
    "\u2581truth": 4063,
    "icks": 4064,
    "\u2581exerc": 4065,
    "ocks": 4066,
    "\u2581Democr": 4067,
    "\u2581sho": 4068,
    "ander": 4069,
    "\u2581eight": 4070,
    "\u2581sites": 4071,
    "arden": 4072,
    "ria": 4073,
    "yp": 4074,
    "\u2581brother": 4075,
    "\u2581error": 4076,
    "\u2581uses": 4077,
    "\u2581During": 4078,
    "\u2581planning": 4079,
    "ulate": 4080,
    "\u2581kn": 4081,
    "\u2581Cam": 4082,
    "\u2581Lou": 4083,
    "\u2581shoot": 4084,
    "\u2581corpor": 4085,
    "\u2581expand": 4086,
    "\u2581poor": 4087,
    "\u2581trip": 4088,
    "\u2581download": 4089,
    "________": 4090,
    "ouble": 4091,
    "place": 4092,
    "II": 4093,
    "EO": 4094,
    "\u2581established": 4095,
    "\u2581commercial": 4096,
    "point": 4097,
    "bon": 4098,
    "\u2581ord": 4099,
    "gu": 4100,
    "\u2581fresh": 4101,
    "ellig": 4102,
    "\u2581surface": 4103,
    "\u2581absol": 4104,
    "itable": 4105,
    "inate": 4106,
    "\u2581sch": 4107,
    "\u2581construction": 4108,
    "\u2581eval": 4109,
    "\u2581length": 4110,
    "\u2581perhaps": 4111,
    "lig": 4112,
    "\u2581Jer": 4113,
    "overy": 4114,
    "\u2581largest": 4115,
    "\u2581faith": 4116,
    "\u2581satisf": 4117,
    "\u2581bur": 4118,
    "\u2581Child": 4119,
    "ette": 4120,
    "\u2581shot": 4121,
    "\u2581Tues": 4122,
    "\u2581status": 4123,
    "ferences": 4124,
    "\u2581proced": 4125,
    "rey": 4126,
    "ursday": 4127,
    "\u2581restaur": 4128,
    "\u2581Last": 4129,
    "\u2581strugg": 4130,
    "arrow": 4131,
    "\u2581advant": 4132,
    "bu": 4133,
    "\u2581upd": 4134,
    "inner": 4135,
    "sub": 4136,
    "\u2581pressure": 4137,
    "\u2581reports": 4138,
    "\u2581reasons": 4139,
    "\u2581gold": 4140,
    "rend": 4141,
    "._": 4142,
    "},": 4143,
    "\u2581Som": 4144,
    "atus": 4145,
    "\u2581throw": 4146,
    "estival": 4147,
    "($": 4148,
    "\u2581vill": 4149,
    "\u2581comments": 4150,
    "\u0432\u0438": 4151,
    "\u2581Rob": 4152,
    "\u2581peace": 4153,
    "\u2581followed": 4154,
    "\u2581Once": 4155,
    "\u2581constant": 4156,
    "********": 4157,
    "iny": 4158,
    "\u2581tools": 4159,
    "\u2581warm": 4160,
    "\u2581Market": 4161,
    "\u2581Sol": 4162,
    "\u2581hus": 4163,
    "\u2581cert": 4164,
    "\u2581attract": 4165,
    "AA": 4166,
    "\u2581Def": 4167,
    "\u2581Congress": 4168,
    "\u2581doll": 4169,
    "td": 4170,
    "\u2581Education": 4171,
    "\u2581greater": 4172,
    "\u2581compared": 4173,
    "ady": 4174,
    "\u2581transfer": 4175,
    "\u2581cancer": 4176,
    "\u2581context": 4177,
    "\u2581desp": 4178,
    "\u2581Top": 4179,
    "\u2581Mag": 4180,
    "atively": 4181,
    "\u2581Bill": 4182,
    "\u2581seven": 4183,
    "\u2581da": 4184,
    "\u2581hair": 4185,
    "\u2581Because": 4186,
    "\u2581Spr": 4187,
    "\u2581serve": 4188,
    "\u2581Director": 4189,
    "hips": 4190,
    "\u2581Commission": 4191,
    "Sc": 4192,
    "ipe": 4193,
    "\u2581budget": 4194,
    "\u2581Class": 4195,
    "inese": 4196,
    "\u2581spend": 4197,
    "\u2581teams": 4198,
    "house": 4199,
    "\u2581Two": 4200,
    "ache": 4201,
    "\u2581Sal": 4202,
    "\u2581Att": 4203,
    "\u2581creating": 4204,
    "To": 4205,
    "\u2581benefit": 4206,
    "\u2581pen": 4207,
    "\u2581Met": 4208,
    "\u2581annual": 4209,
    "OW": 4210,
    "\u2581expert": 4211,
    "iced": 4212,
    "eed": 4213,
    "\u2581equipment": 4214,
    "icon": 4215,
    "\u2581investment": 4216,
    "\u2581transport": 4217,
    ".[": 4218,
    "\u2581Fam": 4219,
    "\u2581responsible": 4220,
    "\u2581therefore": 4221,
    "\u2581opportunities": 4222,
    "url": 4223,
    "\u2581mer": 4224,
    "\u2581charge": 4225,
    "yt": 4226,
    "\u2581posted": 4227,
    "ancing": 4228,
    "\u2581ir": 4229,
    "\u2581requirements": 4230,
    "\u2581characters": 4231,
    "\u2581gone": 4232,
    "\u2581Str": 4233,
    "\u2581wouldn": 4234,
    "\u2581mechan": 4235,
    "\u2581plus": 4236,
    "View": 4237,
    "\u2581Miss": 4238,
    "\u2581Office": 4239,
    "eria": 4240,
    "mar": 4241,
    "\u2581obvious": 4242,
    "\u2581appoint": 4243,
    "An": 4244,
    "\u2581movement": 4245,
    "\u2581virt": 4246,
    "\u2581miles": 4247,
    "\u2581figure": 4248,
    "\u2581Mil": 4249,
    "nesday": 4250,
    "\u2581Music": 4251,
    "iques": 4252,
    "\u2581Tuesday": 4253,
    "\u2581Alex": 4254,
    ".'": 4255,
    "\u2581`": 4256,
    "\u2581esc": 4257,
    "\u2581continued": 4258,
    "\u2581immediately": 4259,
    "inger": 4260,
    "\u2581Thursday": 4261,
    "\u2581www": 4262,
    "\u2581passed": 4263,
    "ota": 4264,
    "\u2581efforts": 4265,
    "orrow": 4266,
    "igma": 4267,
    "vention": 4268,
    "amma": 4269,
    "\u2581overall": 4270,
    "\u2581solutions": 4271,
    "\u2581sav": 4272,
    "\u2581origin": 4273,
    "\u2581pet": 4274,
    "\u2581letter": 4275,
    "\u2581bill": 4276,
    "\u2581train": 4277,
    "\u2581Big": 4278,
    "\u2581methods": 4279,
    "acity": 4280,
    "\u2581Sl": 4281,
    "nown": 4282,
    "iller": 4283,
    "gl": 4284,
    "\u2581gun": 4285,
    "\u2581rates": 4286,
    "AG": 4287,
    "\u2581Today": 4288,
    "\u2581Who": 4289,
    "\u2581helped": 4290,
    "\u2581Yes": 4291,
    "\u2581Supp": 4292,
    "\u2581foreign": 4293,
    "\u2581consult": 4294,
    "\u2581\u00a3": 4295,
    "\u2581mobile": 4296,
    "var": 4297,
    "\u2581Florida": 4298,
    "\u2581psych": 4299,
    "\u2581Robert": 4300,
    "\u2581businesses": 4301,
    "\u2581exhib": 4302,
    "coming": 4303,
    "\u2581Tom": 4304,
    "\u2581tick": 4305,
    "\u2581Internet": 4306,
    "\u2581clin": 4307,
    "\u2581contain": 4308,
    "\u2581bound": 4309,
    "with": 4310,
    "\u2581purchase": 4311,
    "\u2581limit": 4312,
    "\u2581Bank": 4313,
    "ampions": 4314,
    "\u2581anti": 4315,
    "\u0434\u0438": 4316,
    "PS": 4317,
    "iling": 4318,
    "\u2581estim": 4319,
    "igr": 4320,
    "\u2581William": 4321,
    "edom": 4322,
    "\u2581offered": 4323,
    "\u2581aren": 4324,
    "\u2581eye": 4325,
    "\u2581Hel": 4326,
    "onents": 4327,
    "oyal": 4328,
    "pi": 4329,
    "\u2581straight": 4330,
    "\u2581income": 4331,
    "\u2581Journal": 4332,
    "\u2581quarter": 4333,
    "porary": 4334,
    "\u2581Government": 4335,
    "ifying": 4336,
    "\u2581goals": 4337,
    "\u2581Hot": 4338,
    "gar": 4339,
    "\u2581Ben": 4340,
    "\u2581param": 4341,
    "\u2581basic": 4342,
    "\u2581Thank": 4343,
    "\u2581Bre": 4344,
    "\u2581helps": 4345,
    "\u2581null": 4346,
    "\u2581List": 4347,
    "\u2581initial": 4348,
    "\u2581applications": 4349,
    "\u2581?": 4350,
    "\u2581Fore": 4351,
    "\u2581fans": 4352,
    "\u2581\u041f": 4353,
    "\u2581establish": 4354,
    "\u2581map": 4355,
    "\u2581notice": 4356,
    "rix": 4357,
    "\u2581economy": 4358,
    "\u2581Committee": 4359,
    "\u2581citiz": 4360,
    "\u2581thus": 4361,
    "\u2581central": 4362,
    "\u2581Jo": 4363,
    "\u2581Like": 4364,
    "\u2581cru": 4365,
    "IR": 4366,
    "\u2581secret": 4367,
    "\u2581spect": 4368,
    "\u2581Social": 4369,
    "$$": 4370,
    "\u2581demonstr": 4371,
    "term": 4372,
    "\u2581chem": 4373,
    "\u2581loved": 4374,
    "ords": 4375,
    "Col": 4376,
    "inn": 4377,
    "\u2581setting": 4378,
    "\u2581magn": 4379,
    "\u2581Next": 4380,
    "\u2581Africa": 4381,
    "ki": 4382,
    "\u2581Wednesday": 4383,
    "sey": 4384,
    "agon": 4385,
    "value": 4386,
    "\u2581Leg": 4387,
    "\u2581unit": 4388,
    "\u2581eat": 4389,
    "\u2581primary": 4390,
    "rim": 4391,
    "\u2581client": 4392,
    "icine": 4393,
    "\u2581River": 4394,
    "well": 4395,
    "ipp": 4396,
    "cel": 4397,
    "\u2581categ": 4398,
    "hens": 4399,
    "\u2581sust": 4400,
    "\u2581appreci": 4401,
    "\u2581definitely": 4402,
    "istan": 4403,
    "ocol": 4404,
    "respond": 4405,
    "\u2581prop": 4406,
    "riage": 4407,
    "rive": 4408,
    "ev": 4409,
    "\u201d,": 4410,
    "uration": 4411,
    "\u2581beg": 4412,
    "\u2581cells": 4413,
    "\u2581Const": 4414,
    "\u2581Mo": 4415,
    "\u2581Camp": 4416,
    "mu": 4417,
    "\u2581repe": 4418,
    "gn": 4419,
    "\u2581Plan": 4420,
    "\u2581Smith": 4421,
    "\u2581Web": 4422,
    "string": 4423,
    "\u2581Av": 4424,
    "roy": 4425,
    "rapy": 4426,
    "\u2581produced": 4427,
    "\u2581larger": 4428,
    "\u2581Wil": 4429,
    "rig": 4430,
    "\u2581workers": 4431,
    "\u2581input": 4432,
    "\u2581Sum": 4433,
    "\u2581France": 4434,
    "\u2581connection": 4435,
    "\u2581kit": 4436,
    "\u2581Su": 4437,
    "\u2581guess": 4438,
    "\u2581pow": 4439,
    "pective": 4440,
    "rd": 4441,
    "\u2581guy": 4442,
    "\u2581excellent": 4443,
    "\u2581Each": 4444,
    "\u2581vote": 4445,
    "\u2581generally": 4446,
    "vere": 4447,
    "\u2581Christmas": 4448,
    "\u2581join": 4449,
    "\u2581Vir": 4450,
    "\u2581Time": 4451,
    "\u2581window": 4452,
    "oria": 4453,
    "\u2581Profess": 4454,
    "\u2581elements": 4455,
    "\u2581deliver": 4456,
    "\u2581Fig": 4457,
    "anta": 4458,
    "\u2581station": 4459,
    "\u2581sale": 4460,
    "edy": 4461,
    "\u2581micro": 4462,
    "\u2581Chinese": 4463,
    "\u2581collabor": 4464,
    "\u2581numer": 4465,
    "print": 4466,
    "\u2581background": 4467,
    "\u2581husband": 4468,
    "miss": 4469,
    "\u2581grant": 4470,
    "\u043c\u0438": 4471,
    "\u2581Aut": 4472,
    "\u2581prefer": 4473,
    "\u2581toward": 4474,
    "\u2581UN": 4475,
    "\u2581\u0412": 4476,
    "\u2581History": 4477,
    "\u2581spot": 4478,
    "\u2581brain": 4479,
    "\u2581von": 4480,
    "\u2581presented": 4481,
    "ologies": 4482,
    "bert": 4483,
    "rad": 4484,
    "imb": 4485,
    "\u2581vehicle": 4486,
    "ternal": 4487,
    "\u2581pages": 4488,
    "\u2581truly": 4489,
    "\u2581Frank": 4490,
    "\u2581actual": 4491,
    "\u2581Another": 4492,
    "\u2581patient": 4493,
    "\u2581Bay": 4494,
    "\u2581owners": 4495,
    "arant": 4496,
    "mark": 4497,
    "\u2581kept": 4498,
    "\u2581transl": 4499,
    "\u2581critical": 4500,
    "\u2581accur": 4501,
    "PR": 4502,
    "\u2581hospital": 4503,
    "\u2581Form": 4504,
    "\u2581mission": 4505,
    "\u2581Road": 4506,
    "yr": 4507,
    "anned": 4508,
    "levant": 4509,
    "ini": 4510,
    "ya": 4511,
    "\u2581Club": 4512,
    "\u2581surround": 4513,
    "\u2581USA": 4514,
    "\u2581reduce": 4515,
    "\u2581academ": 4516,
    "\u2581learned": 4517,
    "\u2581harm": 4518,
    "\u2581Care": 4519,
    "icago": 4520,
    "\u2581Carol": 4521,
    "\u2581heat": 4522,
    "\u2581existing": 4523,
    "\u2581prices": 4524,
    "\u2581PR": 4525,
    "ania": 4526,
    "\u2581unf": 4527,
    "\u2581Whe": 4528,
    "As": 4529,
    "\u2581drink": 4530,
    "\u2581attend": 4531,
    "\u2581direction": 4532,
    "cher": 4533,
    "px": 4534,
    "aligned": 4535,
    "\u043c\u0430": 4536,
    "\u2581About": 4537,
    "ruit": 4538,
    "\u2581produce": 4539,
    "\u2581appropriate": 4540,
    "ashion": 4541,
    "iled": 4542,
    "\u2581scen": 4543,
    "tered": 4544,
    "\u2581entry": 4545,
    "\u2581thank": 4546,
    "http": 4547,
    "\u2581spread": 4548,
    "\u2581cry": 4549,
    "\u2581Management": 4550,
    "\u2581district": 4551,
    "\u2581sto": 4552,
    "reate": 4553,
    "\u2581memory": 4554,
    "\u2581polic": 4555,
    "\u2581earth": 4556,
    "\u2581ign": 4557,
    "\u2581Star": 4558,
    "aste": 4559,
    "\u2581epis": 4560,
    "\u2581Mex": 4561,
    "\u2581photo": 4562,
    "\u2581Mod": 4563,
    "\u2581reality": 4564,
    "\u2581leader": 4565,
    "\u2581daughter": 4566,
    "kt": 4567,
    "\u2581remains": 4568,
    "\u2581disapp": 4569,
    "\u2581challenge": 4570,
    "];": 4571,
    "ourney": 4572,
    "AB": 4573,
    "\u2581static": 4574,
    "\u2581Rock": 4575,
    "akers": 4576,
    "\u2581cat": 4577,
    "?\u201d": 4578,
    "\u2581\r": 4579,
    "uty": 4580,
    "\u2581Det": 4581,
    "apers": 4582,
    "\u2581Lab": 4583,
    "=\\": 4584,
    "\u2581powerful": 4585,
    "ooth": 4586,
    "\u2581AND": 4587,
    "\u2581approx": 4588,
    "zen": 4589,
    "\u2581quant": 4590,
    "\u2581wat": 4591,
    "\u2581lab": 4592,
    "\u2581err": 4593,
    "\u2581conv": 4594,
    "mary": 4595,
    "outhern": 4596,
    "\u2581purs": 4597,
    "\u2581Peter": 4598,
    "eds": 4599,
    "\u2581independent": 4600,
    "\u2581parties": 4601,
    "\u2581profession": 4602,
    "\u2581element": 4603,
    "lor": 4604,
    "\u2581regarding": 4605,
    "\u2581rule": 4606,
    "\u2581Jud": 4607,
    "\u2581Sing": 4608,
    "\u2581occas": 4609,
    "\u2581blue": 4610,
    "orial": 4611,
    "\u2581assum": 4612,
    "\u2581jobs": 4613,
    "\u2581seeing": 4614,
    "\u2581sequ": 4615,
    "\u2581dim": 4616,
    "actions": 4617,
    "\u2581haven": 4618,
    "\u2581legisl": 4619,
    "\u2581journal": 4620,
    "SE": 4621,
    "ais": 4622,
    "\u2581ahead": 4623,
    "\u2581tend": 4624,
    "\u2581Bra": 4625,
    "\u2581Union": 4626,
    "\u2581fear": 4627,
    "\u2581opening": 4628,
    "\u2581Mad": 4629,
    "\u2581weekend": 4630,
    "\u2581eth": 4631,
    "oat": 4632,
    "\u2581becomes": 4633,
    "\u2581Que": 4634,
    "mail": 4635,
    "\u2581operations": 4636,
    "\u2581mist": 4637,
    "\u2581photos": 4638,
    "\u2581meant": 4639,
    "\u2581slight": 4640,
    "\u2581mill": 4641,
    "\u2581scene": 4642,
    "\u2581wonderful": 4643,
    "\u2581baby": 4644,
    "icient": 4645,
    "\u2581\u0430": 4646,
    "ias": 4647,
    "ocation": 4648,
    "Al": 4649,
    "\u2581commit": 4650,
    "\u2581healthy": 4651,
    "\u2581completed": 4652,
    "\u2581useful": 4653,
    "\u2581Hill": 4654,
    "\u2581somew": 4655,
    "usion": 4656,
    "\u2581damage": 4657,
    "\u2581enh": 4658,
    "ky": 4659,
    "\u2581Love": 4660,
    "pre": 4661,
    "standing": 4662,
    "\u2581strategy": 4663,
    "isation": 4664,
    "\u2581advice": 4665,
    "\u2581hab": 4666,
    "\u2581Society": 4667,
    "\u2581config": 4668,
    "\u2581machine": 4669,
    "\u2581depend": 4670,
    "\u2581agreement": 4671,
    "\u2581controll": 4672,
    "\u2581knows": 4673,
    "\u2581mur": 4674,
    "\u2581strength": 4675,
    "\u2581communities": 4676,
    "\u2581stream": 4677,
    "OC": 4678,
    "\u2581Micro": 4679,
    "\u2581graph": 4680,
    "\u2581Free": 4681,
    "\u2581rat": 4682,
    "\u2581glass": 4683,
    "\u2581electric": 4684,
    "\u2581stress": 4685,
    "gment": 4686,
    "\u2581Look": 4687,
    "\u2581German": 4688,
    "\u2581Year": 4689,
    "ita": 4690,
    "\u2581advert": 4691,
    "\u2581na": 4692,
    "\u2581Thomas": 4693,
    "\u2581wild": 4694,
    "\u2581initi": 4695,
    "\u2581\u043a\u043e": 4696,
    "\u2581seemed": 4697,
    "\u2581Project": 4698,
    "\u2581Los": 4699,
    "ione": 4700,
    "AY": 4701,
    "itness": 4702,
    "\u2581Data": 4703,
    "\u2581dyn": 4704,
    "iable": 4705,
    "\u2581organizations": 4706,
    "\u2581smart": 4707,
    "\u2581Play": 4708,
    "ipped": 4709,
    "\u2581catch": 4710,
    "\u2581pros": 4711,
    "\u2581theory": 4712,
    "mod": 4713,
    "\u2581bul": 4714,
    "ca": 4715,
    "\u2581highest": 4716,
    "\u2581Jul": 4717,
    "unte": 4718,
    "osh": 4719,
    "\u2581Sa": 4720,
    "\u2581danger": 4721,
    "})": 4722,
    "\u2581factors": 4723,
    "\u2581Development": 4724,
    "\u2581^": 4725,
    "\u2581steps": 4726,
    "\u2581cash": 4727,
    "And": 4728,
    "\u2581devices": 4729,
    "inct": 4730,
    "But": 4731,
    "\u2581guys": 4732,
    "och": 4733,
    "\u2581Bi": 4734,
    "========": 4735,
    "edia": 4736,
    "\u2581Vis": 4737,
    "phi": 4738,
    "\u2581es": 4739,
    "\u2581valid": 4740,
    "\u2581predict": 4741,
    "\u2581clearly": 4742,
    "\u2581Nov": 4743,
    "ented": 4744,
    "\u2581Ver": 4745,
    "\u2581Tor": 4746,
    "oma": 4747,
    "\u2581majority": 4748,
    "_\\": 4749,
    "\u2581Scott": 4750,
    "\u2581Pub": 4751,
    "\u2581Times": 4752,
    "\u2581express": 4753,
    "\u2581killed": 4754,
    "\u2581whatever": 4755,
    "abase": 4756,
    "\u2581Chicago": 4757,
    "\u2581otherwise": 4758,
    "\u2581Div": 4759,
    "test": 4760,
    "\u2581artist": 4761,
    "works": 4762,
    "\u2581\u0437\u0430": 4763,
    "levision": 4764,
    "\u2581claims": 4765,
    "\u2581opened": 4766,
    "\u2581Museum": 4767,
    "ulture": 4768,
    "\u2581protection": 4769,
    "Er": 4770,
    "\u2581har": 4771,
    "\u2581thanks": 4772,
    "\u2581master": 4773,
    "\u2581unc": 4774,
    "\u2581Disc": 4775,
    "hand": 4776,
    "\u2581mentioned": 4777,
    "\u2581task": 4778,
    "\u2581IT": 4779,
    "Le": 4780,
    "\u2581conference": 4781,
    "\u2581Back": 4782,
    "\u2581Richard": 4783,
    "\u2581Ins": 4784,
    "\u2581records": 4785,
    "\u2581architect": 4786,
    "\u2581defined": 4787,
    "\u2581RE": 4788,
    "iences": 4789,
    "known": 4790,
    "oving": 4791,
    "\u2581rap": 4792,
    "win": 4793,
    "ario": 4794,
    "\u2581;": 4795,
    "\u2581District": 4796,
    "\u2581requires": 4797,
    "\u2581flu": 4798,
    "\u2581species": 4799,
    "SS": 4800,
    "care": 4801,
    "\u2581cold": 4802,
    "\u2581sports": 4803,
    "\u2581bottom": 4804,
    "\u2581cas": 4805,
    "\u2581correspond": 4806,
    "\u2581whom": 4807,
    "oken": 4808,
    "\u2581behavior": 4809,
    "\u2581Mass": 4810,
    "\u2581forms": 4811,
    "[\"": 4812,
    "dered": 4813,
    "\u2581Cat": 4814,
    "\u2581rare": 4815,
    "\u2581teaching": 4816,
    "\u2581nom": 4817,
    "antic": 4818,
    ";\r": 4819,
    "fra": 4820,
    "\u2581audience": 4821,
    "\u2581Super": 4822,
    "\u2581row": 4823,
    "\u2581determine": 4824,
    "\u0447\u0435": 4825,
    "\u2581Central": 4826,
    "ena": 4827,
    "udd": 4828,
    "\u2581String": 4829,
    "ework": 4830,
    "\u2581shared": 4831,
    "\u2581Econom": 4832,
    "\u2581Design": 4833,
    "\u2581push": 4834,
    "essage": 4835,
    "\u2581output": 4836,
    "\u2581Information": 4837,
    "\u2581easier": 4838,
    "\u0441\u0442\u0430": 4839,
    "\u2581appears": 4840,
    "\u2581sources": 4841,
    "Res": 4842,
    "\u2581Their": 4843,
    "reek": 4844,
    "\u2581Mont": 4845,
    "\u2581Rev": 4846,
    "\u2581burn": 4847,
    "lis": 4848,
    "\u2581anc": 4849,
    "index": 4850,
    "\u2581older": 4851,
    "\u2581command": 4852,
    "\u2581compar": 4853,
    "\u2581Academ": 4854,
    "\u2581Down": 4855,
    "\u2581AP": 4856,
    "begin": 4857,
    "\u2581football": 4858,
    "grad": 4859,
    "semb": 4860,
    "enses": 4861,
    "dule": 4862,
    "\u2581Brown": 4863,
    "\u2581Island": 4864,
    "user": 4865,
    "\u2581radio": 4866,
    "Get": 4867,
    "\u2581item": 4868,
    "\u2581mix": 4869,
    "\u2581opinion": 4870,
    "asure": 4871,
    "New": 4872,
    "under": 4873,
    "wid": 4874,
    "osure": 4875,
    "\u2581views": 4876,
    "\u2581je": 4877,
    "\u2581links": 4878,
    "osis": 4879,
    "\u2581solid": 4880,
    "\u2581partner": 4881,
    "\u2581Die": 4882,
    "\u2581Mount": 4883,
    "\u2581standards": 4884,
    "\u0441\u043a\u043e": 4885,
    "\u2581calls": 4886,
    "\u2581Sil": 4887,
    "\u2581supply": 4888,
    "\u2581Grand": 4889,
    "\u2581hotel": 4890,
    "active": 4891,
    "\u2581internet": 4892,
    "\u2581ID": 4893,
    "\u2581essential": 4894,
    "\u2581por": 4895,
    "}^{": 4896,
    "azine": 4897,
    "\u2581showed": 4898,
    "\u2581Rad": 4899,
    "\u2581election": 4900,
    "\u0432\u0435": 4901,
    "\u2581Ham": 4902,
    "\u2581Americans": 4903,
    "\u2581closed": 4904,
    "}_{": 4905,
    "If": 4906,
    "\u2581caused": 4907,
    "ses": 4908,
    "IA": 4909,
    "edding": 4910,
    "\u2581Where": 4911,
    "\u2581Fre": 4912,
    "\u2581fan": 4913,
    "\u2581Main": 4914,
    "\u2581counter": 4915,
    "\u2581presence": 4916,
    "\u2581communication": 4917,
    "empl": 4918,
    "\u2581homes": 4919,
    "\u2581Germany": 4920,
    "\u2581biggest": 4921,
    "\u2581victim": 4922,
    "\u2581extremely": 4923,
    "\u2581breat": 4924,
    "\u2581Jose": 4925,
    "rt": 4926,
    "\u2581Elect": 4927,
    "ctors": 4928,
    "\u2581helping": 4929,
    "\u2581ing": 4930,
    "\u2581Spe": 4931,
    "entially": 4932,
    "\u0440\u0443": 4933,
    "\u2581offering": 4934,
    "alls": 4935,
    "\u2581finished": 4936,
    "\u2581Pet": 4937,
    "\u2581Land": 4938,
    "\u2581fant": 4939,
    "va": 4940,
    "yer": 4941,
    "\u2581Lear": 4942,
    "eq": 4943,
    "\u2581View": 4944,
    "\u2581happens": 4945,
    "\u2581African": 4946,
    "\u2581instance": 4947,
    "\u2581placed": 4948,
    "\u2581Open": 4949,
    "\u2581Party": 4950,
    "hy": 4951,
    "\u2581\u2581\u2581\u2581\u2581\u2581\u2581\u2581\u2581\u2581\u2581\u2581\u2581\u2581": 4952,
    "\u2581actions": 4953,
    "NA": 4954,
    "soft": 4955,
    "Is": 4956,
    "\u2581League": 4957,
    "\u2581amb": 4958,
    "lambda": 4959,
    "']": 4960,
    "\u2581files": 4961,
    "pret": 4962,
    "\u2581nut": 4963,
    "\u2581afford": 4964,
    "\u2581finding": 4965,
    "othing": 4966,
    "eless": 4967,
    "iner": 4968,
    "\u2581Award": 4969,
    "\u2581officials": 4970,
    "\u2581Den": 4971,
    "\u2581adjust": 4972,
    "orthern": 4973,
    "\u2581spl": 4974,
    "\u2581arm": 4975,
    "\u2581climate": 4976,
    "\u2581guide": 4977,
    "\u2581update": 4978,
    "\u2581crow": 4979,
    "\u2581Tim": 4980,
    "\u2581Women": 4981,
    "\u2581experienced": 4982,
    "!\"": 4983,
    "\u2581mort": 4984,
    "\u2581Lat": 4985,
    "\u2581heavy": 4986,
    "ortunately": 4987,
    "\u2581north": 4988,
    "().": 4989,
    "\u2581alleg": 4990,
    "\u2581poll": 4991,
    "rite": 4992,
    "\u2581street": 4993,
    "\u2581classes": 4994,
    "\u2581rank": 4995,
    "\u2581forces": 4996,
    "\u2581properties": 4997,
    "aming": 4998,
    "\u2581resist": 4999,
    "\u2581developing": 5000,
    "\u2581Cath": 5001,
    "\u2581Apple": 5002,
    "asy": 5003,
    "\u2581runs": 5004,
    "itors": 5005,
    "eline": 5006,
    "\u2581driving": 5007,
    "\u2581Jim": 5008,
    "\u2581Tur": 5009,
    "agged": 5010,
    "What": 5011,
    "anging": 5012,
    "\u2581entertain": 5013,
    "\u00eda": 5014,
    "\u2581Ant": 5015,
    "atically": 5016,
    "\u2581situ": 5017,
    "road": 5018,
    "ffee": 5019,
    "\u2581Foundation": 5020,
    "OV": 5021,
    "\u2581selected": 5022,
    "\u2581tree": 5023,
    "\u2581challenges": 5024,
    "\u2581Earth": 5025,
    "\u2581songs": 5026,
    "\u2581advantage": 5027,
    "\u2581Prov": 5028,
    "\u2581discussion": 5029,
    "\u2581nor": 5030,
    "\u2581detect": 5031,
    "omet": 5032,
    "\u2581onto": 5033,
    "\u2581south": 5034,
    "\u2581contains": 5035,
    "\u2581influence": 5036,
    "\u2581util": 5037,
    "\u2581Human": 5038,
    "Ob": 5039,
    "ui": 5040,
    "\u2581Bet": 5041,
    "include": 5042,
    "\u2581lots": 5043,
    "\u2581reference": 5044,
    "phone": 5045,
    "TH": 5046,
    "\u2581raised": 5047,
    "\u2581Hen": 5048,
    "\u2581score": 5049,
    "\u2581doctor": 5050,
    "inder": 5051,
    "nel": 5052,
    "MS": 5053,
    "\u2581Mel": 5054,
    "\u2581los": 5055,
    "\u2581\u0433\u043e": 5056,
    "\u2581religious": 5057,
    "\u2581Secret": 5058,
    "\u2581nuc": 5059,
    "\u2581transform": 5060,
    "BS": 5061,
    "\u0446\u0438": 5062,
    "\u2581scale": 5063,
    "\u2581pictures": 5064,
    "\u2581Report": 5065,
    "cell": 5066,
    "ivery": 5067,
    "\u2581continues": 5068,
    "\u2581manager": 5069,
    "\u2581Louis": 5070,
    "idden": 5071,
    "look": 5072,
    "\u2581experiences": 5073,
    "\u2581Wood": 5074,
    "uled": 5075,
    "\u2581index": 5076,
    "Se": 5077,
    "\u2581tit": 5078,
    "\u2581relevant": 5079,
    "-\\": 5080,
    "Sp": 5081,
    "\u2581Long": 5082,
    "\u2581CD": 5083,
    "\u2581distance": 5084,
    "\u2581restrict": 5085,
    "No": 5086,
    "\u2581trial": 5087,
    "\u2581vs": 5088,
    "\u2581Ve": 5089,
    "\u2581neighbor": 5090,
    "how": 5091,
    "\u2581owner": 5092,
    "\u2581Mer": 5093,
    "level": 5094,
    "\u2581conserv": 5095,
    "\u2581Second": 5096,
    "\u2581session": 5097,
    "\u2581rich": 5098,
    "\u2581sea": 5099,
    "\u2581weather": 5100,
    "\u2581returned": 5101,
    "\u2581Western": 5102,
    "ructure": 5103,
    "\u2581reached": 5104,
    "\u2581despite": 5105,
    "utely": 5106,
    "\u2581camera": 5107,
    "\u2581covered": 5108,
    "\u2581Water": 5109,
    "estic": 5110,
    "\u2581journey": 5111,
    "\u2581famous": 5112,
    "\u2581performed": 5113,
    "\u2581instruct": 5114,
    "\u2581ended": 5115,
    "\u2581previously": 5116,
    "\u2581Community": 5117,
    "\u2581rob": 5118,
    "\u2581phil": 5119,
    "\u2581distribution": 5120,
    "\u2581senior": 5121,
    "\u2581guid": 5122,
    "\u2581Author": 5123,
    "\u2581dry": 5124,
    "orney": 5125,
    "\u2581proposed": 5126,
    "osen": 5127,
    "\u2581temperature": 5128,
    "}$$": 5129,
    "ker": 5130,
    "span": 5131,
    "clusion": 5132,
    "CE": 5133,
    "\u2581becoming": 5134,
    "\u2581funds": 5135,
    "\u2581!=": 5136,
    "\u2581competition": 5137,
    "\u2581Isl": 5138,
    "abilities": 5139,
    "On": 5140,
    "\u2581willing": 5141,
    "\u2581Show": 5142,
    "\u2581leadership": 5143,
    "ua": 5144,
    "\u2581incor": 5145,
    "RA": 5146,
    "\u2581raise": 5147,
    "\u2581separate": 5148,
    "\u2581gar": 5149,
    "const": 5150,
    "IF": 5151,
    "\u2581Minister": 5152,
    "\u2581Virgin": 5153,
    "\u2581Nor": 5154,
    "\u2581brief": 5155,
    "\u2581thousands": 5156,
    "\u2581tro": 5157,
    "\u2581aware": 5158,
    "\u2581capacity": 5159,
    "\u2581Old": 5160,
    "\u2581una": 5161,
    "\u2581crim": 5162,
    "\u2581Test": 5163,
    "\u2581fell": 5164,
    "\u2581Use": 5165,
    "\u2581sexual": 5166,
    "\u2581circum": 5167,
    "\u2581operation": 5168,
    "SP": 5169,
    "\u2581core": 5170,
    "hab": 5171,
    "\u2581follows": 5172,
    "cd": 5173,
    "anda": 5174,
    "\u00a0\u2014": 5175,
    "\u2581concent": 5176,
    "\u2581Security": 5177,
    "\u2581Engine": 5178,
    "\u2581Lake": 5179,
    "\";": 5180,
    "\u2581shape": 5181,
    "\u2581fat": 5182,
    "\u2581labor": 5183,
    "bo": 5184,
    "i\u00f3n": 5185,
    "\u2581sector": 5186,
    "\u2581susp": 5187,
    "\u2581Have": 5188,
    "\u2581launch": 5189,
    "\u2581doubt": 5190,
    "\u2581agency": 5191,
    "\u2581minor": 5192,
    "\u2581waiting": 5193,
    "\u2581storage": 5194,
    "\u2581luck": 5195,
    "\u2581incred": 5196,
    "iliar": 5197,
    "\u2581drop": 5198,
    "\u2581construct": 5199,
    "\u2581Bur": 5200,
    "\u2581vision": 5201,
    "\u2581Russia": 5202,
    "\u2581pool": 5203,
    "\u2581sounds": 5204,
    "\u2581Atl": 5205,
    "\u2581Kore": 5206,
    "\u2581estate": 5207,
    "fol": 5208,
    "\u2581conflic": 5209,
    "\u2581showing": 5210,
    "going": 5211,
    "\u2581Exp": 5212,
    "\u2581sam": 5213,
    "\u2581Ill": 5214,
    "\u2581Canad": 5215,
    "\u2581Note": 5216,
    "uries": 5217,
    "rier": 5218,
    "ilon": 5219,
    "gency": 5220,
    "\u2581Bo": 5221,
    "icate": 5222,
    "\u2581artists": 5223,
    "\u2581smaller": 5224,
    "\u2581instr": 5225,
    "Pl": 5226,
    "\u2581generation": 5227,
    "BA": 5228,
    "\u2581technical": 5229,
    "\u2581creative": 5230,
    "\u2581Paris": 5231,
    "cious": 5232,
    "\u2581married": 5233,
    "UN": 5234,
    "\u2581mit": 5235,
    "\u2581leaving": 5236,
    "\u2581Ze": 5237,
    "\u2581Both": 5238,
    "sl": 5239,
    "++": 5240,
    "Im": 5241,
    "\u2581column": 5242,
    "\u2581cultural": 5243,
    "orter": 5244,
    "atre": 5245,
    "\u2581girls": 5246,
    "alle": 5247,
    "\u2581occup": 5248,
    "\u2581Lead": 5249,
    "\u2581policies": 5250,
    "mathbf": 5251,
    "\u2581joined": 5252,
    "\u2581eventually": 5253,
    "\u2581thoughts": 5254,
    "icit": 5255,
    "\u2581administration": 5256,
    "\u2581default": 5257,
    "cks": 5258,
    "\u2581functions": 5259,
    "ilde": 5260,
    "\u2581traffic": 5261,
    "\u2581Special": 5262,
    "\u2581prepared": 5263,
    "\u2581balance": 5264,
    "\u2581unless": 5265,
    "\u2581cars": 5266,
    "\u2581diagn": 5267,
    "night": 5268,
    "\u2581films": 5269,
    "inding": 5270,
    "\u2581appeared": 5271,
    "\u2581liber": 5272,
    "\u2581array": 5273,
    "\u2581testing": 5274,
    "which": 5275,
    "\u2581Offic": 5276,
    "\u2581cop": 5277,
    "\u2581applied": 5278,
    "ala": 5279,
    "\u2581proceed": 5280,
    "\u2581lived": 5281,
    "jo": 5282,
    "\u2581monitor": 5283,
    "Ind": 5284,
    "ogue": 5285,
    "\u2581Power": 5286,
    "\u2581Ok": 5287,
    "\u2581au": 5288,
    "gery": 5289,
    "rees": 5290,
    "\u2581evening": 5291,
    "\u2581Gen": 5292,
    "\u2581Its": 5293,
    "osoph": 5294,
    "^{\\": 5295,
    "\u2581guarant": 5296,
    "\u2581decisions": 5297,
    "\u2581funding": 5298,
    "friend": 5299,
    "\u2581watching": 5300,
    "fficient": 5301,
    "\u2581Pri": 5302,
    "\u2581laug": 5303,
    "\u2581uns": 5304,
    "inem": 5305,
    ")(": 5306,
    "\u2581arrang": 5307,
    "\u2581Step": 5308,
    "\u2581Di": 5309,
    "writ": 5310,
    "\u2581Family": 5311,
    "\u2581bath": 5312,
    "\u2581package": 5313,
    "hol": 5314,
    "life": 5315,
    "\u2581citizens": 5316,
    "\u2581practices": 5317,
    "ban": 5318,
    "\u2581battle": 5319,
    "\u2581negative": 5320,
    "SA": 5321,
    "\u2581prison": 5322,
    "hr": 5323,
    "\u2581PC": 5324,
    "\u2581Martin": 5325,
    "\u2581payment": 5326,
    "\u2581reserv": 5327,
    "\u2581signed": 5328,
    "het": 5329,
    "etime": 5330,
    "ensity": 5331,
    "\u2581multi": 5332,
    "\u2581lose": 5333,
    "\u2581cris": 5334,
    "\u2581Sy": 5335,
    "fil": 5336,
    "fit": 5337,
    "illa": 5338,
    "oves": 5339,
    "\u2581Make": 5340,
    "ipping": 5341,
    "post": 5342,
    "\u2581facilities": 5343,
    "\u2581ship": 5344,
    "acement": 5345,
    "ffect": 5346,
    "\u2581intellig": 5347,
    "\u2581mostly": 5348,
    "azon": 5349,
    "\u2581remove": 5350,
    "\u2581shop": 5351,
    "\u2581Angeles": 5352,
    "\u2581Call": 5353,
    "\u2581handle": 5354,
    "ora": 5355,
    "\u2581ice": 5356,
    "\u2581department": 5357,
    "\u2581pieces": 5358,
    "\u2581prepar": 5359,
    "sm": 5360,
    "olars": 5361,
    "\u2581operating": 5362,
    "\u2581Vict": 5363,
    "\u2581animals": 5364,
    "\u2581determined": 5365,
    "\u2581Twitter": 5366,
    "\u2581kitchen": 5367,
    "abled": 5368,
    "\u2581arrest": 5369,
    "\u2581failed": 5370,
    "\u2581CH": 5371,
    "\u00e9e": 5372,
    "\u2581residents": 5373,
    "\u2581exercise": 5374,
    "iat": 5375,
    "\u2581passion": 5376,
    "ef": 5377,
    "PA": 5378,
    "\u2581writer": 5379,
    "\u2581violence": 5380,
    "\u2581kid": 5381,
    "\u2581connected": 5382,
    "\u2581cities": 5383,
    "\u2581None": 5384,
    "igen": 5385,
    "\u2581gain": 5386,
    "\u2581thr": 5387,
    "\u2581mental": 5388,
    "\u043f\u043e": 5389,
    "\u2581honest": 5390,
    "\u2581environmental": 5391,
    "\u2581Fire": 5392,
    "rehens": 5393,
    "Value": 5394,
    "\u2581NY": 5395,
    "host": 5396,
    "\u2581female": 5397,
    "For": 5398,
    "\u2581ton": 5399,
    "\u2581weap": 5400,
    "eder": 5401,
    "\u2581random": 5402,
    "\u2581rise": 5403,
    "\u2581spring": 5404,
    "\u2581selection": 5405,
    "\u2581Inte": 5406,
    "uses": 5407,
    "yan": 5408,
    "\u2581Russian": 5409,
    "\u2581Stat": 5410,
    "\u2581server": 5411,
    "ixt": 5412,
    "\u2581advance": 5413,
    "ocked": 5414,
    "df": 5415,
    "\u2581prote": 5416,
    "isco": 5417,
    "\u2581listen": 5418,
    "\u2581keeping": 5419,
    "\u2581spending": 5420,
    "\u2581chair": 5421,
    "\u2581beat": 5422,
    "eps": 5423,
    "\u2581tom": 5424,
    "icians": 5425,
    "\u0447\u0430": 5426,
    "\u2581earn": 5427,
    "\u2581teacher": 5428,
    "\u2581Before": 5429,
    "\u2581pun": 5430,
    "Text": 5431,
    "\u2581Check": 5432,
    "\u0434\u0435": 5433,
    "acks": 5434,
    "bour": 5435,
    "');": 5436,
    "\u2581terror": 5437,
    "oted": 5438,
    "oration": 5439,
    "':": 5440,
    "\u2581Windows": 5441,
    "cles": 5442,
    "\u2581laun": 5443,
    "poses": 5444,
    "owl": 5445,
    "\u2581TO": 5446,
    "ship": 5447,
    "\u2581focused": 5448,
    "\u2581Iran": 5449,
    "\u0441\u044f": 5450,
    "\u00e3o": 5451,
    "clusive": 5452,
    "\u2581rent": 5453,
    "\u2581finish": 5454,
    "\u2581hearing": 5455,
    "\u2581factor": 5456,
    "\u2581changing": 5457,
    "\u2581label": 5458,
    "\u2581fif": 5459,
    "\u2581Person": 5460,
    "\u2581Oper": 5461,
    "\u2581coach": 5462,
    "gers": 5463,
    "lt": 5464,
    "\u2581fix": 5465,
    "\u2581Bob": 5466,
    "\u2581consequ": 5467,
    "\u2581Federal": 5468,
    "\u2581fields": 5469,
    "\u2581sustain": 5470,
    "\u2581Technology": 5471,
    "\u2581tele": 5472,
    "hi": 5473,
    "atures": 5474,
    "\u2581sharing": 5475,
    "\u2581($": 5476,
    "while": 5477,
    "\u2581identify": 5478,
    "rene": 5479,
    "\u2581starts": 5480,
    "FL": 5481,
    "\u2581fra": 5482,
    "\u2581Media": 5483,
    "\u2581manufacture": 5484,
    "pected": 5485,
    "\u2581debt": 5486,
    "\u2581Jeff": 5487,
    "azz": 5488,
    "));": 5489,
    "odies": 5490,
    "\u2581nav": 5491,
    "\u2581instit": 5492,
    "\u2581pair": 5493,
    "\u2581sets": 5494,
    "\u2581marriage": 5495,
    "Bl": 5496,
    "\u2581Sand": 5497,
    "\u2581\u043a": 5498,
    "ura": 5499,
    "\u2581Charles": 5500,
    "igan": 5501,
    "\u0441\u044c": 5502,
    "\u2581shut": 5503,
    "\u2581Bas": 5504,
    "\u2581Ep": 5505,
    "All": 5506,
    "\u2581mut": 5507,
    "ups": 5508,
    "\u2581freedom": 5509,
    "ani": 5510,
    "\u2581las": 5511,
    "\u2581Mot": 5512,
    "rc": 5513,
    "\u2581documents": 5514,
    "\"]": 5515,
    "DA": 5516,
    "perty": 5517,
    "ideos": 5518,
    "\u2581explain": 5519,
    "\u2581forget": 5520,
    "\u2581manner": 5521,
    "\u2581Head": 5522,
    "rum": 5523,
    "Error": 5524,
    "\u2581Lo": 5525,
    "////////": 5526,
    "\u2581cra": 5527,
    "ja": 5528,
    "\u2581rac": 5529,
    "\u2581teachers": 5530,
    "\u2581managed": 5531,
    "File": 5532,
    "\u2581Week": 5533,
    "erg": 5534,
    "\u2581Global": 5535,
    "\u2581supposed": 5536,
    "By": 5537,
    "\u2581fish": 5538,
    "\u2581equal": 5539,
    "\u2581efficient": 5540,
    "orry": 5541,
    "\u2581disp": 5542,
    "\u2581volunte": 5543,
    "Man": 5544,
    "\u2581brow": 5545,
    "\u2581diet": 5546,
    "\u2581stick": 5547,
    "\u2581apparent": 5548,
    "iples": 5549,
    "\u2581explore": 5550,
    "\u2581fab": 5551,
    "\u2581importance": 5552,
    "\u2581NOT": 5553,
    "\u2581numerous": 5554,
    "cho": 5555,
    "\u2581jump": 5556,
    "\u2581Organ": 5557,
    "\u2581visual": 5558,
    "\u2581manage": 5559,
    "\u043b\u044f": 5560,
    "free": 5561,
    "\u2581Id": 5562,
    "\u2581Mur": 5563,
    "\u2581driver": 5564,
    "TS": 5565,
    "\u2581Mike": 5566,
    "\u2581decide": 5567,
    "\u2581articles": 5568,
    "oung": 5569,
    "ultural": 5570,
    "\u2581internal": 5571,
    "igration": 5572,
    "\u2581youth": 5573,
    "\u2581Those": 5574,
    "\u2581&&": 5575,
    "\u2581dedicated": 5576,
    "oston": 5577,
    "\u2581Lee": 5578,
    "\u2581joint": 5579,
    "\u2581gift": 5580,
    "\u2581chief": 5581,
    "ilding": 5582,
    "\u2581adding": 5583,
    "arp": 5584,
    "\u2581reb": 5585,
    "\u2581Real": 5586,
    "\u2581univers": 5587,
    "\u2581format": 5588,
    "\u2581responsibility": 5589,
    "igation": 5590,
    "\u2581cab": 5591,
    "\u2581retail": 5592,
    "\u2581metal": 5593,
    "\u2581proud": 5594,
    "\u2581Maybe": 5595,
    "\u2581Ma": 5596,
    "count": 5597,
    "arsh": 5598,
    "\u2581coord": 5599,
    "run": 5600,
    "\u2581\u041a\u0430": 5601,
    "ompl": 5602,
    "\u2581ideal": 5603,
    "\u2581introduced": 5604,
    "\u2581Arts": 5605,
    "\u2581Ira": 5606,
    "\u2581Medical": 5607,
    "\u2581Joe": 5608,
    "\u2581rid": 5609,
    "\u2581Blue": 5610,
    "\u2581television": 5611,
    "\u2581notes": 5612,
    "otic": 5613,
    "\u2581vir": 5614,
    "\u2581units": 5615,
    "uing": 5616,
    "Be": 5617,
    "\u2581alternative": 5618,
    "\u2581speech": 5619,
    "\u2581processes": 5620,
    "\u2581Gal": 5621,
    "\u2581noted": 5622,
    "xy": 5623,
    "rip": 5624,
    "alled": 5625,
    "\u2581fashion": 5626,
    "\u2581sweet": 5627,
    "\u2581Invest": 5628,
    "\u2581bra": 5629,
    "\u2581Chris": 5630,
    "icious": 5631,
    "Gr": 5632,
    "\u2581relationships": 5633,
    "\u2581Enter": 5634,
    "\u2581ban": 5635,
    "\u2581supported": 5636,
    "\u2581Writ": 5637,
    "\u2581interests": 5638,
    "\u2581Set": 5639,
    "\u2581missing": 5640,
    "\u2581leads": 5641,
    "\u2581plays": 5642,
    "\u2581listed": 5643,
    "amin": 5644,
    "ola": 5645,
    "phas": 5646,
    "\u2581secure": 5647,
    "\u2581Take": 5648,
    "\u2581Du": 5649,
    "\u2581markets": 5650,
    "emporary": 5651,
    "Time": 5652,
    "\u2581concerns": 5653,
    "\u043c\u0435": 5654,
    "cean": 5655,
    "\u2581committed": 5656,
    "lymp": 5657,
    "\u2581asking": 5658,
    "\u2581purposes": 5659,
    "\u2581fuel": 5660,
    "\u2581Log": 5661,
    "\u2581edge": 5662,
    "\u2581symbol": 5663,
    "kins": 5664,
    "idential": 5665,
    "\u2581forg": 5666,
    "\u2581authority": 5667,
    "\u2581combination": 5668,
    "CL": 5669,
    "\u2581measures": 5670,
    "\u2581Lu": 5671,
    "\u2581sched": 5672,
    "\u2581Food": 5673,
    "\u2581End": 5674,
    "reme": 5675,
    "\u2581decades": 5676,
    "ih": 5677,
    "\u2581officer": 5678,
    "\u2581loan": 5679,
    "\u2581Adv": 5680,
    "\u2581Stand": 5681,
    "\u2581\u2581\u2581\u2581\u2581\u2581\u2581\u2581\u2581": 5682,
    "\u2581Only": 5683,
    "oses": 5684,
    ".;": 5685,
    "\u2581Ro": 5686,
    "\u2581delivery": 5687,
    "\u2581Arab": 5688,
    "\u2581Wall": 5689,
    "\u2581winter": 5690,
    "\u2581advanced": 5691,
    "\u2581putting": 5692,
    "\u2581injury": 5693,
    "\u2581optim": 5694,
    "\u2581dress": 5695,
    "coh": 5696,
    "\u2581fill": 5697,
    "mathrm": 5698,
    "\u2581excited": 5699,
    "\u2581ment": 5700,
    "\u2581Nav": 5701,
    "\u2581soul": 5702,
    "\u2581height": 5703,
    "\u2581Team": 5704,
    "angle": 5705,
    "\u2581comfortable": 5706,
    "\u2581welcome": 5707,
    "map": 5708,
    "\u2581decre": 5709,
    "\u2581assert": 5710,
    "\u2581calling": 5711,
    "\u2581ur": 5712,
    "\u2581Dig": 5713,
    "\u2581McC": 5714,
    "\u043d\u044f": 5715,
    "\u2581emp": 5716,
    "\u2581techniques": 5717,
    "allery": 5718,
    "\u2581trib": 5719,
    "bec": 5720,
    "ns": 5721,
    "\u2581researc": 5722,
    "\u2026]": 5723,
    "MA": 5724,
    "\u2581flex": 5725,
    "icing": 5726,
    "\u2581stated": 5727,
    "\u2581bought": 5728,
    "othes": 5729,
    "\u2581belief": 5730,
    "\u2581apart": 5731,
    "\u2581paint": 5732,
    "\u2581Men": 5733,
    "\u2581Po": 5734,
    "\u2581defense": 5735,
    "\u2581academic": 5736,
    "aks": 5737,
    "sigma": 5738,
    "\u2581discover": 5739,
    "\u2581resol": 5740,
    "\u2581Follow": 5741,
    "\u2581Library": 5742,
    "\u2581stars": 5743,
    "stream": 5744,
    "ossible": 5745,
    "\u2581dial": 5746,
    "related": 5747,
    "\u2581advent": 5748,
    "esome": 5749,
    "\u2581cou": 5750,
    "eah": 5751,
    "\u043d\u0456": 5752,
    "\u2581carried": 5753,
    "\u2581belong": 5754,
    "\u2581Photo": 5755,
    "\u2581yes": 5756,
    "\u2581Pan": 5757,
    "inst": 5758,
    "inations": 5759,
    "\u2581Conference": 5760,
    "\u2581Prot": 5761,
    "\u2581slightly": 5762,
    "\u2581Exper": 5763,
    "can": 5764,
    "\u2581plenty": 5765,
    "\u2581circumst": 5766,
    "sq": 5767,
    "otes": 5768,
    "\u2581plants": 5769,
    "ML": 5770,
    "\u2581pp": 5771,
    "\u2581Thus": 5772,
    "Fr": 5773,
    "\u2581Anal": 5774,
    "\u2581script": 5775,
    "town": 5776,
    "\u2581\u041c": 5777,
    "\u2581Sar": 5778,
    "\u2581flat": 5779,
    "\u2581pal": 5780,
    "\u2581Town": 5781,
    "\u2581AT": 5782,
    "\u2581forced": 5783,
    "ATION": 5784,
    "\u2581survey": 5785,
    "\u2581Series": 5786,
    "\u2581ris": 5787,
    "\u2581trail": 5788,
    "\u2581sport": 5789,
    "inating": 5790,
    "script": 5791,
    "Qu": 5792,
    "\u2581\u0433": 5793,
    "\u2581posts": 5794,
    "iano": 5795,
    "\u2581thread": 5796,
    "\u2581critic": 5797,
    "\u2581obtained": 5798,
    "App": 5799,
    "\u2581volume": 5800,
    "\u0434\u043e": 5801,
    "\u2581batter": 5802,
    "\u2581fixed": 5803,
    "\u00fcr": 5804,
    "\u2581exchange": 5805,
    "\u2581border": 5806,
    "\u2581accompl": 5807,
    "fast": 5808,
    "\u2581Valley": 5809,
    "\u2581Iraq": 5810,
    "dis": 5811,
    "\u2581Johnson": 5812,
    "\u2581historical": 5813,
    "\u2581Jewish": 5814,
    "\u0441\u0438": 5815,
    "\u2581absolutely": 5816,
    "\u2581NE": 5817,
    "\u2581coverage": 5818,
    "\u2581sac": 5819,
    "\u2581executive": 5820,
    "\u2581schedule": 5821,
    "\u2581motor": 5822,
    "from": 5823,
    "oub": 5824,
    "tw": 5825,
    "\u2581wear": 5826,
    "js": 5827,
    "\u2581failure": 5828,
    "\u2581library": 5829,
    "There": 5830,
    "\u2581Jon": 5831,
    "lem": 5832,
    "\u2581expression": 5833,
    "\u2581familiar": 5834,
    "!!!!": 5835,
    "\u2581crime": 5836,
    "\u2581coffee": 5837,
    "\u2581fourth": 5838,
    "gypt": 5839,
    "\u2581weak": 5840,
    "\u2581Gra": 5841,
    "ubb": 5842,
    "\u2581sand": 5843,
    "ingly": 5844,
    "\u2581holding": 5845,
    "UL": 5846,
    "\u2581frame": 5847,
    "\u2581Muslim": 5848,
    "dden": 5849,
    "\u0441\u043a\u0438": 5850,
    "\u2581argument": 5851,
    "isters": 5852,
    "ensions": 5853,
    "\u2581rom": 5854,
    "\u2581interpret": 5855,
    "\u2581Color": 5856,
    "\u2581filled": 5857,
    "\u2581phase": 5858,
    "\u2581conven": 5859,
    "\u2581wa": 5860,
    "tenance": 5861,
    "\u2581Mexico": 5862,
    "\u2581brings": 5863,
    "beta": 5864,
    "\u2581Administ": 5865,
    "\u2581kill": 5866,
    "\u2581none": 5867,
    "\u2581sympt": 5868,
    "\u2581mo": 5869,
    "\u2581wine": 5870,
    "\u2581king": 5871,
    "\u2581Est": 5872,
    "urban": 5873,
    "\u2581Through": 5874,
    "amework": 5875,
    "\u2581approximately": 5876,
    "ingu": 5877,
    "real": 5878,
    "\u2581corporate": 5879,
    "\u2581waste": 5880,
    "\u2581Georg": 5881,
    "\u2581snow": 5882,
    "\u2581Pac": 5883,
    "EST": 5884,
    "\u2581scientific": 5885,
    "top": 5886,
    "\u2581defend": 5887,
    "asp": 5888,
    "\u2581Asia": 5889,
    "\u2581university": 5890,
    "uthors": 5891,
    "\u2581editor": 5892,
    "\u2581winning": 5893,
    "\u2581coast": 5894,
    "aked": 5895,
    "\u2581minimum": 5896,
    "\u2581hyd": 5897,
    "pty": 5898,
    "\u2581switch": 5899,
    "\u2581illustr": 5900,
    "arts": 5901,
    "\u2581walking": 5902,
    "\u2581agent": 5903,
    "\u2581cards": 5904,
    "\u2581Japanese": 5905,
    "\u2581Further": 5906,
    "EE": 5907,
    "\u2581Middle": 5908,
    "\u2581rain": 5909,
    "inet": 5910,
    "\u2581witness": 5911,
    "\u2581recorded": 5912,
    "\u2581Cast": 5913,
    "\u2581rapid": 5914,
    "\u2581sample": 5915,
    "\u2581topic": 5916,
    "\u2581Game": 5917,
    "\u2581facility": 5918,
    "\u2581Boston": 5919,
    "\u2581corner": 5920,
    "ician": 5921,
    "\u2581Professor": 5922,
    "\u2581Canadian": 5923,
    "\u2581identified": 5924,
    "\u2581Chief": 5925,
    "\u2581relax": 5926,
    "\u2581Click": 5927,
    "CA": 5928,
    "mat": 5929,
    "\u2581concerned": 5930,
    "ilit": 5931,
    "ulty": 5932,
    "page": 5933,
    "\u2581trees": 5934,
    "eller": 5935,
    "\u00e4r": 5936,
    "\u2581teach": 5937,
    "\u2581maximum": 5938,
    "ograp": 5939,
    "\u2581Fund": 5940,
    "\u2581intended": 5941,
    "\u2581ok": 5942,
    "\u2581furn": 5943,
    "esterday": 5944,
    "ounder": 5945,
    "\u2581minute": 5946,
    "\u2581enjoyed": 5947,
    "\u2581removed": 5948,
    "Ad": 5949,
    "\u2581experts": 5950,
    "\u2581mode": 5951,
    "\u2581une": 5952,
    "\u2581sudden": 5953,
    "\u2581bright": 5954,
    "umer": 5955,
    "][": 5956,
    "\u2581button": 5957,
    "\u2581CEO": 5958,
    "\u2581sin": 5959,
    "\u2581male": 5960,
    "\u2581worry": 5961,
    "\u2581Way": 5962,
    "\u2581Wal": 5963,
    "\u2581Penn": 5964,
    "\u2581Section": 5965,
    "\u2581Police": 5966,
    "stein": 5967,
    "^{-": 5968,
    "\u2581Cup": 5969,
    "rical": 5970,
    "\u2581fort": 5971,
    "\u2581worse": 5972,
    "rer": 5973,
    "\u2581processing": 5974,
    "\u2581Kategorie": 5975,
    "aven": 5976,
    "ushed": 5977,
    "onom": 5978,
    "\u2581Phot": 5979,
    "\u2581aspects": 5980,
    "\u2581hero": 5981,
    "\u2581reviews": 5982,
    "\u2581square": 5983,
    "\u2581protected": 5984,
    "\u2581discovered": 5985,
    "\u2581Academy": 5986,
    "\u2581Children": 5987,
    "\u2581ON": 5988,
    "\u2581Charl": 5989,
    "\u2581nine": 5990,
    "\u2581Virginia": 5991,
    "\u2581quiet": 5992,
    "\u2581Festival": 5993,
    "\u0442\u044c": 5994,
    "asks": 5995,
    "otal": 5996,
    "\u2581Boy": 5997,
    "\u2581Jun": 5998,
    "irty": 5999,
    "ishes": 6000,
    "group": 6001,
    "\u2581upp": 6002,
    "west": 6003,
    "\u2581bond": 6004,
    "iciency": 6005,
    "\u2581Corpor": 6006,
    "erry": 6007,
    "\u2581components": 6008,
    "\u2581expensive": 6009,
    "\u2581ran": 6010,
    "cos": 6011,
    "ocket": 6012,
    "obe": 6013,
    "\u2581IP": 6014,
    "\u2581\u043f\u0440\u043e": 6015,
    "\u2581leaves": 6016,
    "fty": 6017,
    "len": 6018,
    "apping": 6019,
    "DF": 6020,
    "\u2581\u0440\u0430": 6021,
    "\u2581stre": 6022,
    "\u2581rot": 6023,
    "\u2581AS": 6024,
    "\u2581accident": 6025,
    "\u2581issued": 6026,
    "iture": 6027,
    "\u2581animal": 6028,
    "></": 6029,
    "olar": 6030,
    "\u2581Dev": 6031,
    "\u2581feels": 6032,
    "rec": 6033,
    "essions": 6034,
    "\u2581mir": 6035,
    "\u2581Aff": 6036,
    "\u2581era": 6037,
    "\u2581motiv": 6038,
    "\u2581analy": 6039,
    "\u2581housing": 6040,
    "init": 6041,
    "ums": 6042,
    "\u2581[\u2026]": 6043,
    "\u2581crowd": 6044,
    "style": 6045,
    "ERS": 6046,
    "outs": 6047,
    "ati": 6048,
    "\u2581Indust": 6049,
    "comm": 6050,
    "\u2581Carolina": 6051,
    "Add": 6052,
    "\u2581std": 6053,
    "\u2581tells": 6054,
    "\u2581Jones": 6055,
    "zer": 6056,
    "\u2581identity": 6057,
    "\u2581Master": 6058,
    "iams": 6059,
    "\u2581marg": 6060,
    "\u2581combined": 6061,
    "\u2581Tre": 6062,
    "\u2581Instead": 6063,
    "\u2581agreed": 6064,
    "\u2581classic": 6065,
    "\u2581attrib": 6066,
    "\u2581Find": 6067,
    "uster": 6068,
    "\u2581greatest": 6069,
    "''": 6070,
    "(),": 6071,
    "ante": 6072,
    "\u2581Card": 6073,
    "\u2581allowing": 6074,
    "ket": 6075,
    "\u2581photograph": 6076,
    "\u2581sitting": 6077,
    "Par": 6078,
    "\u2581buildings": 6079,
    "\u2581movies": 6080,
    "\u2581Start": 6081,
    "\u2581panel": 6082,
    "\u2581href": 6083,
    "\u2581specifically": 6084,
    "trans": 6085,
    "\u2581Catholic": 6086,
    "\u2581vent": 6087,
    "\u2581conversation": 6088,
    "\u2581readers": 6089,
    "\u2581ride": 6090,
    "ommod": 6091,
    "\u2581Ell": 6092,
    "\u2581Haw": 6093,
    "\u2581selling": 6094,
    "\u2581Aud": 6095,
    "iana": 6096,
    "\u2581standing": 6097,
    "\u2581destroy": 6098,
    "\u2581Therefore": 6099,
    "table": 6100,
    "big": 6101,
    "\u2581Microsoft": 6102,
    "\u2581Polit": 6103,
    "\u2581kick": 6104,
    "iration": 6105,
    "\u2581hyp": 6106,
    "\u2581craft": 6107,
    "long": 6108,
    "\u2581depart": 6109,
    "cknow": 6110,
    "\u2581Royal": 6111,
    "section": 6112,
    "ATE": 6113,
    "\u2581chemical": 6114,
    "\u2581ourselves": 6115,
    "\u2581officers": 6116,
    "\u2581perspective": 6117,
    "\u2581holds": 6118,
    "\u2581elim": 6119,
    "\u2581restaurant": 6120,
    "input": 6121,
    "\u2581mere": 6122,
    "ye": 6123,
    "anish": 6124,
    "iments": 6125,
    "\u2581indeed": 6126,
    "\u2581EU": 6127,
    "elled": 6128,
    "\u2581org": 6129,
    "scape": 6130,
    "\u2581politics": 6131,
    "olds": 6132,
    "\u2581possibly": 6133,
    "\u2581Phys": 6134,
    "\u2581examples": 6135,
    "\u2581dollars": 6136,
    "\u2581Energy": 6137,
    "gage": 6138,
    "\u2581formed": 6139,
    "\u2581investigation": 6140,
    "\u2581Max": 6141,
    "\u2581Daniel": 6142,
    "\u2581Beach": 6143,
    "><": 6144,
    "\u2581enem": 6145,
    "php": 6146,
    "uable": 6147,
    "\u2581Tour": 6148,
    "osit": 6149,
    "\u2581Il": 6150,
    "pass": 6151,
    "je": 6152,
    "\u2581herself": 6153,
    "uated": 6154,
    "\u2581AR": 6155,
    "eler": 6156,
    "\u2581causes": 6157,
    "max": 6158,
    "\u2581commission": 6159,
    "\u2581Young": 6160,
    "ansion": 6161,
    "\u2581Australian": 6162,
    "\u2581crisis": 6163,
    "\u2581pod": 6164,
    "\u2581oblig": 6165,
    "\u2581tests": 6166,
    "\u2581assistance": 6167,
    "ello": 6168,
    "\u2581caught": 6169,
    "\u2581Senate": 6170,
    "Americ": 6171,
    "\u2581OR": 6172,
    "\u2581garden": 6173,
    "\u2581Network": 6174,
    "\u2581institutions": 6175,
    "\u2581mine": 6176,
    "sembly": 6177,
    "\u2581Dom": 6178,
    "\u2581Army": 6179,
    "\u2581adults": 6180,
    "\u2581episode": 6181,
    "\u2581Centre": 6182,
    "\u2581reduced": 6183,
    "\u2581matters": 6184,
    "\u2581Priv": 6185,
    "\u2581criminal": 6186,
    "\u2581Olymp": 6187,
    "\u2581lit": 6188,
    "\u2581Does": 6189,
    "\u2581pour": 6190,
    "oti": 6191,
    "irmed": 6192,
    "iveness": 6193,
    "\u2581pray": 6194,
    "\u2581realize": 6195,
    "gs": 6196,
    "uts": 6197,
    "\u2581um": 6198,
    "\u2581Policy": 6199,
    "\u2581musical": 6200,
    "\u2581centre": 6201,
    "LC": 6202,
    "########": 6203,
    "\u2581Fort": 6204,
    "Set": 6205,
    "\u2581Son": 6206,
    "athe": 6207,
    "\u2581nuclear": 6208,
    "\u2581tow": 6209,
    "oman": 6210,
    "\u2581bes": 6211,
    "\u2581>>": 6212,
    "\u2581sad": 6213,
    "\u0431\u043e": 6214,
    "\u2581dans": 6215,
    "\u2581sister": 6216,
    "\u2581Amazon": 6217,
    "\u2581mouth": 6218,
    "\u2581fle": 6219,
    "\u2581island": 6220,
    "\u2581remind": 6221,
    "ilder": 6222,
    "\u2581typically": 6223,
    "\u2581smooth": 6224,
    "\u2581Ext": 6225,
    "\u2581alt": 6226,
    "\u2581justice": 6227,
    "\u2581announce": 6228,
    "\u2581buying": 6229,
    "mosp": 6230,
    "\u2581});": 6231,
    "\u2581reform": 6232,
    "ba": 6233,
    "\u2581Pay": 6234,
    "\u2581draft": 6235,
    "espite": 6236,
    "\u2581creation": 6237,
    "agram": 6238,
    "\u2581administr": 6239,
    "\u2581conver": 6240,
    "po": 6241,
    "fin": 6242,
    "then": 6243,
    "\u2581category": 6244,
    "liament": 6245,
    "color": 6246,
    "\u2581tradition": 6247,
    "prise": 6248,
    "\u2581clinical": 6249,
    "king": 6250,
    "\u2581advoc": 6251,
    "Object": 6252,
    "\u2581d\u00e9": 6253,
    "noon": 6254,
    "elle": 6255,
    "\u2581rooms": 6256,
    "\u2581stopped": 6257,
    "\u2581arrived": 6258,
    "())": 6259,
    "\u2581forest": 6260,
    "\u2581info": 6261,
    "\u2581WH": 6262,
    "'.": 6263,
    "\u2581Online": 6264,
    "\u2581prove": 6265,
    "\u2581incorpor": 6266,
    "lines": 6267,
    "\u2581diss": 6268,
    "\u2581__": 6269,
    "\u2581professionals": 6270,
    "param": 6271,
    "\u2581AD": 6272,
    "\u2581Again": 6273,
    "FA": 6274,
    "\u2581si": 6275,
    "\u2581desire": 6276,
    "\u2581medium": 6277,
    "\u2581\u00b7": 6278,
    "\u2581unl": 6279,
    "\u2581totally": 6280,
    "\\\\": 6281,
    "ifts": 6282,
    "\u2581channel": 6283,
    "\u2581bag": 6284,
    "\u2581database": 6285,
    "\u2581god": 6286,
    ")}": 6287,
    "\u2581emphas": 6288,
    "\u2581drugs": 6289,
    "\u2581wealth": 6290,
    "\u2581courses": 6291,
    "nic": 6292,
    "\u2581Hon": 6293,
    "\u2581wedding": 6294,
    "\u2581resource": 6295,
    "\u2581CA": 6296,
    "\u2581village": 6297,
    "\u2581divid": 6298,
    "\u2581conclud": 6299,
    "\u2581entirely": 6300,
    "\u2581<<": 6301,
    "\u2581Egypt": 6302,
    "\u2581SP": 6303,
    "\u2581Kar": 6304,
    "\u2581Did": 6305,
    "onym": 6306,
    "\u2581motion": 6307,
    "rieved": 6308,
    "astern": 6309,
    "itutional": 6310,
    "hop": 6311,
    "door": 6312,
    "\u2581impress": 6313,
    "andon": 6314,
    "code": 6315,
    "\u2581Using": 6316,
    "\u2581holiday": 6317,
    "\u2581approved": 6318,
    "length": 6319,
    "My": 6320,
    "\u2581pil": 6321,
    "\u043a\u0443": 6322,
    "\u2581theme": 6323,
    "\u2581Champions": 6324,
    "UM": 6325,
    "\u2581visitors": 6326,
    "\u2581Steve": 6327,
    "\u2581Run": 6328,
    "\u043c\u043e": 6329,
    "\u2581serving": 6330,
    "\u2581speaking": 6331,
    "\u2581exciting": 6332,
    "\u2581Custom": 6333,
    "\u2581promote": 6334,
    "\u2581treated": 6335,
    "delta": 6336,
    "\u2581beauty": 6337,
    "\u2581shel": 6338,
    "\u2581seat": 6339,
    "yles": 6340,
    "ador": 6341,
    "\u2581{\\": 6342,
    "\u2581princip": 6343,
    "rome": 6344,
    "\u2581relatively": 6345,
    "osite": 6346,
    "\u2581launched": 6347,
    "\u2581Andrew": 6348,
    "\u0441\u0435": 6349,
    "\u2581democr": 6350,
    "\u2581od": 6351,
    "stra": 6352,
    "\u2581explained": 6353,
    "\u2581hun": 6354,
    "aped": 6355,
    "pet": 6356,
    "\u2581reject": 6357,
    "\u2581charges": 6358,
    "nam": 6359,
    "\u2581Four": 6360,
    "\u2581discl": 6361,
    "\u2581objects": 6362,
    "antly": 6363,
    "\u2581Joseph": 6364,
    "bi": 6365,
    "\u2581tun": 6366,
    "\u2581begins": 6367,
    "icial": 6368,
    "\u2581suppl": 6369,
    "\u2581Product": 6370,
    "\u0441\u0442\u0438": 6371,
    "\u2581Luc": 6372,
    "\u2581Williams": 6373,
    "\u2581detailed": 6374,
    "\u2581substant": 6375,
    "rehensive": 6376,
    "\u2581flight": 6377,
    "ESS": 6378,
    "\u2581fee": 6379,
    "\u2581Van": 6380,
    "\u2581bringing": 6381,
    "parent": 6382,
    "\u2581videos": 6383,
    "acle": 6384,
    "+\\": 6385,
    "case": 6386,
    "\u2581Francisco": 6387,
    "oster": 6388,
    "\u2581rail": 6389,
    "\u2581dra": 6390,
    "\u2581telling": 6391,
    "gorith": 6392,
    "||": 6393,
    "\u2581fundament": 6394,
    "\u2581Henry": 6395,
    "';": 6396,
    "\u2581imagine": 6397,
    "\u2581ath": 6398,
    "\u2581Yet": 6399,
    "cohol": 6400,
    "\u2581accepted": 6401,
    "\u2581circumstances": 6402,
    "\u2581believed": 6403,
    "\u2581simpl": 6404,
    "rete": 6405,
    "\u2581vehicles": 6406,
    "\u2581description": 6407,
    "olit": 6408,
    "\u2581Mic": 6409,
    "\u2581dinner": 6410,
    "mes": 6411,
    "\u2581Coll": 6412,
    "\u2581significantly": 6413,
    "\u2581wire": 6414,
    "\u2581spons": 6415,
    "\u2581ven": 6416,
    "rick": 6417,
    "\u2581proof": 6418,
    "\u2581signal": 6419,
    "\u2581profile": 6420,
    "\u2581Justice": 6421,
    "\u2581affected": 6422,
    "ogen": 6423,
    "greg": 6424,
    "\u2581properly": 6425,
    "\u2581layer": 6426,
    "\u2581accounts": 6427,
    "\u2581perman": 6428,
    "\u2581signs": 6429,
    "\u2581sides": 6430,
    "\u2581auto": 6431,
    "\u2581gather": 6432,
    "py": 6433,
    "\u2581eating": 6434,
    "elines": 6435,
    "\u2581Lim": 6436,
    "Or": 6437,
    "\u2581Three": 6438,
    "\u2581portion": 6439,
    "riz": 6440,
    "inton": 6441,
    "\u2581industrial": 6442,
    "\u2581employee": 6443,
    "Exception": 6444,
    "\u2581educational": 6445,
    "function": 6446,
    "DS": 6447,
    "\u2581turns": 6448,
    "\u2581san": 6449,
    "\u2581dance": 6450,
    "\u2581campus": 6451,
    "\u2581component": 6452,
    "\u2581Ol": 6453,
    "\u2581route": 6454,
    "\u2581Light": 6455,
    "\u2581supporting": 6456,
    "\u2581registered": 6457,
    "\u2581religion": 6458,
    "\u2581grew": 6459,
    "\u2581pure": 6460,
    "\u2581chapter": 6461,
    "\u0436\u0435": 6462,
    "\u2581shares": 6463,
    "\u0441\u0442\u043e": 6464,
    "\u2581cloud": 6465,
    "\u2581fees": 6466,
    "\u2581Columb": 6467,
    "ando": 6468,
    "\u2581Hor": 6469,
    "\u2581confidence": 6470,
    "\u2581twice": 6471,
    "\u2581honor": 6472,
    "\u2581Jackson": 6473,
    "\u2581lie": 6474,
    "\u2581lin": 6475,
    "\u2581conducted": 6476,
    "ployment": 6477,
    "avor": 6478,
    "\u2581cart": 6479,
    "\u2581broken": 6480,
    "\u2581Secretary": 6481,
    "link": 6482,
    "\u2581helpful": 6483,
    "That": 6484,
    "\u2581Finally": 6485,
    "izer": 6486,
    "iverse": 6487,
    "array": 6488,
    "https": 6489,
    "\u2581aid": 6490,
    "\u2581spiritual": 6491,
    "\u2581hundreds": 6492,
    "\u2581taught": 6493,
    "TER": 6494,
    "\u2581suit": 6495,
    "\u2581Squ": 6496,
    "());": 6497,
    "\u2581accommod": 6498,
    "arks": 6499,
    "nu": 6500,
    "\u2581symptoms": 6501,
    "\u2581discussed": 6502,
    "rate": 6503,
    "\u2581technologies": 6504,
    "ading": 6505,
    "item": 6506,
    "iki": 6507,
    "\u2581acknow": 6508,
    "\u2581massive": 6509,
    "\u2581Film": 6510,
    "FF": 6511,
    "\u2026\u2026": 6512,
    "\u043d\u0438\u044f": 6513,
    "tau": 6514,
    "\u2581involve": 6515,
    "\u2581Previous": 6516,
    "cha": 6517,
    "\u2581appearance": 6518,
    "\u2581agencies": 6519,
    "\u2581locations": 6520,
    "='": 6521,
    "orders": 6522,
    "position": 6523,
    "\u2581infrast": 6524,
    "\u2581forth": 6525,
    "\u2581observed": 6526,
    "\u2581busy": 6527,
    "\u2581newsp": 6528,
    "gamma": 6529,
    "\u2581Full": 6530,
    "\u2581liqu": 6531,
    "\u2581seeking": 6532,
    "\u2581revenue": 6533,
    "\u2581MS": 6534,
    "\u2581recip": 6535,
    "ras": 6536,
    "bal": 6537,
    "\u2581mail": 6538,
    "../": 6539,
    "\u2581revealed": 6540,
    "ellect": 6541,
    "\u2581ancient": 6542,
    "ko": 6543,
    "\u2581commitment": 6544,
    "\u2581},": 6545,
    "\u2581consumer": 6546,
    "eper": 6547,
    "icht": 6548,
    "\u2581\u0434\u043e": 6549,
    "\u2581chosen": 6550,
    "\u2581Connect": 6551,
    "osc": 6552,
    "OG": 6553,
    "RI": 6554,
    "\u2581trouble": 6555,
    "areness": 6556,
    "lication": 6557,
    "\u2581emergency": 6558,
    "\u2581candidate": 6559,
    "oir": 6560,
    "\u2581remaining": 6561,
    "ivered": 6562,
    "ancer": 6563,
    "\u2581surgery": 6564,
    "\u2581transition": 6565,
    "that": 6566,
    "\u2581adult": 6567,
    "Read": 6568,
    "\u2581stores": 6569,
    "abet": 6570,
    "\u2581Sat": 6571,
    "\u2581stret": 6572,
    "\u2581attacks": 6573,
    "\u2581considering": 6574,
    "\u2581veget": 6575,
    "config": 6576,
    "\u2581regional": 6577,
    "\u2581*/": 6578,
    "\u2581Republican": 6579,
    "\u2581severe": 6580,
    "\u2581compr": 6581,
    "othe": 6582,
    "water": 6583,
    "\u2581shopping": 6584,
    "\u2581thick": 6585,
    "\u2581pregn": 6586,
    "ifications": 6587,
    "kes": 6588,
    "\u2581occasion": 6589,
    "\u2581abuse": 6590,
    "\u2581writes": 6591,
    "\u2581Pass": 6592,
    "\u2581Spring": 6593,
    "\u2581paying": 6594,
    "Key": 6595,
    "\u2581adop": 6596,
    "\u2581exec": 6597,
    "kin": 6598,
    "\u2581ast": 6599,
    "!!!": 6600,
    "\u2581closer": 6601,
    "osa": 6602,
    "\u2581adm": 6603,
    "\u2581enforce": 6604,
    "\u2581Whether": 6605,
    "\u2581resolution": 6606,
    "info": 6607,
    "ni": 6608,
    "\u2581Walk": 6609,
    "\u2581committee": 6610,
    "rich": 6611,
    "\u2581participants": 6612,
    "oles": 6613,
    "\u2581positions": 6614,
    "\u2581Right": 6615,
    "\u2581debate": 6616,
    "ounter": 6617,
    "lywood": 6618,
    "\u2581beach": 6619,
    "achel": 6620,
    "\u2581mechanism": 6621,
    "ormal": 6622,
    "\u2581Hospital": 6623,
    "\u2581Ken": 6624,
    "CS": 6625,
    "\u2581mal": 6626,
    "\u2581\u0410": 6627,
    "\u2581gro": 6628,
    "cript": 6629,
    "\u2581river": 6630,
    "start": 6631,
    "erman": 6632,
    "\u2581defe": 6633,
    "\u2581Jac": 6634,
    "reprene": 6635,
    "mond": 6636,
    "\u2581neighborhood": 6637,
    "\u2581Equ": 6638,
    "\u2581tips": 6639,
    "\u2581seconds": 6640,
    "\u2581Know": 6641,
    "theta": 6642,
    "\u2581therapy": 6643,
    "legal": 6644,
    "\u2581improved": 6645,
    "\u2581dram": 6646,
    "\u2581advis": 6647,
    "\u2581Despite": 6648,
    "reland": 6649,
    "\u2581Ha": 6650,
    "\u2581Little": 6651,
    "\u2581judge": 6652,
    "\u2581ring": 6653,
    "\u2581goods": 6654,
    "BI": 6655,
    "\u2581Orig": 6656,
    "\u2581Bible": 6657,
    "\u2581arms": 6658,
    "\u2581afternoon": 6659,
    "\u2581maintenance": 6660,
    "State": 6661,
    "ocument": 6662,
    "comes": 6663,
    "uls": 6664,
    "Ed": 6665,
    "\u2581ax": 6666,
    "\u2581friendly": 6667,
    "\u2581practical": 6668,
    "sole": 6669,
    "ji": 6670,
    "olec": 6671,
    "\u2581entered": 6672,
    "\u2581county": 6673,
    "\u2581tight": 6674,
    "\u2581upper": 6675,
    "Don": 6676,
    "\u2581Cross": 6677,
    "\u2581Environment": 6678,
    "\u2581Liber": 6679,
    "GB": 6680,
    "\u2581ends": 6681,
    "\u2581atmosp": 6682,
    "\u2581cheap": 6683,
    "HT": 6684,
    "\u2581joy": 6685,
    "\u2581concert": 6686,
    "public": 6687,
    "\u2581studio": 6688,
    "\u2581virtual": 6689,
    "\u2581Division": 6690,
    "sen": 6691,
    "\u2581Night": 6692,
    "\u2581egg": 6693,
    "\u2581inspired": 6694,
    "\u2581glad": 6695,
    "\u2581encourage": 6696,
    "\u2581returns": 6697,
    "\u2581veter": 6698,
    "tes": 6699,
    "\u2581$(": 6700,
    "\u2581distinct": 6701,
    "\u2581suggested": 6702,
    "\u2581os": 6703,
    "\u2581Watch": 6704,
    "\u2581cup": 6705,
    "\u2581scr": 6706,
    "infty": 6707,
    "rog": 6708,
    "times": 6709,
    "\u2581Studies": 6710,
    "iform": 6711,
    "\u0447\u0438": 6712,
    "\u2581definition": 6713,
    "\u2581tough": 6714,
    "\u2581km": 6715,
    "PL": 6716,
    "\u2581contrast": 6717,
    "\u2581filed": 6718,
    "\u2581hat": 6719,
    "\u2581electronic": 6720,
    "\u2581Pop": 6721,
    "\u2581planned": 6722,
    "\u2581authorities": 6723,
    "okes": 6724,
    "ads": 6725,
    "encing": 6726,
    "ansas": 6727,
    "\u2581Spanish": 6728,
    "\u2581fellow": 6729,
    "ulous": 6730,
    "\u2581fighting": 6731,
    "\u2581Non": 6732,
    "\u2581pit": 6733,
    "\u2581engineering": 6734,
    "\u0442\u0443": 6735,
    "\u2581philosoph": 6736,
    "\u2581YOU": 6737,
    "\u2581Roman": 6738,
    "\u2581Which": 6739,
    "\u2581impossible": 6740,
    "\u2581Cy": 6741,
    "essed": 6742,
    "\u2581FOR": 6743,
    "rid": 6744,
    "\u2581DE": 6745,
    "ali": 6746,
    "car": 6747,
    "\u2581researchers": 6748,
    "ride": 6749,
    "\u2581consumers": 6750,
    "\u2581territ": 6751,
    "\u2581sufficient": 6752,
    "\u2581recon": 6753,
    "ibilities": 6754,
    "\u2581taste": 6755,
    "\u2581Italy": 6756,
    "\u2581regul": 6757,
    "\u2581facts": 6758,
    "sim": 6759,
    "\u2581templ": 6760,
    "itage": 6761,
    "\u2581guard": 6762,
    "\u2581\u041d": 6763,
    "\u2581recognized": 6764,
    "\u2581Page": 6765,
    "using": 6766,
    "\u2581iron": 6767,
    "\u2581reasonable": 6768,
    "\u2581Ce": 6769,
    "enth": 6770,
    "\u2581guests": 6771,
    "vely": 6772,
    "pace": 6773,
    "_.": 6774,
    "elly": 6775,
    "\u2581Table": 6776,
    "\u2581west": 6777,
    "\u2581dangerous": 6778,
    "\u2581owned": 6779,
    "\u2581emotional": 6780,
    "\u2581describe": 6781,
    "\u2581usual": 6782,
    "\u2581narr": 6783,
    "\u2581Lin": 6784,
    "\u2581differences": 6785,
    "\u2581Li": 6786,
    "\u2581Rights": 6787,
    "\u2581knowing": 6788,
    "\u2581Gar": 6789,
    "rooms": 6790,
    "orters": 6791,
    "\u2581adapt": 6792,
    "content": 6793,
    "*/": 6794,
    "ighter": 6795,
    "\u2581crew": 6796,
    "orough": 6797,
    "\u2581employment": 6798,
    "arian": 6799,
    "\u2581strategies": 6800,
    "\u2581conflict": 6801,
    "inte": 6802,
    "\u2581Rest": 6803,
    "Form": 6804,
    "\u2581charged": 6805,
    "anges": 6806,
    "\u2581Hotel": 6807,
    "\u2581rough": 6808,
    "\u2581CO": 6809,
    "iro": 6810,
    "\u2581Hand": 6811,
    "\u2581planet": 6812,
    "\u2581subsequ": 6813,
    "urd": 6814,
    "\u2581recommended": 6815,
    "exp": 6816,
    "\u2581\u0441\u043e": 6817,
    "\u2581Britain": 6818,
    "\u2581figures": 6819,
    "stract": 6820,
    "\u2581Resp": 6821,
    "\u2581Pak": 6822,
    "\u2581assets": 6823,
    "\u2581Inn": 6824,
    "\u2581scholars": 6825,
    "\u2581choices": 6826,
    "Serv": 6827,
    "eld": 6828,
    "\u2581infrastructure": 6829,
    "\u2581align": 6830,
    "\u0434\u0443": 6831,
    "\u2581Cost": 6832,
    "\u2581extended": 6833,
    "\u2581Fair": 6834,
    "pack": 6835,
    "\u2581Scot": 6836,
    "\u2581Mid": 6837,
    "\u2581depending": 6838,
    "\u2581decor": 6839,
    "\u2581root": 6840,
    "\u2581Southern": 6841,
    "\u2581native": 6842,
    "rible": 6843,
    "\u2581Ireland": 6844,
    "\u2581domain": 6845,
    "ULL": 6846,
    "\u2581procedure": 6847,
    "Item": 6848,
    "VD": 6849,
    "\u2581assume": 6850,
    "\u2581happening": 6851,
    "\u2581Tags": 6852,
    "\u2581\u043d\u0435": 6853,
    "ben": 6854,
    "}$.": 6855,
    "\u0430\u043d": 6856,
    "\u2581\u0411": 6857,
    "leq": 6858,
    "\u2581edition": 6859,
    "\u2581domestic": 6860,
    "\u2581renew": 6861,
    "\u2581boys": 6862,
    "\u2581vo": 6863,
    "oking": 6864,
    "\u2581tor": 6865,
    "\u2581III": 6866,
    "\u2581receiving": 6867,
    "\u2581fly": 6868,
    "\u2581repair": 6869,
    "}$,": 6870,
    "\u2581Win": 6871,
    "\u2581Still": 6872,
    "\u2581FR": 6873,
    "icken": 6874,
    "\u2581license": 6875,
    "\u2581Key": 6876,
    "DE": 6877,
    "^\\": 6878,
    "ista": 6879,
    "\u2581relative": 6880,
    "\u2581execut": 6881,
    "!\u201d": 6882,
    "rho": 6883,
    "\u2581depth": 6884,
    "\u2581subs": 6885,
    "\u2581cooper": 6886,
    "}(\\": 6887,
    ".\u2019": 6888,
    "\u2581authors": 6889,
    "Comp": 6890,
    "\u2581bigger": 6891,
    "\u2581Bush": 6892,
    "\u2581houses": 6893,
    "\u2581Cur": 6894,
    "connect": 6895,
    "\u2581decade": 6896,
    "\u2581Word": 6897,
    "\u2581};": 6898,
    "merce": 6899,
    "\u2581\u0420": 6900,
    "\u2581highlight": 6901,
    "\u2581Italian": 6902,
    "\u2581updated": 6903,
    "\u2581roof": 6904,
    "\u2581equival": 6905,
    "ifer": 6906,
    "\u2581anywhere": 6907,
    "oral": 6908,
    "ogy": 6909,
    "\u2581spoke": 6910,
    "\u2581Chair": 6911,
    "lishing": 6912,
    "\u2581assign": 6913,
    "\u2581prepare": 6914,
    "\u2581favour": 6915,
    "aron": 6916,
    "\u2581museum": 6917,
    "\u2581delivered": 6918,
    "\u2581Stan": 6919,
    "\u2581Live": 6920,
    "\u2581subsc": 6921,
    "\u2581persons": 6922,
    "\u2581worst": 6923,
    "\u2581Sign": 6924,
    "ito": 6925,
    "\u2581solar": 6926,
    "\u2581Civil": 6927,
    "\u00e1n": 6928,
    "\u2581register": 6929,
    "\u2581Creat": 6930,
    "((": 6931,
    "\u2581chain": 6932,
    "Path": 6933,
    "\u2581ju": 6934,
    "\u2581Kim": 6935,
    "\u2581Keep": 6936,
    "illy": 6937,
    "\u2581candidates": 6938,
    "ribe": 6939,
    "\u2581provider": 6940,
    "abeth": 6941,
    "\u2581Hy": 6942,
    "\u2581Kenn": 6943,
    "\u2581faster": 6944,
    "arrant": 6945,
    "\u2581vast": 6946,
    "asters": 6947,
    "\u2581Cle": 6948,
    "\u2581Executive": 6949,
    "\u2581originally": 6950,
    "bridge": 6951,
    "width": 6952,
    "\u2581plot": 6953,
    "\u2581extent": 6954,
    "title": 6955,
    "$-": 6956,
    "\u00f6r": 6957,
    "draw": 6958,
    "ira": 6959,
    "appy": 6960,
    "ographic": 6961,
    "eries": 6962,
    "\u2581external": 6963,
    "\u2581guitar": 6964,
    "\u2581hate": 6965,
    "resents": 6966,
    "\u2581effectively": 6967,
    "\u2581carbon": 6968,
    "vec": 6969,
    "apes": 6970,
    "\u2581Matt": 6971,
    "war": 6972,
    "\u2581~": 6973,
    "\u2581directed": 6974,
    "\u2581referred": 6975,
    "cons": 6976,
    "\u2581victory": 6977,
    "\u2581respectively": 6978,
    "\u2581teen": 6979,
    "\u2581Fun": 6980,
    "iger": 6981,
    "irms": 6982,
    "\u2581Trust": 6983,
    "Com": 6984,
    "\u2581exists": 6985,
    "\u2581Awards": 6986,
    "\u2581nob": 6987,
    "\u2581([": 6988,
    "option": 6989,
    "\u2581cro": 6990,
    "How": 6991,
    "partial": 6992,
    "\u2581Dar": 6993,
    "\u2581Turn": 6994,
    "\u2581Michigan": 6995,
    "image": 6996,
    "\u2581intent": 6997,
    "\u2581surprise": 6998,
    "spec": 6999,
    "\u2581yesterday": 7000,
    "pat": 7001,
    "\u2581Contin": 7002,
    "\u2581SE": 7003,
    "\u2581ben": 7004,
    "\u2581phen": 7005,
    "\u2581Students": 7006,
    "\u2581swim": 7007,
    "you": 7008,
    "TC": 7009,
    "\u2581Retrieved": 7010,
    "secut": 7011,
    "ulf": 7012,
    "\u2581Sus": 7013,
    "\u2581cycle": 7014,
    "\u2581Brook": 7015,
    "\u2581sick": 7016,
    "\u0442\u0435\u0433\u043e": 7017,
    "\u2581Hom": 7018,
    "grade": 7019,
    "\u2581retire": 7020,
    "ells": 7021,
    "\u2581appeal": 7022,
    "born": 7023,
    "\u2581enable": 7024,
    "\u2581Code": 7025,
    "\u2581Hope": 7026,
    "\u2581zero": 7027,
    "\u2581behavi": 7028,
    "\u2581possibility": 7029,
    "Rep": 7030,
    "\u2581moments": 7031,
    "\u2581DC": 7032,
    "\u2581ped": 7033,
    "\u00e9n": 7034,
    "Class": 7035,
    "ptions": 7036,
    "nger": 7037,
    "\u2581Ohio": 7038,
    "\u2581statements": 7039,
    "redit": 7040,
    "\u2581Les": 7041,
    "\u2581participate": 7042,
    "\u2581Term": 7043,
    "\u2581assessment": 7044,
    "\u2581para": 7045,
    "ylv": 7046,
    "\u2581twenty": 7047,
    "\u2581delay": 7048,
    "\u2581Sports": 7049,
    "\u2581Hard": 7050,
    "she": 7051,
    "\u2581acid": 7052,
    "athan": 7053,
    "\u2581MP": 7054,
    "\u2581grown": 7055,
    "\u2581accomp": 7056,
    "\u2581replace": 7057,
    "\u2581Figure": 7058,
    "zil": 7059,
    "\u2581Tem": 7060,
    "\u2581Ray": 7061,
    "\u2581Pacific": 7062,
    "iest": 7063,
    "\u2581Comments": 7064,
    "\u2581millions": 7065,
    "\u2581regulations": 7066,
    "\u2581suc": 7067,
    "\u2581width": 7068,
    "\u2581ein": 7069,
    "\u2581negoti": 7070,
    "\u2581AL": 7071,
    "\u2581compens": 7072,
    "\u2581bodies": 7073,
    "\u2581(\"": 7074,
    "args": 7075,
    "\u2581kinds": 7076,
    "\u2581surrounding": 7077,
    "bra": 7078,
    "\u2581resulting": 7079,
    "child": 7080,
    "\u2581True": 7081,
    "aine": 7082,
    "\u2581underst": 7083,
    "ircraft": 7084,
    "escription": 7085,
    "hus": 7086,
    "ige": 7087,
    "ima": 7088,
    "\u2581missed": 7089,
    "\u2581sole": 7090,
    "adow": 7091,
    "\u2581Such": 7092,
    "anche": 7093,
    "\u2581Spirit": 7094,
    "\u2581shooting": 7095,
    "\u2581consistent": 7096,
    "\u0440\u0456": 7097,
    "teen": 7098,
    "\u2581boat": 7099,
    "vol": 7100,
    "\u2581estimated": 7101,
    "\u2581league": 7102,
    "\u2581storm": 7103,
    "\u2581networks": 7104,
    "aland": 7105,
    "bed": 7106,
    "uce": 7107,
    "append": 7108,
    "erd": 7109,
    "\u2581dogs": 7110,
    "\u2581Tay": 7111,
    "\u2581Sometimes": 7112,
    "CD": 7113,
    "\u2581hell": 7114,
    "\u2581answers": 7115,
    "\u2581enhance": 7116,
    "Log": 7117,
    "\u2581Meet": 7118,
    "\u2581Bern": 7119,
    "\u2581banks": 7120,
    "\u2581Ca": 7121,
    "las": 7122,
    "\u2581trig": 7123,
    "ido": 7124,
    "\u2581Fred": 7125,
    "\u2581confirm": 7126,
    "\u2581existence": 7127,
    "\u2581\u041a\u0430\u0442\u0435\u0433\u043e": 7128,
    "\u2581colors": 7129,
    "\u2581comprehensive": 7130,
    "\u2581household": 7131,
    "bro": 7132,
    "\u2581experiment": 7133,
    "\u2581degrees": 7134,
    "\u2581Govern": 7135,
    "\u00e1s": 7136,
    "md": 7137,
    ">\r": 7138,
    "\u2581literature": 7139,
    "\u2581Kn": 7140,
    "\u2581MA": 7141,
    "yers": 7142,
    "itled": 7143,
    "\u2581Girl": 7144,
    "TA": 7145,
    "\u2581remark": 7146,
    "\u2581evolution": 7147,
    "\u2581ca": 7148,
    "\u2019.": 7149,
    "}{\\": 7150,
    "\u2581intelligence": 7151,
    "\u2581anx": 7152,
    "\u2581implementation": 7153,
    "ican": 7154,
    "\u2581appreciate": 7155,
    "utation": 7156,
    "\u2581stands": 7157,
    "\u2581earned": 7158,
    "\u2581horse": 7159,
    "\u2581represents": 7160,
    "\u2581menu": 7161,
    "\u2581extensive": 7162,
    "\u2581Mult": 7163,
    "\u2581advertising": 7164,
    "\u2581fo": 7165,
    "\u2581picked": 7166,
    "reens": 7167,
    "\u2581valuable": 7168,
    "\u2581{\r": 7169,
    "check": 7170,
    "\u2581->": 7171,
    "\u2581Wat": 7172,
    "vo": 7173,
    "\u2581stone": 7174,
    "\u2581Expl": 7175,
    "\u2581Sher": 7176,
    "\u2581realized": 7177,
    "\u2581Perhaps": 7178,
    "\u2581websites": 7179,
    "\u2581\u0414": 7180,
    "\u2581Holy": 7181,
    "\u2581Unf": 7182,
    "\u2581confirmed": 7183,
    "\u2581urban": 7184,
    "\u2581awesome": 7185,
    "aph": 7186,
    "ync": 7187,
    "\u2581privacy": 7188,
    "\u2581Histor": 7189,
    "\u0435\u0440\u0435": 7190,
    "\u2581Prem": 7191,
    "\u2581orders": 7192,
    "\u2581Force": 7193,
    "\u2581fasc": 7194,
    "\u2581Never": 7195,
    "\u2581vary": 7196,
    "\u2581Eliz": 7197,
    "\u2581Carl": 7198,
    "\u2581remained": 7199,
    "ether": 7200,
    "\u2581featured": 7201,
    "weight": 7202,
    "????": 7203,
    "utch": 7204,
    "non": 7205,
    "\u2581Though": 7206,
    "\u2581Saf": 7207,
    "\u2581serves": 7208,
    "\u2581Santa": 7209,
    "\u2581Video": 7210,
    "\u2581worldwide": 7211,
    "\u2581Mrs": 7212,
    ",'": 7213,
    "\u2581Blog": 7214,
    "\u2581taxes": 7215,
    "\u2581Coast": 7216,
    "HS": 7217,
    "\u2581frequently": 7218,
    "\u2581talent": 7219,
    "vy": 7220,
    "\u2581capable": 7221,
    "\u2581mand": 7222,
    "gent": 7223,
    "\u2581audio": 7224,
    "\u0445\u043e": 7225,
    "\u2581incident": 7226,
    "\u2581Digital": 7227,
    "\u2581plastic": 7228,
    "ALL": 7229,
    "\u2581\u0444": 7230,
    "\u2581murder": 7231,
    "\u2581hall": 7232,
    "\u2581Ron": 7233,
    "\u2581turning": 7234,
    "\u2581das": 7235,
    "\u2581instrument": 7236,
    "open": 7237,
    "\u2581Ram": 7238,
    "\u2581Control": 7239,
    "\u2581Conf": 7240,
    "\u2581nurs": 7241,
    "\u2581Labor": 7242,
    "\u2581parking": 7243,
    "\u2581Dun": 7244,
    "\u2581increases": 7245,
    "\u2581poet": 7246,
    "\u2581arts": 7247,
    "ela": 7248,
    "\u2581fruit": 7249,
    "uan": 7250,
    "umin": 7251,
    "\u2581surprised": 7252,
    "\u2581\\\\": 7253,
    "flow": 7254,
    "\u2581debut": 7255,
    "FC": 7256,
    "\u2581ingred": 7257,
    "\u2581bon": 7258,
    "\u2581recording": 7259,
    "\u2581export": 7260,
    "\u2581east": 7261,
    "\u2581installed": 7262,
    "Not": 7263,
    "\u2581procedures": 7264,
    "\u2581agents": 7265,
    "\u2581typical": 7266,
    "They": 7267,
    "\u2581Hun": 7268,
    "\u2581Tri": 7269,
    "\u2581recovery": 7270,
    "\u2581define": 7271,
    "\u2581walls": 7272,
    "Info": 7273,
    "\u2581meetings": 7274,
    "\u2581Point": 7275,
    "\u2581basket": 7276,
    "owe": 7277,
    "Event": 7278,
    "\u2581mel": 7279,
    "\u2581wave": 7280,
    "\u2581Democratic": 7281,
    "ila": 7282,
    "lected": 7283,
    "\u2581Current": 7284,
    "\u2581messages": 7285,
    "\u2581Chapter": 7286,
    "\u2581magazine": 7287,
    "\u2581unable": 7288,
    "\u2581regions": 7289,
    "\u2581succeed": 7290,
    "anna": 7291,
    "sem": 7292,
    "ghan": 7293,
    "\u2581fantastic": 7294,
    "\u2581NC": 7295,
    "Of": 7296,
    "\u2581Rod": 7297,
    "omega": 7298,
    "\u2581seriously": 7299,
    "\u2581diverse": 7300,
    "\u2581spin": 7301,
    "eck": 7302,
    "\u2581stood": 7303,
    "\u2581protein": 7304,
    "\u2581disappoint": 7305,
    "\u2581Sir": 7306,
    "\u2581Supreme": 7307,
    "\u2581passing": 7308,
    "Phone": 7309,
    "\u2581letters": 7310,
    "gener": 7311,
    "\u2581shift": 7312,
    "Up": 7313,
    "acter": 7314,
    "\u2581principles": 7315,
    "\u2581Access": 7316,
    "amber": 7317,
    "ensus": 7318,
    "\u2581interface": 7319,
    "unicip": 7320,
    "\u0435\u0442": 7321,
    "\u2581investors": 7322,
    "\u2581noticed": 7323,
    "\u2581Ap": 7324,
    "\u2581excess": 7325,
    "hemat": 7326,
    "endar": 7327,
    "\u2581entr": 7328,
    "\u2581medicine": 7329,
    "\u2581habit": 7330,
    "PM": 7331,
    "\u2581mixed": 7332,
    "\u2581Mean": 7333,
    "star": 7334,
    "\u2581pra": 7335,
    "\u2581Pakistan": 7336,
    "\u2581topics": 7337,
    "\u2581Father": 7338,
    "\u2581feedback": 7339,
    "\u2581sugar": 7340,
    "\u2581algorith": 7341,
    "\u2581Ur": 7342,
    "\u2581legislation": 7343,
    "\u2581Sea": 7344,
    "\u2581contemporary": 7345,
    "\u2581Imp": 7346,
    "\u2581boost": 7347,
    "\u2581accurate": 7348,
    "\u2581founded": 7349,
    "\u0433\u0430": 7350,
    "\u2581risks": 7351,
    "\u2581trend": 7352,
    "\u2581acts": 7353,
    "\u2581Games": 7354,
    "\u2581tail": 7355,
    "\u2581sight": 7356,
    "\u2581closely": 7357,
    "\u2581guest": 7358,
    "\u2581Wild": 7359,
    "model": 7360,
    "acc": 7361,
    "estyle": 7362,
    "\u2581suggests": 7363,
    "\u2581liked": 7364,
    "apped": 7365,
    "\u2581vul": 7366,
    "\u2581Assist": 7367,
    "\u2581elected": 7368,
    "\u2581\u0440\u043e": 7369,
    "onto": 7370,
    "vas": 7371,
    "lay": 7372,
    "\u2581Far": 7373,
    "\u2581alcohol": 7374,
    "\u2581patterns": 7375,
    "With": 7376,
    "foot": 7377,
    "asts": 7378,
    "vi": 7379,
    "\u2581winner": 7380,
    "adel": 7381,
    "\u2581settings": 7382,
    "\u2581generated": 7383,
    "\u2581Bon": 7384,
    "TR": 7385,
    "\u2581Quest": 7386,
    "\u2581Having": 7387,
    "\u2581elig": 7388,
    "owa": 7389,
    "\u2581expressed": 7390,
    "\u2581plug": 7391,
    "\u2581collected": 7392,
    "roller": 7393,
    "\u2581reaction": 7394,
    "onic": 7395,
    "\u2581Harr": 7396,
    "\u2581acting": 7397,
    "bsite": 7398,
    "\u2581parameters": 7399,
    "oding": 7400,
    "\u2581latter": 7401,
    "\u2581intellect": 7402,
    "\u2581younger": 7403,
    "law": 7404,
    "oga": 7405,
    "\u2581Support": 7406,
    "\u2581hurt": 7407,
    "\u2581Jr": 7408,
    "\u2581anyway": 7409,
    "\u2581steel": 7410,
    "\u2581lunch": 7411,
    "\u2581Ent": 7412,
    "\u2581competitive": 7413,
    "\u2581regularly": 7414,
    "ocking": 7415,
    "PC": 7416,
    "\u2581Financial": 7417,
    "\u2581successfully": 7418,
    "\u2581Kingdom": 7419,
    "aints": 7420,
    "inent": 7421,
    "AV": 7422,
    "\u043f\u0430": 7423,
    "\u2581grade": 7424,
    "\u2581reporting": 7425,
    "\u2581profit": 7426,
    "rends": 7427,
    "\u2581professor": 7428,
    "\u2581innovative": 7429,
    "\u2581obviously": 7430,
    "bel": 7431,
    "\u2581Georgia": 7432,
    "\u2581accord": 7433,
    "\u2581empty": 7434,
    "\u2581cos": 7435,
    "\u2581Reply": 7436,
    "\u2581covers": 7437,
    "\u2581linked": 7438,
    "front": 7439,
    "\u2581funny": 7440,
    "tra": 7441,
    "\u2581colle": 7442,
    "nie": 7443,
    "agues": 7444,
    "\u2581Space": 7445,
    "\u2581facing": 7446,
    "\u2581walked": 7447,
    "\u2581situations": 7448,
    "\u2581Local": 7449,
    "Go": 7450,
    "\u2581icon": 7451,
    "\u2581structures": 7452,
    "\u2581visiting": 7453,
    "\u2581Queen": 7454,
    "\u2581fairly": 7455,
    "\u00e9t": 7456,
    "\u2581warn": 7457,
    "\u2581ordered": 7458,
    "eding": 7459,
    "\u2581laugh": 7460,
    "TE": 7461,
    "\u2581filter": 7462,
    "ls": 7463,
    "\u2581Tax": 7464,
    "\u2581Medicine": 7465,
    "obs": 7466,
    "\u2581Comput": 7467,
    "\u2581attorney": 7468,
    "\u2581poly": 7469,
    "\u2581humans": 7470,
    "AND": 7471,
    "\u2581inspect": 7472,
    "edu": 7473,
    "\u2581Lew": 7474,
    "\u2581providers": 7475,
    "\u2581ultimately": 7476,
    "\u2581windows": 7477,
    "ournament": 7478,
    "\u2581+=": 7479,
    "ampion": 7480,
    "\u2581graduate": 7481,
    "uz": 7482,
    "\u043f\u0438": 7483,
    "ints": 7484,
    "\u2581Saint": 7485,
    "\u2581reader": 7486,
    "\u2581losing": 7487,
    "\u2581suspect": 7488,
    "IST": 7489,
    "oz": 7490,
    "\u2581infect": 7491,
    "oren": 7492,
    "izz": 7493,
    "\u2581expertise": 7494,
    "\u2581isol": 7495,
    "\u2581somewhat": 7496,
    "\u2581wearing": 7497,
    "\u2581flood": 7498,
    "\u2581Pot": 7499,
    "enger": 7500,
    "ulating": 7501,
    "\u2581alleged": 7502,
    "\u2581Palest": 7503,
    "tilde": 7504,
    "\u2581perfectly": 7505,
    "\u2581efficiency": 7506,
    "\u2581discipl": 7507,
    "\u2581Site": 7508,
    "\u2581weapons": 7509,
    "\u2581presentation": 7510,
    "\u2581generate": 7511,
    "\u2581repeated": 7512,
    "ilton": 7513,
    "\u0441\u043e": 7514,
    "\u2581scientists": 7515,
    "\u2581claimed": 7516,
    "\u2581neither": 7517,
    "\u2581talks": 7518,
    "\u2581lux": 7519,
    "\u2581folks": 7520,
    "\u2581\u00a7": 7521,
    "American": 7522,
    "\u043d\u0438\u0435": 7523,
    "rency": 7524,
    "\u2581largely": 7525,
    "inson": 7526,
    "db": 7527,
    "uality": 7528,
    "\u2581evol": 7529,
    "\u2581plate": 7530,
    "chi": 7531,
    "lets": 7532,
    "\u2581CON": 7533,
    "\u2581exception": 7534,
    "ennis": 7535,
    "\u2581Univers": 7536,
    "\u2581writers": 7537,
    "\u2581manufacturing": 7538,
    "\u2581awareness": 7539,
    "annels": 7540,
    "endment": 7541,
    "\u2581gender": 7542,
    "\u2581Bir": 7543,
    "\u2019,": 7544,
    "actory": 7545,
    "\u2581Bal": 7546,
    "\u2581formal": 7547,
    "omy": 7548,
    "\u2581colon": 7549,
    "\u2581Circ": 7550,
    "****************": 7551,
    "oval": 7552,
    "\u2581recognize": 7553,
    "\u2581counsel": 7554,
    "\u2581Disney": 7555,
    "\u2581Engineering": 7556,
    "\u2581historic": 7557,
    "\u2581personally": 7558,
    "Int": 7559,
    "\u2581invent": 7560,
    "ename": 7561,
    "\u2581Mill": 7562,
    "\u2581meat": 7563,
    "\u2581dropped": 7564,
    "\u2581perm": 7565,
    "\u2581ongoing": 7566,
    "\u2581Unfortunately": 7567,
    "\u2581mainly": 7568,
    "\u2581evil": 7569,
    "unning": 7570,
    "\u2581Jenn": 7571,
    "\u2581Psych": 7572,
    "\u2581primarily": 7573,
    "\u2581Sym": 7574,
    "\u2581agric": 7575,
    "\u2581pu": 7576,
    "format": 7577,
    "\u2581division": 7578,
    "\u2581Link": 7579,
    "\u2581Northern": 7580,
    "\u2581attended": 7581,
    "lyn": 7582,
    "\u2581scheduled": 7583,
    "\u2581Story": 7584,
    "oven": 7585,
    "IE": 7586,
    "\u2581automatically": 7587,
    "rient": 7588,
    "\u2581react": 7589,
    "\u2581struggle": 7590,
    "dir": 7591,
    "rell": 7592,
    "rat": 7593,
    "\u2581trained": 7594,
    "\u2581constantly": 7595,
    "rovers": 7596,
    "\u2581Image": 7597,
    "){": 7598,
    "\u2581suffering": 7599,
    "\u2581tiss": 7600,
    "\u2581purchased": 7601,
    "\u2581IM": 7602,
    "\u2581Lind": 7603,
    "uling": 7604,
    "struct": 7605,
    "\u2581climb": 7606,
    "bury": 7607,
    "SC": 7608,
    "umes": 7609,
    "des": 7610,
    "\u2581Fox": 7611,
    "\u2581widely": 7612,
    "awn": 7613,
    "ova": 7614,
    "\u2581Greek": 7615,
    "\u2581Manager": 7616,
    "\u2581painting": 7617,
    "anz": 7618,
    "\u2581exceed": 7619,
    "\u2581neut": 7620,
    "\u2581relation": 7621,
    "enda": 7622,
    "roph": 7623,
    "At": 7624,
    "\u2581remote": 7625,
    "\u2581listening": 7626,
    "\u2581achieved": 7627,
    "\u2581prompt": 7628,
    "\u2581pulled": 7629,
    "\u2581duty": 7630,
    "ifies": 7631,
    "\u2581doors": 7632,
    "\u2581vital": 7633,
    "\u2581stim": 7634,
    "\u2581Contact": 7635,
    "\u2581increasingly": 7636,
    "\u2581Him": 7637,
    "\u2581opposite": 7638,
    "\u2581node": 7639,
    "\u2581partnership": 7640,
    "\u2581sky": 7641,
    "\u2581spaces": 7642,
    "\u2581Kent": 7643,
    "\u2581Books": 7644,
    "\u2581cerem": 7645,
    "inity": 7646,
    "\u2581${\\": 7647,
    "\u2581Nick": 7648,
    "\u2581streets": 7649,
    "\u2581somewhere": 7650,
    "\u2581Search": 7651,
    "\u2581Conc": 7652,
    "mann": 7653,
    "\u2581sequence": 7654,
    "\u2581\u043f\u0440\u0438": 7655,
    "\u2581relief": 7656,
    "\u2581///": 7657,
    "\u2581council": 7658,
    "wa": 7659,
    "\u2581tickets": 7660,
    "Index": 7661,
    "iversary": 7662,
    "ificate": 7663,
    "\u2581occurred": 7664,
    "\u2581payments": 7665,
    "\u2581Ren": 7666,
    "\u2581necessarily": 7667,
    "dict": 7668,
    "\u2581Order": 7669,
    "\u2581Ryan": 7670,
    "So": 7671,
    "\u2581flo": 7672,
    "\u2581Zealand": 7673,
    "\u2581suitable": 7674,
    "\u2581Should": 7675,
    "\u2581Korea": 7676,
    "[]": 7677,
    "\u2581programme": 7678,
    "\u2581android": 7679,
    "\u2581presc": 7680,
    "\u2581mini": 7681,
    "\u2581Stephen": 7682,
    "\u2581replaced": 7683,
    "gas": 7684,
    "\u2581SH": 7685,
    "\u2581Tal": 7686,
    "pir": 7687,
    "\u2581SC": 7688,
    "\u2581trading": 7689,
    "\u2581Adam": 7690,
    "iti": 7691,
    "acking": 7692,
    "adium": 7693,
    "\u2581Jersey": 7694,
    "\u2581expansion": 7695,
    "\u2581\u043e\u0442": 7696,
    "\u2581Irish": 7697,
    "\u2581keeps": 7698,
    "iders": 7699,
    "\u2581Clinton": 7700,
    "define": 7701,
    "\u2581lies": 7702,
    "\u2581zone": 7703,
    "\u2581army": 7704,
    "\u2581colour": 7705,
    "\u2581roles": 7706,
    "inois": 7707,
    "!)": 7708,
    "\u2581CR": 7709,
    "anged": 7710,
    "\u2581athlet": 7711,
    "\u2581explan": 7712,
    "\u2581narrow": 7713,
    "\u2581Ford": 7714,
    "\u2581Building": 7715,
    "\u2026.": 7716,
    "isa": 7717,
    "\u2581comparison": 7718,
    "|\\": 7719,
    "\u2581GM": 7720,
    "ucks": 7721,
    "\u2581supports": 7722,
    "base": 7723,
    "\u2581carefully": 7724,
    "\u2581discount": 7725,
    "\u2581slowly": 7726,
    "\u2581bare": 7727,
    "\u2581aircraft": 7728,
    "\u2581till": 7729,
    "last": 7730,
    "\u2581Radio": 7731,
    "\u2581Eth": 7732,
    "\u2581exposure": 7733,
    "ersion": 7734,
    "\u2581Taylor": 7735,
    "\u2581finds": 7736,
    "\u2581Perform": 7737,
    "\u2581Kat": 7738,
    "\u2581tea": 7739,
    "\u2581Cas": 7740,
    "\u2581Ox": 7741,
    "\u2581och": 7742,
    "\u2581Common": 7743,
    "\u2581plane": 7744,
    "\u2581Administration": 7745,
    "\u2581Vill": 7746,
    "\u2581organized": 7747,
    "\u2581victims": 7748,
    "thew": 7749,
    "User": 7750,
    "\u2581union": 7751,
    "Size": 7752,
    "\u2581Spain": 7753,
    "\u2581Elizabeth": 7754,
    "\u2581\u043e\u0431": 7755,
    "BN": 7756,
    "\u2581Soft": 7757,
    "\u2581noise": 7758,
    "\u2581()": 7759,
    "\u2581tasks": 7760,
    "\u2581Colorado": 7761,
    "\u2581bear": 7762,
    "icted": 7763,
    "\u2581foundation": 7764,
    "agen": 7765,
    "dim": 7766,
    "\u2581clar": 7767,
    "\u2581Broad": 7768,
    "\u2581scheme": 7769,
    "\u2581Kh": 7770,
    "\u2581represented": 7771,
    "uous": 7772,
    "\u2581Mu": 7773,
    "\u2581wur": 7774,
    "\u2581Ref": 7775,
    "\u2581powers": 7776,
    "ao": 7777,
    "weet": 7778,
    "\").": 7779,
    "\u2581Dub": 7780,
    "\u2581bridge": 7781,
    "\u2581entertainment": 7782,
    "holders": 7783,
    "mega": 7784,
    "Test": 7785,
    "\u2581immediate": 7786,
    "\u2581incredible": 7787,
    "\u2581frag": 7788,
    "\u2581Brazil": 7789,
    "\u2581studied": 7790,
    "\u2581q": 7791,
    "stone": 7792,
    "\u2581believes": 7793,
    "\u2581Was": 7794,
    "\u2581tack": 7795,
    "\u2581Gi": 7796,
    "\u2581innovation": 7797,
    "\u2581Daily": 7798,
    "\u2581revolution": 7799,
    "\u2581Sep": 7800,
    "\u2581inner": 7801,
    "\u2581conscious": 7802,
    "\u2581\u0432\u043e": 7803,
    "When": 7804,
    "\u00e9gor": 7805,
    "\u2581mountain": 7806,
    "\u2581fundamental": 7807,
    "\u2581hur": 7808,
    "ruption": 7809,
    "cs": 7810,
    "\u2581neck": 7811,
    "\u2581\u0441\u0435": 7812,
    "\u2581als": 7813,
    "\u2581coal": 7814,
    "\u2581Las": 7815,
    "oured": 7816,
    "core": 7817,
    "\u2581Wel": 7818,
    "anguages": 7819,
    "anes": 7820,
    "\u2581);": 7821,
    "\u2581Event": 7822,
    "create": 7823,
    "issions": 7824,
    "lights": 7825,
    "TV": 7826,
    "\u2581Android": 7827,
    "\u2581Date": 7828,
    "etch": 7829,
    "\u2581basically": 7830,
    "\u2581dealing": 7831,
    "\u2581Article": 7832,
    "\u2581improvement": 7833,
    "\u2581Fac": 7834,
    "\u2581dies": 7835,
    "\u2581Guide": 7836,
    "\u2581designs": 7837,
    "\u2581liquid": 7838,
    "\u00e8re": 7839,
    "\u2581\u0435": 7840,
    "\u2581feelings": 7841,
    "\u2581diam": 7842,
    "ischen": 7843,
    "\u2581Ms": 7844,
    "\u2581lovely": 7845,
    "\u2581depends": 7846,
    "\u00e9gorie": 7847,
    "\u2581warrant": 7848,
    "\u2581technique": 7849,
    "\u2581\u0442\u0430": 7850,
    "\u2581ans": 7851,
    "VER": 7852,
    "\u2581echo": 7853,
    "profit": 7854,
    "range": 7855,
    "\u2581contest": 7856,
    "cor": 7857,
    "\u2581elev": 7858,
    "aci\u00f3n": 7859,
    "ez": 7860,
    "\u2581Put": 7861,
    "\u2581skill": 7862,
    "Map": 7863,
    "RL": 7864,
    "ceived": 7865,
    "rics": 7866,
    "ifier": 7867,
    "\u2581restaurants": 7868,
    "\u2581surf": 7869,
    "gov": 7870,
    "\u2581cream": 7871,
    "OK": 7872,
    "\u2581catal": 7873,
    "\u2581apparently": 7874,
    "wan": 7875,
    "\u2581preserv": 7876,
    "\u2581Ter": 7877,
    "\u2581nearby": 7878,
    "\u2581split": 7879,
    "\u2581Dam": 7880,
    "\u2581monthly": 7881,
    "ishop": 7882,
    "ilipp": 7883,
    "\u2581understood": 7884,
    "\u2581:=": 7885,
    "\u2581engage": 7886,
    "\u2581visited": 7887,
    "\u2581Source": 7888,
    "%.": 7889,
    "\u2581challenging": 7890,
    "\u2581truck": 7891,
    "\u2581facilit": 7892,
    "Click": 7893,
    "\u2581drivers": 7894,
    "\u2581Rog": 7895,
    "\u2581hidden": 7896,
    "\u2581affili": 7897,
    "\u043b\u0456": 7898,
    "iously": 7899,
    "ologist": 7900,
    "\u2581Bul": 7901,
    "\u2581updates": 7902,
    "\u2581r\u00e9": 7903,
    "\u2581Method": 7904,
    "requ": 7905,
    "\u2581promise": 7906,
    "Node": 7907,
    "\u2581informed": 7908,
    "\u2581saved": 7909,
    "\u2581Prom": 7910,
    "lib": 7911,
    "RS": 7912,
    "pg": 7913,
    "ector": 7914,
    "duction": 7915,
    "fa": 7916,
    "\u2581percentage": 7917,
    "arters": 7918,
    "\u2581Categor": 7919,
    "\u2581battery": 7920,
    "\u2581atmosphere": 7921,
    "imental": 7922,
    "\u2581communications": 7923,
    "\u2581Theatre": 7924,
    "\u2581cleaning": 7925,
    "\u2581watched": 7926,
    "\u2581bat": 7927,
    "\u2581Action": 7928,
    "onder": 7929,
    "\u2581delight": 7930,
    "\u2581jur": 7931,
    "oute": 7932,
    "\u2581Being": 7933,
    "\u2581Cat\u00e9gorie": 7934,
    "\u2581Marg": 7935,
    "Request": 7936,
    "\u2581performing": 7937,
    "\u2581hasn": 7938,
    "\u2581contribute": 7939,
    "\u2581Clin": 7940,
    "\u2581fulf": 7941,
    "\u2581thousand": 7942,
    "erk": 7943,
    "\u2581minister": 7944,
    "\u2581Friend": 7945,
    "\u2581faculty": 7946,
    "iler": 7947,
    "\u2581solve": 7948,
    "\u2581architecture": 7949,
    "\u2581Room": 7950,
    "\u2581actor": 7951,
    "\u2581Fall": 7952,
    "\u2581qui": 7953,
    "\u2581framework": 7954,
    "\u2581papers": 7955,
    "\u2581Pract": 7956,
    "\u2581upcoming": 7957,
    "uting": 7958,
    "aud": 7959,
    "\u2581awarded": 7960,
    "\u2581/*": 7961,
    "\u2581Hollywood": 7962,
    "\u2581ED": 7963,
    "\u2581Foot": 7964,
    "\u2581Bad": 7965,
    "Delta": 7966,
    "\u2581Anth": 7967,
    "\u2581Emp": 7968,
    "\u2581strategic": 7969,
    "\u043d\u0443": 7970,
    "abs": 7971,
    "\u2581cutting": 7972,
    "\u2581riv": 7973,
    "\u2581engaged": 7974,
    "\u2581lights": 7975,
    "aturally": 7976,
    "hire": 7977,
    "\u2581ages": 7978,
    "\u2581permanent": 7979,
    "\u2581entreprene": 7980,
    "\u2581Rose": 7981,
    "\u2581Davis": 7982,
    "urse": 7983,
    "icide": 7984,
    "\u2581Hou": 7985,
    "\u2581reduction": 7986,
    "\u2581hoping": 7987,
    "\u2581Ariz": 7988,
    "\u2581equivalent": 7989,
    "\u2581Donald": 7990,
    "\u2581collaboration": 7991,
    "\u2581Brian": 7992,
    "earing": 7993,
    "\u2581Jean": 7994,
    "\u2581Account": 7995,
    "\u2581crazy": 7996,
    "\u2581dates": 7997,
    "\u2581Prime": 7998,
    "\u2581approval": 7999,
    "\u2581Viet": 8000,
    "una": 8001,
    "\u2581Swed": 8002,
    "\u2581Cook": 8003,
    "\u2581interior": 8004,
    "\u2581expectations": 8005,
    "\u2581operate": 8006,
    "space": 8007,
    "\u2581Islam": 8008,
    "\u2581licens": 8009,
    "ART": 8010,
    "\u2581landscape": 8011,
    "awa": 8012,
    "\u2581Mir": 8013,
    "\u2581illness": 8014,
    "\u2581Jews": 8015,
    "\u2581moves": 8016,
    "\u2581healthcare": 8017,
    "\u2581twe": 8018,
    "\u2581alive": 8019,
    "\u2581illegal": 8020,
    "\u2581tracks": 8021,
    "\u2581Plus": 8022,
    "\u2581foods": 8023,
    "hist": 8024,
    "\u2581talked": 8025,
    "\u2581submit": 8026,
    "\u2581unknown": 8027,
    "\u2581\u043a\u0430": 8028,
    "\u2581extension": 8029,
    "\u2581Uk": 8030,
    "\u2581wheel": 8031,
    "\u2581tables": 8032,
    "\u2581Anton": 8033,
    "mo": 8034,
    "PE": 8035,
    "\u2581np": 8036,
    "aret": 8037,
    "\u2581Eric": 8038,
    "\u2581Ash": 8039,
    "\u2581Works": 8040,
    "\u2581Has": 8041,
    "\u2581gent": 8042,
    "\u2581impressive": 8043,
    "\u2581fabric": 8044,
    "\u2581principal": 8045,
    "\u2581tiny": 8046,
    "agraph": 8047,
    "\u2581authen": 8048,
    "\u2581brown": 8049,
    "onna": 8050,
    "\u2581Der": 8051,
    "request": 8052,
    "\u2581reward": 8053,
    "\u2581chose": 8054,
    "ailed": 8055,
    "\u2581Sav": 8056,
    "\u2581loans": 8057,
    "\u2581trav": 8058,
    "\u2581/**": 8059,
    "\u2581constit": 8060,
    "\u2581Case": 8061,
    "\u0437\u0430": 8062,
    "\u2581awards": 8063,
    "\u2581Mach": 8064,
    "\u2581Summer": 8065,
    "\u2581reliable": 8066,
    "\u00e4n": 8067,
    "\u2581Cru": 8068,
    "\u2581Ess": 8069,
    "heim": 8070,
    "\u043c\u0443": 8071,
    "ucky": 8072,
    "xx": 8073,
    "\u2581lect": 8074,
    "\u2581iPhone": 8075,
    "Op": 8076,
    "\u2581auf": 8077,
    "\u2581LA": 8078,
    "\u2581Mov": 8079,
    "\u2581Eastern": 8080,
    "\u2581registration": 8081,
    "\u2581appointed": 8082,
    "\u2581resistance": 8083,
    "\u2581milk": 8084,
    "erning": 8085,
    "aa": 8086,
    "\u2581birthday": 8087,
    "\u2581granted": 8088,
    "ados": 8089,
    "\u2581bike": 8090,
    "\u2581limits": 8091,
    "\u2581Ah": 8092,
    "Out": 8093,
    "Comm": 8094,
    "\u2581shouldn": 8095,
    "\u2581explains": 8096,
    "\u2581\u0413": 8097,
    "\u2581Farm": 8098,
    "\u2581vit": 8099,
    "\u2581wal": 8100,
    "\u2581Website": 8101,
    "\u2581ratio": 8102,
    "She": 8103,
    "\u2581Ltd": 8104,
    "\u043b\u0443": 8105,
    "\u2581dynamic": 8106,
    "\u2581rig": 8107,
    "aux": 8108,
    "num": 8109,
    "imp": 8110,
    "\u2581surprising": 8111,
    "\u2581extract": 8112,
    "\u2581publication": 8113,
    "\u2581absor": 8114,
    "\u2581anticip": 8115,
    "plete": 8116,
    "\u2581Nic": 8117,
    "\u2581bool": 8118,
    "\u2581prospect": 8119,
    "\u2581dating": 8120,
    "worth": 8121,
    "\u2581meal": 8122,
    "\u2581recognition": 8123,
    "\u2581heads": 8124,
    "\u2581deals": 8125,
    "\u2581Pen": 8126,
    "\u2581tall": 8127,
    "ounded": 8128,
    "\u2581strict": 8129,
    "\u2581tag": 8130,
    "tle": 8131,
    "\u2581Try": 8132,
    "\u2581enthus": 8133,
    "Do": 8134,
    "\u2581ticket": 8135,
    "\u2581broke": 8136,
    "\u2581Bru": 8137,
    "ogether": 8138,
    "\u2581Rh": 8139,
    "\u2581Mah": 8140,
    "\u2581vert": 8141,
    "\u2581champions": 8142,
    "\u2581invited": 8143,
    "\u2581Name": 8144,
    "\u2581rele": 8145,
    "\u2581corn": 8146,
    "\u2581adopted": 8147,
    "\u2581Illinois": 8148,
    "NS": 8149,
    "\u2581Systems": 8150,
    "\u2581User": 8151,
    "\u2581Brad": 8152,
    "\u2581Field": 8153,
    "\"></": 8154,
    "\u2581contained": 8155,
    "\u2581containing": 8156,
    "angers": 8157,
    "\u2581controlled": 8158,
    "\u2581Wilson": 8159,
    "\u2581insert": 8160,
    "\u2581Cond": 8161,
    "\u2581Sn": 8162,
    "Model": 8163,
    "thon": 8164,
    "plit": 8165,
    "\u2581extreme": 8166,
    "leep": 8167,
    "\u2581teeth": 8168,
    "Wh": 8169,
    "\u2581BE": 8170,
    "\u2581apps": 8171,
    "Bu": 8172,
    "\u2581drawn": 8173,
    "anny": 8174,
    "\u2581vulner": 8175,
    "\u2581bomb": 8176,
    "\u2581Model": 8177,
    "object": 8178,
    "\u2581Heart": 8179,
    "\u2581weren": 8180,
    "\u2581moral": 8181,
    "\u2581featuring": 8182,
    "\u2581Travel": 8183,
    "quad": 8184,
    "\u2581spr": 8185,
    "ashed": 8186,
    "\u2581strange": 8187,
    "\u2581Budd": 8188,
    "\u2581AC": 8189,
    "\u2581convent": 8190,
    "acher": 8191,
    "Context": 8192,
    "gi": 8193,
    "\u2581salt": 8194,
    "ylvania": 8195,
    "\u2581Conserv": 8196,
    "\u2581broadcast": 8197,
    "away": 8198,
    "\u2581Afghan": 8199,
    "\u2581\u041e": 8200,
    "Over": 8201,
    "ocolate": 8202,
    "iser": 8203,
    "\u2581Very": 8204,
    "\u2581variable": 8205,
    "\u2581bread": 8206,
    "\u2581hits": 8207,
    "\u2581PS": 8208,
    "\u2581contribution": 8209,
    "\u2581capture": 8210,
    "uv": 8211,
    "iot": 8212,
    "\u2581nic": 8213,
    "\u2581lock": 8214,
    "udes": 8215,
    "xi": 8216,
    "\u2581EX": 8217,
    "dy": 8218,
    "\u2581clothes": 8219,
    "img": 8220,
    "\u2581scored": 8221,
    "\u2581thin": 8222,
    "\u2581tomorrow": 8223,
    "\u2581phenomen": 8224,
    "\u2581airport": 8225,
    "\u2581pump": 8226,
    "\u2581prime": 8227,
    "True": 8228,
    "\u2581installation": 8229,
    "\u2581Asian": 8230,
    "\u2581outstanding": 8231,
    "\u2581Doug": 8232,
    "\u2581java": 8233,
    "\u2581Treat": 8234,
    "\u2581amounts": 8235,
    "alty": 8236,
    "\u2581tast": 8237,
    "\u2581Think": 8238,
    "dev": 8239,
    "\u2581terr": 8240,
    "\u2581suddenly": 8241,
    "\u2581HD": 8242,
    "alo": 8243,
    "quir": 8244,
    "\u2581Harry": 8245,
    "KE": 8246,
    "\u2581sorry": 8247,
    "Hand": 8248,
    "ERE": 8249,
    "ependent": 8250,
    "\u2581wet": 8251,
    "burgh": 8252,
    "\u2581]": 8253,
    "\u2581sessions": 8254,
    "\u2581protest": 8255,
    "cdot": 8256,
    "rary": 8257,
    "\u2581Ball": 8258,
    "\u2581uncertain": 8259,
    "\u2581apartment": 8260,
    "Count": 8261,
    "wing": 8262,
    "%)": 8263,
    "\u2581operator": 8264,
    "\u2581Among": 8265,
    "json": 8266,
    "\u2581guidance": 8267,
    "\u2581entitled": 8268,
    "\u2581Latin": 8269,
    ");\r": 8270,
    "\u2581festival": 8271,
    "query": 8272,
    "including": 8273,
    "\u2581Sarah": 8274,
    "\u2581hyper": 8275,
    "\u2581errors": 8276,
    "\u2581enforcement": 8277,
    "\u2581compare": 8278,
    "ulum": 8279,
    "\u2581yards": 8280,
    "\u2581versions": 8281,
    "\u2581Miller": 8282,
    "\u2581findings": 8283,
    "\u2581embr": 8284,
    "\u2581tested": 8285,
    "\u2581strike": 8286,
    "\u2581behalf": 8287,
    "\u2581essay": 8288,
    "\u2581injuries": 8289,
    "\u2581diff": 8290,
    "\u2581subjects": 8291,
    "Array": 8292,
    "\u2581organic": 8293,
    "\u2581affordable": 8294,
    "\u2581kne": 8295,
    "\u2581Cro": 8296,
    "allel": 8297,
    "\u2581Return": 8298,
    "ycl": 8299,
    "aza": 8300,
    "\u2581mac": 8301,
    "\u2581molec": 8302,
    "main": 8303,
    "\u2581moder": 8304,
    "\u2581faces": 8305,
    "\u2581buff": 8306,
    "Post": 8307,
    "\u2581soldiers": 8308,
    "\u2581Area": 8309,
    "\u2581bone": 8310,
    "whel": 8311,
    "Mod": 8312,
    "\u2581jun": 8313,
    "\u2581SS": 8314,
    "ixture": 8315,
    "aska": 8316,
    "\u2581outdoor": 8317,
    "\u2581undert": 8318,
    "Ent": 8319,
    "\u2581Ros": 8320,
    "\u2581pip": 8321,
    "DP": 8322,
    "\u2581Place": 8323,
    "aded": 8324,
    "\u2581phr": 8325,
    "\u2581ble": 8326,
    "\u2581Major": 8327,
    "\u2581guarantee": 8328,
    "\u2581Cub": 8329,
    "\u2581Kevin": 8330,
    "\u2581smile": 8331,
    "Service": 8332,
    "\u2581gal": 8333,
    "\u2581celebrate": 8334,
    "\u2581ist": 8335,
    "iah": 8336,
    "\u2581Month": 8337,
    "fraid": 8338,
    "\u2581controvers": 8339,
    "\u2581Agency": 8340,
    "\u2581Toronto": 8341,
    "\u2581hardware": 8342,
    "\u2581\u0422": 8343,
    "orne": 8344,
    "\u2581breath": 8345,
    "\u2581forever": 8346,
    "\u2581attached": 8347,
    "\u2581continuing": 8348,
    "\u2581pin": 8349,
    "\u2581drawing": 8350,
    "\u2581brands": 8351,
    "folio": 8352,
    "\u2581module": 8353,
    "illiant": 8354,
    "\u2581ending": 8355,
    "\u2581samples": 8356,
    "ools": 8357,
    "\u2581abandon": 8358,
    "\u2581Country": 8359,
    "\u2581applicable": 8360,
    "uffer": 8361,
    "\u2581yellow": 8362,
    "\u2581beer": 8363,
    "olis": 8364,
    "edge": 8365,
    "\u2581frequency": 8366,
    "\u2581afraid": 8367,
    "\u2581SU": 8368,
    "Pr": 8369,
    "\u2581pharm": 8370,
    "\u2581Arizona": 8371,
    "\u2581forgot": 8372,
    "aka": 8373,
    "\u2581manif": 8374,
    "ami": 8375,
    "\u2581monitoring": 8376,
    "\u2581OS": 8377,
    "missions": 8378,
    "\u2581Small": 8379,
    "\u2581appointment": 8380,
    "\u2581density": 8381,
    "________________": 8382,
    "\u2581NAS": 8383,
    "\u2581displ": 8384,
    "\u2581marked": 8385,
    "\u2581corresponding": 8386,
    "\u2581Columbia": 8387,
    "IO": 8388,
    "\u2581consequences": 8389,
    "\u2581accessible": 8390,
    "ials": 8391,
    "\u2581association": 8392,
    "\u2581adventure": 8393,
    "uns": 8394,
    "\u2581silver": 8395,
    "\u2581Os": 8396,
    "\u2581presents": 8397,
    "\u2581Study": 8398,
    "rav": 8399,
    "aire": 8400,
    "Act": 8401,
    "itionally": 8402,
    "\u2581chart": 8403,
    "({": 8404,
    "\u2581adds": 8405,
    "\u2581Corporation": 8406,
    "asant": 8407,
    "\u2581sustainable": 8408,
    "\u2581vess": 8409,
    "\u2581sacr": 8410,
    "\u2581\u2192": 8411,
    "fall": 8412,
    "\u2581breakfast": 8413,
    "owing": 8414,
    "\u2581resc": 8415,
    "endo": 8416,
    "\u2581instructions": 8417,
    "adelph": 8418,
    "\u2581offices": 8419,
    "write": 8420,
    "\u2581compos": 8421,
    "\u2581contributions": 8422,
    "\u2581het": 8423,
    "\u2581DO": 8424,
    "aze": 8425,
    "claim": 8426,
    "\u2581aside": 8427,
    "\u2581improving": 8428,
    "%,": 8429,
    "\u2581template": 8430,
    "ori": 8431,
    "\u2581consideration": 8432,
    "\u2581Comment": 8433,
    "\u2581thorough": 8434,
    ".....": 8435,
    "pay": 8436,
    "\u2581fault": 8437,
    "\u2581driven": 8438,
    "\u2581Ba": 8439,
    "\u2581involving": 8440,
    "pan": 8441,
    "\u2581strongly": 8442,
    "\u2581Band": 8443,
    "find": 8444,
    "\u2581breast": 8445,
    "\u2581sentence": 8446,
    "\u2581proposal": 8447,
    "\u2581Without": 8448,
    "bin": 8449,
    "\u2581rural": 8450,
    "abetes": 8451,
    "\u2581grass": 8452,
    "\u2581Hug": 8453,
    "\u2581Gro": 8454,
    "yard": 8455,
    "\u2581consists": 8456,
    "\u2581Berlin": 8457,
    "\u2581\u0438\u0437": 8458,
    "\u2581crucial": 8459,
    "\u2581Sem": 8460,
    "amics": 8461,
    "\u2581Death": 8462,
    "\u2581reputation": 8463,
    "\u2581creates": 8464,
    "dec": 8465,
    "\u2581fiction": 8466,
    "\u2581hole": 8467,
    "wind": 8468,
    "overty": 8469,
    "boy": 8470,
    "\u2581pointed": 8471,
    "\u2581furniture": 8472,
    "PD": 8473,
    "bered": 8474,
    "\u2581Avenue": 8475,
    "true": 8476,
    "\u2581Matthew": 8477,
    "\u2581potentially": 8478,
    "\u2581MD": 8479,
    "news": 8480,
    "\u2581integrated": 8481,
    "person": 8482,
    "\u2581Princ": 8483,
    "\u2581Text": 8484,
    "\u2581sections": 8485,
    "\u2581causing": 8486,
    "\u2581merely": 8487,
    "\u043d\u043e\u0433\u043e": 8488,
    "ilty": 8489,
    "\u2581tut": 8490,
    "OST": 8491,
    "etts": 8492,
    "\u2581obser": 8493,
    "}}\\": 8494,
    "\u2581Box": 8495,
    "\u2581TR": 8496,
    "\u2581CL": 8497,
    "\u2581transportation": 8498,
    "\u2581likes": 8499,
    "\u2581Senior": 8500,
    "\u2581myst": 8501,
    "\u2581PA": 8502,
    "\u2581visible": 8503,
    "\u2581File": 8504,
    "\u2581pleased": 8505,
    "ocated": 8506,
    "Ps": 8507,
    "\u2581approaches": 8508,
    "\u2581categories": 8509,
    "\u2581Cert": 8510,
    "\u2581Song": 8511,
    "reement": 8512,
    "\u2581Guard": 8513,
    "\u2581expenses": 8514,
    "world": 8515,
    "sylvania": 8516,
    "vare": 8517,
    "\u2581ele": 8518,
    "Config": 8519,
    "\u2581mob": 8520,
    "first": 8521,
    "\u2581normally": 8522,
    "\u2581Type": 8523,
    "\u2581Pers": 8524,
    "\u2581nations": 8525,
    "lers": 8526,
    "ika": 8527,
    "\u2581ma": 8528,
    "\u2581Greg": 8529,
    ")$.": 8530,
    "\u2581killing": 8531,
    "\u2581Bell": 8532,
    "emplate": 8533,
    "oln": 8534,
    "\u2581Prince": 8535,
    "Tube": 8536,
    "\u2581introduction": 8537,
    "\u0433\u0438": 8538,
    "QL": 8539,
    "\u2581newly": 8540,
    "\u2581aggress": 8541,
    "isted": 8542,
    "\u2581trick": 8543,
    "iami": 8544,
    "current": 8545,
    "\u2581involves": 8546,
    "\u2581solo": 8547,
    "\u2581scenes": 8548,
    "\u2581soil": 8549,
    "adelphia": 8550,
    "\u2581DVD": 8551,
    "\u2581indicate": 8552,
    "\u2581Would": 8553,
    "\u00a0\u00a0": 8554,
    "\u2581Help": 8555,
    "ordan": 8556,
    "\u2581doctors": 8557,
    "esh": 8558,
    "Image": 8559,
    "\u2581gap": 8560,
    "itals": 8561,
    "scale": 8562,
    "\u2581requests": 8563,
    "uma": 8564,
    "\u2581lessons": 8565,
    "\u2581Share": 8566,
    "ran": 8567,
    "ership": 8568,
    "\u2581intellectual": 8569,
    "Inst": 8570,
    "\u2581Sciences": 8571,
    "\u2581rein": 8572,
    "\u2581rose": 8573,
    "\u2581lawyer": 8574,
    "uin": 8575,
    "\u2581Annual": 8576,
    "\u2581NO": 8577,
    "\u2581carrying": 8578,
    "\u2581Following": 8579,
    "\u2581Capital": 8580,
    "\u2581EN": 8581,
    "\u2581Houston": 8582,
    "\u2581concerning": 8583,
    "\u2581formation": 8584,
    "\u2581sending": 8585,
    "after": 8586,
    "ennes": 8587,
    "\u2581odd": 8588,
    "\u2581hopes": 8589,
    "ILL": 8590,
    "\u2581Labels": 8591,
    "\u2581unus": 8592,
    "opher": 8593,
    "\u2581Records": 8594,
    "\u2581Rome": 8595,
    "\u2581pitch": 8596,
    "umps": 8597,
    "\u2581ec": 8598,
    "\u2581Line": 8599,
    "\u2581machines": 8600,
    "\u2581Learn": 8601,
    "\u0430\u0440": 8602,
    "\u2581raw": 8603,
    "\u2581Brother": 8604,
    "iem": 8605,
    "\u2581membership": 8606,
    "\u0448\u0438": 8607,
    "node": 8608,
    "\u2581SM": 8609,
    "\u2581Pack": 8610,
    "Trans": 8611,
    "\u2581fro": 8612,
    "\u2581submitted": 8613,
    "sqrt": 8614,
    "rection": 8615,
    "ortion": 8616,
    "\u2581Lady": 8617,
    "\u0440\u0438\u044f": 8618,
    "ecess": 8619,
    "heast": 8620,
    "version": 8621,
    "\u2581hydro": 8622,
    "\u2581Member": 8623,
    "\u2581Ho": 8624,
    "\u2581tum": 8625,
    "\u2581opposition": 8626,
    "agan": 8627,
    "\u2581principle": 8628,
    "\u2581vend": 8629,
    "\u2581uniform": 8630,
    "\u2581Dead": 8631,
    "\u2581Opt": 8632,
    "\u2581escape": 8633,
    "\u2581Bang": 8634,
    "\u2581prev": 8635,
    "roduction": 8636,
    "\u2581password": 8637,
    "One": 8638,
    "\u2581diseases": 8639,
    "\u2581exclusive": 8640,
    "\u2581cu": 8641,
    "\u2581magic": 8642,
    "\u2581anymore": 8643,
    "\u2581f\u00fcr": 8644,
    "\u2581prohib": 8645,
    "\u2581loves": 8646,
    "apore": 8647,
    "\u2581Stock": 8648,
    "orph": 8649,
    "\u2581stored": 8650,
    "det": 8651,
    "\u2581zu": 8652,
    "\u2581blind": 8653,
    "RC": 8654,
    "\u2581destination": 8655,
    "\u2581Edward": 8656,
    "\u2581arrested": 8657,
    "\u2581Strateg": 8658,
    "\u0446\u0456": 8659,
    "expected": 8660,
    "\u2581singer": 8661,
    "\u2581occurs": 8662,
    "================": 8663,
    "don": 8664,
    "\u2581Cab": 8665,
    "riers": 8666,
    "\u2581Officer": 8667,
    "\u2581gay": 8668,
    "\u2581Training": 8669,
    "\u2581finance": 8670,
    "\u2581Ven": 8671,
    "\u2581CN": 8672,
    "rangle": 8673,
    "udi": 8674,
    "raf": 8675,
    "\u2581interaction": 8676,
    "iffe": 8677,
    "vision": 8678,
    "\u2581Low": 8679,
    "\u2581len": 8680,
    "\u2581Student": 8681,
    "Fl": 8682,
    "\u2581stretch": 8683,
    "\u2581sought": 8684,
    "Date": 8685,
    "\u2581Hi": 8686,
    "stal": 8687,
    "\u2581exhibition": 8688,
    "\u2581southern": 8689,
    "organ": 8690,
    "owed": 8691,
    "\u2581Age": 8692,
    "\u2581Early": 8693,
    "psilon": 8694,
    "iece": 8695,
    "\u2581gene": 8696,
    "\u2581Economic": 8697,
    "\u2581console": 8698,
    "\u2581theore": 8699,
    "\u2581absolute": 8700,
    "achus": 8701,
    "\u2581Members": 8702,
    "\u2581photograp": 8703,
    "\u2581sharp": 8704,
    "PT": 8705,
    "\u2581Bol": 8706,
    "\u2581confident": 8707,
    "\u2581flash": 8708,
    "\u2581scope": 8709,
    "\u2581publis": 8710,
    "\u2581\u201e": 8711,
    "ilst": 8712,
    "\u2581hen": 8713,
    "\u2581Interest": 8714,
    "\u2581browser": 8715,
    "usal": 8716,
    "\u2581hang": 8717,
    "epsilon": 8718,
    "\u2581participation": 8719,
    "\u2581Tony": 8720,
    "\u2581ingredients": 8721,
    "\u2581Season": 8722,
    "\u2581Lewis": 8723,
    "uties": 8724,
    "upid": 8725,
    "\u2581acceler": 8726,
    "oviet": 8727,
    "\u2581courts": 8728,
    "\u2581drama": 8729,
    "result": 8730,
    "\u2581hel": 8731,
    "\u2581Barb": 8732,
    "\u2581laid": 8733,
    "pson": 8734,
    "\u2581programming": 8735,
    "\u2581Iss": 8736,
    "\u2581interact": 8737,
    "km": 8738,
    "\u2581FL": 8739,
    "CO": 8740,
    "\u2581Wars": 8741,
    "\u2581pul": 8742,
    "\u2581outcome": 8743,
    "From": 8744,
    "\u2581Hay": 8745,
    "di": 8746,
    "\u2581consumption": 8747,
    "summary": 8748,
    "onymous": 8749,
    "Field": 8750,
    "\u2581imper": 8751,
    "dep": 8752,
    "\u2581Syn": 8753,
    "\u2581sees": 8754,
    "\u2581stake": 8755,
    "\u2581flowers": 8756,
    "\u2581OK": 8757,
    "\u2581adj": 8758,
    "\u2581een": 8759,
    "\u2581newspaper": 8760,
    "\u2581Modern": 8761,
    "\u2581qualified": 8762,
    "iva": 8763,
    "valid": 8764,
    "ishment": 8765,
    "\u2581seasons": 8766,
    "Message": 8767,
    "\u2581Liter": 8768,
    "\u2581memories": 8769,
    "\u2581suffered": 8770,
    "rition": 8771,
    "\u2581institution": 8772,
    "\u2581conclusion": 8773,
    "raction": 8774,
    "\u2581Pennsylvania": 8775,
    "\u2581branch": 8776,
    "\u2581Lyn": 8777,
    "\u2581initially": 8778,
    "\u2581Emer": 8779,
    "\u2581Short": 8780,
    "\u2581\u0456": 8781,
    "\u2581dur": 8782,
    "\u2581proven": 8783,
    "cers": 8784,
    "spe": 8785,
    "\u2581Change": 8786,
    "\u2581provisions": 8787,
    "\u2581alongside": 8788,
    "\u2581deeply": 8789,
    "\u2581Arm": 8790,
    "\u2581sheet": 8791,
    "\u2581stead": 8792,
    "\u2581describes": 8793,
    "\u2581Bat": 8794,
    "ugs": 8795,
    "\u2581Kong": 8796,
    "\u2581representation": 8797,
    "\u2581flag": 8798,
    "inals": 8799,
    "\u2581Ut": 8800,
    "\u2581Base": 8801,
    "\u2581wis": 8802,
    "enders": 8803,
    "\u2581governments": 8804,
    "\u2581voc": 8805,
    "\u2581quote": 8806,
    "sect": 8807,
    "\u2581insight": 8808,
    "\u0437\u0438": 8809,
    "making": 8810,
    "\u2581Learning": 8811,
    "\u2581Moreover": 8812,
    "lie": 8813,
    "\u2581domin": 8814,
    "iscal": 8815,
    "\u2581Personal": 8816,
    "\u2581Dark": 8817,
    "\u2581legend": 8818,
    "rated": 8819,
    "\u2581accordance": 8820,
    "\u2581rising": 8821,
    "\u2581stuck": 8822,
    "\u2581Philipp": 8823,
    "\u2581channels": 8824,
    "\u2581tech": 8825,
    "\u2581discrim": 8826,
    "\u2581philosophy": 8827,
    "\u2581vice": 8828,
    "\u2581proport": 8829,
    "ulpt": 8830,
    "\u0458\u0435": 8831,
    "\u2581stations": 8832,
    "\u2581Chem": 8833,
    "\u2581Marketing": 8834,
    "\u2581Mother": 8835,
    "\u2581provision": 8836,
    "\u2581universe": 8837,
    "obby": 8838,
    "\u2581refuge": 8839,
    "etary": 8840,
    "\u2581characteristics": 8841,
    "AF": 8842,
    "\u2581[]": 8843,
    "\u2581Cho": 8844,
    "\u2581drinking": 8845,
[...]
