<unk>	0
<s>	0
</s>	0
<0x00>	0
<0x01>	0
<0x02>	0
<0x03>	0
<0x04>	0
<0x05>	0
<0x06>	0
<0x07>	0
<0x08>	0
<0x09>	0
<0x0A>	0
<0x0B>	0
<0x0C>	0
<0x0D>	0
<0x0E>	0
<0x0F>	0
<0x10>	0
<0x11>	0
<0x12>	0
<0x13>	0
<0x14>	0
<0x15>	0
<0x16>	0
<0x17>	0
<0x18>	0
<0x19>	0
<0x1A>	0
<0x1B>	0
<0x1C>	0
<0x1D>	0
<0x1E>	0
<0x1F>	0
<0x20>	0
<0x21>	0
<0x22>	0
<0x23>	0
<0x24>	0
<0x25>	0
<0x26>	0
<0x27>	0
<0x28>	0
<0x29>	0
<0x2A>	0
<0x2B>	0
<0x2C>	0
<0x2D>	0
<0x2E>	0
<0x2F>	0
<0x30>	0
<0x31>	0
<0x32>	0
<0x33>	0
<0x34>	0
<0x35>	0
<0x36>	0
<0x37>	0
<0x38>	0
<0x39>	0
<0x3A>	0
<0x3B>	0
<0x3C>	0
<0x3D>	0
<0x3E>	0
<0x3F>	0
<0x40>	0
<0x41>	0
<0x42>	0
<0x43>	0
<0x44>	0
<0x45>	0
<0x46>	0
<0x47>	0
<0x48>	0
<0x49>	0
<0x4A>	0
<0x4B>	0
<0x4C>	0
<0x4D>	0
<0x4E>	0
<0x4F>	0
<0x50>	0
<0x51>	0
<0x52>	0
<0x53>	0
<0x54>	0
<0x55>	0
<0x56>	0
<0x57>	0
<0x58>	0
<0x59>	0
<0x5A>	0
<0x5B>	0
<0x5C>	0
<0x5D>	0
<0x5E>	0
<0x5F>	0
<0x60>	0
<0x61>	0
<0x62>	0
<0x63>	0
<0x64>	0
<0x65>	0
<0x66>	0
<0x67>	0
<0x68>	0
<0x69>	0
<0x6A>	0
<0x6B>	0
<0x6C>	0
<0x6D>	0
<0x6E>	0
<0x6F>	0
<0x70>	0
<0x71>	0
<0x72>	0
<0x73>	0
<0x74>	0
<0x75>	0
<0x76>	0
<0x77>	0
<0x78>	0
<0x79>	0
<0x7A>	0
<0x7B>	0
<0x7C>	0
<0x7D>	0
<0x7E>	0
<0x7F>	0
<0x80>	0
<0x81>	0
<0x82>	0
<0x83>	0
<0x84>	0
<0x85>	0
<0x86>	0
<0x87>	0
<0x88>	0
<0x89>	0
<0x8A>	0
<0x8B>	0
<0x8C>	0
<0x8D>	0
<0x8E>	0
<0x8F>	0
<0x90>	0
<0x91>	0
<0x92>	0
<0x93>	0
<0x94>	0
<0x95>	0
<0x96>	0
<0x97>	0
<0x98>	0
<0x99>	0
<0x9A>	0
<0x9B>	0
<0x9C>	0
<0x9D>	0
<0x9E>	0
<0x9F>	0
<0xA0>	0
<0xA1>	0
<0xA2>	0
<0xA3>	0
<0xA4>	0
<0xA5>	0
<0xA6>	0
<0xA7>	0
<0xA8>	0
<0xA9>	0
<0xAA>	0
<0xAB>	0
<0xAC>	0
<0xAD>	0
<0xAE>	0
<0xAF>	0
<0xB0>	0
<0xB1>	0
<0xB2>	0
<0xB3>	0
<0xB4>	0
<0xB5>	0
<0xB6>	0
<0xB7>	0
<0xB8>	0
<0xB9>	0
<0xBA>	0
<0xBB>	0
<0xBC>	0
<0xBD>	0
<0xBE>	0
<0xBF>	0
<0xC0>	0
<0xC1>	0
<0xC2>	0
<0xC3>	0
<0xC4>	0
<0xC5>	0
<0xC6>	0
<0xC7>	0
<0xC8>	0
<0xC9>	0
<0xCA>	0
<0xCB>	0
<0xCC>	0
<0xCD>	0
<0xCE>	0
<0xCF>	0
<0xD0>	0
<0xD1>	0
<0xD2>	0
<0xD3>	0
<0xD4>	0
<0xD5>	0
<0xD6>	0
<0xD7>	0
<0xD8>	0
<0xD9>	0
<0xDA>	0
<0xDB>	0
<0xDC>	0
<0xDD>	0
<0xDE>	0
<0xDF>	0
<0xE0>	0
<0xE1>	0
<0xE2>	0
<0xE3>	0
<0xE4>	0
<0xE5>	0
<0xE6>	0
<0xE7>	0
<0xE8>	0
<0xE9>	0
<0xEA>	0
<0xEB>	0
<0xEC>	0
<0xED>	0
<0xEE>	0
<0xEF>	0
<0xF0>	0
<0xF1>	0
<0xF2>	0
<0xF3>	0
<0xF4>	0
<0xF5>	0
<0xF6>	0
<0xF7>	0
<0xF8>	0
<0xF9>	0
<0xFA>	0
<0xFB>	0
<0xFC>	0
<0xFD>	0
<0xFE>	0
<0xFF>	0
公司	-0
▁第	-1
中国	-2
管理	-3
工作	-4
技术	-5
服务	-6
研究	-7
产品	-8
发展	-9
企业	-10
一个	-11
--	-12
经营	-13
er	-14
大学	-15
教育	-16
in	-17
出版	-18
信息	-19
▁，	-20
有限	-21
工程	-22
主要	-23
▁(	-24
设计	-25
系统	-26
国家	-27
an	-28
设备	-29
文化	-30
▁、	-31
有限公司	-32
可以	-33
经济	-34
简介	-35
社会	-36
包括	-37
on	-38
项目	-39
专业	-40
成立	-41
▁。	-42
进行	-43
建设	-44
范围	-45
学校	-46
内容	-47
生产	-48
、《	-49
中心	-50
时间	-51
ar	-52
组织	-53
游戏	-54
自己	-55
建筑	-56
科学	-57
en	-58
材料	-59
国际	-60
世界	-61
政府	-62
人民	-63
使用	-64
作品	-65
提供	-66
第一	-67
我们	-68
)，	-69
生活	-70
是一	-71
科技	-72
作者	-73
通过	-74
市场	-75
活动	-76
学生	-77
学院	-78
基本	-79
开发	-80
》、《	-81
其中	-82
▁《	-83
or	-84
电子	-85
教学	-86
北京	-87
销售	-88
▁S	-89
环境	-90
网络	-91
中的	-92
▁C	-93
全国	-94
艺术	-95
上海	-96
经营范围	-97
es	-98
的一	-99
at	-100
以及	-101
al	-102
成为	-103
面积	-104
单位	-105
日成立	-106
经营范围包括	-107
功能	-108
支持	-109
负责	-110
安全	-111
投资	-112
图书	-113
问题	-114
方法	-115
委员	-116
应用	-117
具有	-118
同时	-119
历史	-120
美国	-121
出版社	-122
..	-123
ic	-124
咨询	-125
基础	-126
。《	-127
第二	-128
▁M	-129
计算	-130
资源	-131
没有	-132
el	-133
其他	-134
▁的	-135
介绍	-136
标准	-137
is	-138
小说	-139
学习	-140
th	-141
获得	-142
部分	-143
质量	-144
合作	-145
结构	-146
开始	-147
类型	-148
的人	-149
公里	-150
▁A	-151
品牌	-152
人的	-153
制作	-154
产业	-155
电视	-156
不同	-157
用品	-158
办公	-159
重要	-160
作为	-161
地区	-162
人员	-163
相关	-164
收入	-165
拥有	-166
机构	-167
他们	-168
能力	-169
控制	-170
工业	-171
行业	-172
分析	-173
城市	-174
行政	-175
自然	-176
部门	-177
方面	-178
教师	-179
就是	-180
机械	-181
it	-182
▁一	-183
电影	-184
。(	-185
参加	-186
方式	-187
大的	-188
国内	-189
▁B	-190
系列	-191
▁P	-192
现代	-193
业务	-194
万元	-195
》，	-196
理论	-197
ro	-198
影响	-199
综合	-200
以上	-201
需要	-202
音乐	-203
处理	-204
保护	-205
规划	-206
化学	-207
制品	-208
▁第二	-209
▁T	-210
优秀	-211
创新	-212
个人	-213
农业	-214
有关	-215
知识	-216
作用	-217
re	-218
汽车	-219
as	-220
主任	-221
代表	-222
指导	-223
提高	-224
位于	-225
平方	-226
计算机	-227
从事	-228
数据	-229
)。	-230
软件	-231
要求	-232
根据	-233
▁D	-234
什么	-235
客户	-236
人物	-237
情况	-238
好的	-239
各种	-240
）、	-241
▁I	-242
集团	-243
文学	-244
……	-245
过程	-246
先进	-247
一般	-248
协会	-249
卫生	-250
交通	-251
实现	-252
le	-253
▁第一	-254
委员会	-255
培训	-256
形成	-257
关系	-258
这个	-259
旅游	-260
之一	-261
故事	-262
第三	-263
操作	-264
实验	-265
▁L	-266
日本	-267
采用	-268
)、	-269
计划	-270
法律	-271
工艺	-272
领导	-273
毕业	-274
模式	-275
实施	-276
ou	-277
选择	-278
完成	-279
内容简介	-280
目标	-281
演员	-282
▁-	-283
职业	-284
本书	-285
自己的	-286
建立	-287
领域	-288
教授	-289
因为	-290
平台	-291
运动	-292
ing	-293
特色	-294
商务	-295
目录	-296
▁第三	-297
健康	-298
精神	-299
il	-300
人口	-301
▁G	-302
有效	-303
上的	-304
mm	-305
所有	-306
设施	-307
ch	-308
▁R	-309
价值	-310
配件	-311
发生	-312
传统	-313
金属	-314
农村	-315
▁三	-316
了一	-317
不断	-318
由于	-319
开展	-320
利用	-321
重点	-322
▁H	-323
已经	-324
▁》	-325
规定	-326
为主	-327
ion	-328
食品	-329
出现	-330
为了	-331
事业	-332
丰富	-333
政策	-334
成功	-335
▁中	-336
生物	-337
五金	-338
ol	-339
▁:	-340
发现	-341
这些	-342
孩子	-343
自动	-344
不含	-345
用户	-346
制度	-347
特点	-348
到了	-349
结合	-350
监督	-351
体系	-352
年的	-353
主义	-354
▁中国	-355
体育	-356
世纪	-357
组成	-358
他的	-359
目前	-360
▁F	-361
am	-362
专家	-363
id	-364
人才	-365
安装	-366
如果	-367
et	-368
），	-369
酒店	-370
制造	-371
许可	-372
治疗	-373
and	-374
培养	-375
加工	-376
之间	-377
可能	-378
st	-379
▁W	-380
理念	-381
全面	-382
语言	-383
如何	-384
ed	-385
社区	-386
第十	-387
美术	-388
民族	-389
思想	-390
导演	-391
医疗	-392
州市	-393
也是	-394
中学	-395
地方	-396
▁二	-397
网站	-398
有一	-399
会议	-400
化工	-401
资料	-402
名称	-403
条件	-404
来的	-405
用于	-406
装饰	-407
交流	-408
金融	-409
创作	-410
批发	-411
中央	-412
经验	-413
的是	-414
不能	-415
改革	-416
商品	-417
医院	-418
责任	-419
学术	-420
出生	-421
政治	-422
营销	-423
服装	-424
平方米	-425
课程	-426
著名	-427
小学	-428
ac	-429
危险	-430
▁c	-431
产生	-432
博士	-433
▁E	-434
贸易	-435
零售	-436
等奖	-437
的大	-438
因此	-439
种植	-440
▁在	-441
进入	-442
科研	-443
不是	-444
山东	-445
所以	-446
新的	-447
论文	-448
水平	-449
施工	-450
▁第十	-451
广告	-452
商业	-453
执行	-454
时代	-455
学会	-456
距离	-457
角色	-458
成果	-459
参与	-460
加入	-461
心理	-462
中文	-463
书记	-464
策划	-465
出版社出版	-466
媒体	-467
》(	-468
解决	-469
这种	-470
区域	-471
银行	-472
这样	-473
效果	-474
非常	-475
我国	-476
发表	-477
性的	-478
消费	-479
包装	-480
▁第四	-481
核心	-482
分钟	-483
of	-484
ad	-485
增加	-486
关于	-487
达到	-488
英语	-489
om	-490
实践	-491
及其	-492
▁th	-493
方向	-494
家庭	-495
批准	-496
行为	-497
植物	-498
定的	-499
先后	-500
▁N	-501
劳动	-502
ter	-503
特别	-504
▁s	-505
▁大	-506
儿童	-507
这一	-508
作者是	-509
战略	-510
高级	-511
基地	-512
的发展	-513
显示	-514
对于	-515
帮助	-516
表现	-517
参数	-518
一起	-519
》《	-520
之后	-521
各类	-522
都是	-523
时候	-524
积极	-525
空间	-526
比较	-527
存在	-528
▁基本	-529
形式	-530
普通	-531
最大	-532
广东	-533
任务	-534
联合	-535
基金	-536
能够	-537
浙江	-538
体的	-539
动物	-540
ow	-541
中华	-542
生态	-543
出口	-544
参考	-545
SB	-546
提出	-547
但是	-548
促进	-549
宣传	-550
两个	-551
化的	-552
属于	-553
青年	-554
喜欢	-555
尺寸	-556
会员	-557
▁和	-558
▁x	-559
还是	-560
细胞	-561
电器	-562
un	-563
接口	-564
该村	-565
经过	-566
第四	-567
百货	-568
▁等	-569
年来	-570
必须	-571
机关	-572
全球	-573
时期	-574
性能	-575
发行	-576
人们	-577
直接	-578
决定	-579
坚持	-580
调查	-581
实际	-582
团队	-583
▁m	-584
us	-585
分别	-586
香港	-587
文明	-588
位置	-589
南省	-590
发布	-591
委会	-592
he	-593
检查	-594
需求	-595
是一个	-596
%，	-597
认为	-598
得到	-599
代理	-600
小时	-601
最后	-602
方案	-603
创造	-604
移动	-605
形象	-606
厘米	-607
生命	-608
或者	-609
分布	-610
一次	-611
十二	-612
农民	-613
机电	-614
规范	-615
人民政府	-616
新闻	-617
年代	-618
一直	-619
公路	-620
四川	-621
担任	-622
ent	-623
规模	-624
最佳	-625
全村	-626
文件	-627
研发	-628
还有	-629
▁t	-630
手机	-631
的图书	-632
取得	-633
一些	-634
保障	-635
而且	-636
优势	-637
日用	-638
英文	-639
%。	-640
法规	-641
评价	-642
主持	-643
共同	-644
加强	-645
江苏	-646
电话	-647
器材	-648
努力	-649
现在	-650
特征	-651
不得	-652
技能	-653
风格	-654
工具	-655
ur	-656
交电	-657
▁J	-658
一种	-659
十一	-660
▁/	-661
保险	-662
正式	-663
经历	-664
朋友	-665
推荐	-666
od	-667
左右	-668
价格	-669
荣誉	-670
电脑	-671
深圳	-672
英国	-673
▁of	-674
ig	-675
办公室	-676
我的	-677
许多	-678
交易	-679
教材	-680
分类	-681
电子产品	-682
硕士	-683
不仅	-684
化学品	-685
读者	-686
少年	-687
▁第二节	-688
你的	-689
评为	-690
以来	-691
很多	-692
运输	-693
程序	-694
长期	-695
▁the	-696
打造	-697
注意	-698
▁K	-699
▁第一节	-700
os	-701
有的	-702
ay	-703
提升	-704
学科	-705
▁为	-706
革命	-707
五章	-708
变化	-709
员工	-710
仪器	-711
土地	-712
平均	-713
智能	-714
人类	-715
资产	-716
力量	-717
▁本	-718
原料	-719
▁【	-720
▁d	-721
这里	-722
医学	-723
以下	-724
发展的	-725
公共	-726
训练	-727
背景	-728
完善	-729
im	-730
道路	-731
了解	-732
摄影	-733
先生	-734
台湾	-735
资金	-736
▁f	-737
年度	-738
大量	-739
称为	-740
▁主要	-741
编辑	-742
》。	-743
力的	-744
通讯	-745
检测	-746
党员	-747
独立	-748
纺织	-749
ap	-750
疾病	-751
环保	-752
五金交电	-753
▁是	-754
重庆	-755
内的	-756
速度	-757
一步	-758
分子	-759
多种	-760
毫米	-761
受到	-762
视频	-763
原则	-764
报告	-765
状态	-766
的高	-767
保持	-768
品种	-769
简单	-770
增长	-771
完全	-772
统计	-773
除外	-774
学位	-775
广泛	-776
最高	-777
▁p	-778
特殊	-779
运行	-780
ct	-781
推广	-782
一样	-783
考试	-784
):	-785
绿色	-786
设置	-787
意义	-788
▁b	-789
任何	-790
按照	-791
大型	-792
只有	-793
成长	-794
保证	-795
▁w	-796
农户	-797
▁四	-798
临床	-799
营养	-800
分为	-801
注册	-802
成员	-803
六章	-804
比赛	-805
的小	-806
不可	-807
▁O	-808
▁主	-809
ot	-810
结果	-811
展示	-812
出了	-813
办学	-814
多的	-815
阅读	-816
...	-817
者的	-818
▁V	-819
幼儿	-820
全部	-821
理事	-822
财务	-823
品质	-824
温度	-825
优质	-826
协调	-827
试验	-828
iv	-829
----	-830
▁小	-831
知道	-832
快速	-833
一定	-834
作家	-835
称号	-836
竞争	-837
通信	-838
数字	-839
日用百货	-840
随着	-841
自治	-842
出的	-843
师范	-844
地理	-845
，《	-846
战争	-847
是在	-848
事件	-849
ir	-850
▁·	-851
是一种	-852
的研究	-853
点击	-854
超过	-855
爱情	-856
希望	-857
目的	-858
法国	-859
然后	-860
物质	-861
ag	-862
杂志	-863
人均	-864
传播	-865
广州	-866
下的	-867
二十	-868
出版社出版的图书	-869
德国	-870
娱乐	-871
▁作者	-872
当时	-873
充分	-874
财政	-875
期间	-876
认证	-877
调整	-878
干部	-879
自由	-880
高速	-881
时尚	-882
研究生	-883
校园	-884
天津	-885
地产	-886
稳定	-887
▁第三节	-888
说明	-889
▁公司	-890
村民	-891
ul	-892
过程中	-893
▁g	-894
即可	-895
重量	-896
表示	-897
大利	-898
反应	-899
中共	-900
西省	-901
测试	-902
);	-903
确定	-904
公园	-905
em	-906
的新	-907
会计	-908
承担	-909
高等	-910
铁路	-911
现有	-912
统一	-913
七章	-914
并且	-915
配套	-916
其它	-917
op	-918
素质	-919
依法	-920
方便	-921
满足	-922
重大	-923
广大	-924
改变	-925
起来	-926
地面积	-927
记录	-928
这是	-929
▁简介	-930
不会	-931
制定	-932
▁新	-933
物理	-934
生长	-935
引起	-936
南京	-937
荣获	-938
书法	-939
亿元	-940
从而	-941
联网	-942
▁[	-943
群众	-944
连续	-945
课题	-946
街道	-947
▁;	-948
概念	-949
▁and	-950
党委	-951
玩家	-952
经典	-953
毕业于	-954
阶段	-955
的销售	-956
公开	-957
节目	-958
▁U	-959
人生	-960
名为	-961
容量	-962
是由	-963
虽然	-964
造成	-965
主席	-966
适合	-967
未来	-968
接受	-969
开放	-970
维修	-971
维护	-972
不同的	-973
ation	-974
安徽	-975
持续	-976
▁内	-977
成本	-978
建筑材料	-979
ia	-980
后的	-981
多次	-982
河北	-983
申请	-984
表面	-985
湖北	-986
来自	-987
知名	-988
um	-989
▁我	-990
日期	-991
塑料	-992
欧洲	-993
研究所	-994
机械设备	-995
电源	-996
副主任	-997
具体	-998
举办	-999
独特	-1000
贡献	-1001
专辑	-1002
数量	-1003
多个	-1004
的主要	-1005
继续	-1006
蛋白	-1007
十分	-1008
歌曲	-1009
示范	-1010
nd	-1011
的时候	-1012
拍摄	-1013
经营项目	-1014
办法	-1015
哲学	-1016
整个	-1017
八章	-1018
获奖	-1019
实用	-1020
老师	-1021
▁产品	-1022
成绩	-1023
无法	-1024
十三	-1025
▁五	-1026
描述	-1027
av	-1028
明显	-1029
大小	-1030
原因	-1031
数学	-1032
运营	-1033
▁高	-1034
甚至	-1035
休闲	-1036
联系	-1037
最终	-1038
适量	-1039
文献	-1040
大会	-1041
ut	-1042
现任	-1043
享受	-1044
创业	-1045
进一步	-1046
当代	-1047
大家	-1048
SBN	-1049
创建	-1050
皮肤	-1051
合同	-1052
审批	-1053
▁不	-1054
准备	-1055
中医	-1056
福建	-1057
许可证	-1058
GB	-1059
实验室	-1060
主题	-1061
物流	-1062
合理	-1063
广播	-1064
涉及	-1065
总收入	-1066
风险	-1067
ie	-1068
局长	-1069
全市	-1070
▁李	-1071
职工	-1072
原理	-1073
和国	-1074
建议	-1075
真正	-1076
我们的	-1077
对象	-1078
进出口	-1079
战斗	-1080
固定	-1081
内部	-1082
更加	-1083
机制	-1084
进步	-1085
▁人物	-1086
运用	-1087
女性	-1088
攻击	-1089
▁in	-1090
才能	-1091
追求	-1092
正常	-1093
▁)	-1094
体验	-1095
太阳	-1096
室内	-1097
的基本	-1098
丰富的	-1099
推进	-1100
免费	-1101
的基础	-1102
ce	-1103
东西	-1104
丛书	-1105
韩国	-1106
三个	-1107
互联网	-1108
▁开	-1109
展览	-1110
多年	-1111
队伍	-1112
颜色	-1113
概述	-1114
电池	-1115
第五	-1116
每个	-1117
小组	-1118
关注	-1119
九章	-1120
▁Ch	-1121
针对	-1122
深入	-1123
▁游戏	-1124
至今	-1125
Hz	-1126
家具	-1127
力于	-1128
▁王	-1129
良好的	-1130
化妆	-1131
案例	-1132
认识	-1133
办公用品	-1134
最大的	-1135
建材	-1136
美丽	-1137
IS	-1138
掌握	-1139
她的	-1140
文字	-1141
国内外	-1142
ab	-1143
》:	-1144
及时	-1145
都市	-1146
神经	-1147
输入	-1148
现场	-1149
地址	-1150
玻璃	-1151
是否	-1152
武汉	-1153
▁（	-1154
工作的	-1155
解放	-1156
整体	-1157
关键	-1158
连接	-1159
因素	-1160
▁l	-1161
措施	-1162
压力	-1163
ess	-1164
书画	-1165
成了	-1166
影片	-1167
也有	-1168
经理	-1169
编制	-1170
房地产	-1171
成就	-1172
它们	-1173
是一款	-1174
▁西	-1175
减少	-1176
集体	-1177
当地	-1178
程度	-1179
▁目录	-1180
屏幕	-1181
家用	-1182
及配件	-1183
居住	-1184
组合	-1185
不过	-1186
被评为	-1187
电力	-1188
绿化	-1189
商贸	-1190
全县	-1191
来源	-1192
葡萄	-1193
住房	-1194
森林	-1195
▁张	-1196
高的	-1197
患者	-1198
动力	-1199
发挥	-1200
的重要	-1201
东北	-1202
正在	-1203
省级	-1204
本科	-1205
天然	-1206
物业	-1207
广场	-1208
共产	-1209
就业	-1210
容易	-1211
集中	-1212
不要	-1213
等级	-1214
严重	-1215
职责	-1216
▁支持	-1217
纺织品	-1218
白色	-1219
ind	-1220
资本	-1221
的故事	-1222
十四	-1223
著作	-1224
的工作	-1225
测量	-1226
仪表	-1227
思考	-1228
版本	-1229
▁图书	-1230
适应	-1231
幸福	-1232
降低	-1233
有机	-1234
▁外	-1235
ers	-1236
是指	-1237
▁n	-1238
▁上	-1239
动画	-1240
%;	-1241
有着	-1242
的事	-1243
的女	-1244
天下	-1245
科技有限公司	-1246
意识	-1247
宗旨	-1248
▁人	-1249
装备	-1250
形态	-1251
真实	-1252
应该	-1253
进行了	-1254
身体	-1255
药物	-1256
ard	-1257
金属材料	-1258
图片	-1259
集成	-1260
表演	-1261
文艺	-1262
推动	-1263
通常	-1264
化工产品	-1265
讲述	-1266
导致	-1267
保健	-1268
实行	-1269
古代	-1270
技术开发	-1271
英雄	-1272
装置	-1273
▁内容简介	-1274
湖南	-1275
货物	-1276
特性	-1277
共和国	-1278
专用	-1279
芯片	-1280
现象	-1281
除了	-1282
看到	-1283
一体	-1284
cm	-1285
电视台	-1286
重要的	-1287
详细	-1288
解释	-1289
剧情	-1290
主演	-1291
企业的	-1292
广西	-1293
硬件	-1294
以后	-1295
空气	-1296
放入	-1297
演出	-1298
辅助	-1299
美的	-1300
色彩	-1301
父亲	-1302
生的	-1303
居民	-1304
冠军	-1305
te	-1306
北京市	-1307
定位	-1308
符合	-1309
高校	-1310
装修	-1311
和谐	-1312
ri	-1313
主管	-1314
方面的	-1315
▁h	-1316
养殖	-1317
景观	-1318
自身	-1319
只是	-1320
纪念	-1321
技巧	-1322
意见	-1323
ell	-1324
贯彻	-1325
污染	-1326
航空	-1327
突出	-1328
致力于	-1329
那么	-1330
现实	-1331
文物	-1332
唯一	-1333
红色	-1334
系统的	-1335
og	-1336
民间	-1337
各地	-1338
严格	-1339
作物	-1340
信息咨询	-1341
"，	-1342
行动	-1343
年轻	-1344
收藏	-1345
改善	-1346
PU	-1347
评估	-1348
连载	-1349
的一个	-1350
能源	-1351
ov	-1352
▁企业	-1353
快乐	-1354
监控	-1355
东方	-1356
探索	-1357
消费者	-1358
危险化学品	-1359
授予	-1360
相对	-1361
投入	-1362
设立	-1363
博物	-1364
无线	-1365
年底	-1366
河南	-1367
AS	-1368
档案	-1369
后来	-1370
规格	-1371
ist	-1372
工商	-1373
山东省	-1374
大赛	-1375
印刷	-1376
每年	-1377
东南	-1378
增强	-1379
ill	-1380
输出	-1381
智慧	-1382
ak	-1383
风景	-1384
电子商务	-1385
日常	-1386
子的	-1387
学历	-1388
高中	-1389
之间的	-1390
氧化	-1391
配置	-1392
oc	-1393
企业管理	-1394
足球	-1395
IN	-1396
▁a	-1397
▁附	-1398
感觉	-1399
防治	-1400
耕地	-1401
技术服务	-1402
用的	-1403
园林	-1404
爱的	-1405
自我	-1406
里的	-1407
演唱	-1408
信号	-1409
蒙古	-1410
常见	-1411
MP	-1412
年在	-1413
务院	-1414
模型	-1415
充满	-1416
公安	-1417
审计	-1418
另外	-1419
提供了	-1420
学者	-1421
的服务	-1422
人数	-1423
广东省	-1424
存储	-1425
都有	-1426
all	-1427
机电设备	-1428
art	-1429
经常	-1430
ang	-1431
师范大学	-1432
供应	-1433
▁与	-1434
▁金	-1435
▁第五	-1436
事项	-1437
所在	-1438
覆盖	-1439
迅速	-1440
登记	-1441
专利	-1442
个性	-1443
平装	-1444
高效	-1445
策略	-1446
状况	-1447
平方公里	-1448
产品的	-1449
AT	-1450
一切	-1451
▁以	-1452
院校	-1453
文章	-1454
专项	-1455
IP	-1456
恢复	-1457
国民	-1458
影视	-1459
举行	-1460
▁第一章	-1461
地位	-1462
困难	-1463
元素	-1464
秘书	-1465
机场	-1466
动作	-1467
理解	-1468
大陆	-1469
检验	-1470
编写	-1471
ob	-1472
罗斯	-1473
的产品	-1474
ED	-1475
最新	-1476
圆形	-1477
详情	-1478
车站	-1479
怎么	-1480
资格	-1481
性质	-1482
做好	-1483
各项	-1484
汉族	-1485
西南	-1486
写作	-1487
诊断	-1488
院长	-1489
▁有	-1490
流行	-1491
。"	-1492
▁：	-1493
乐部	-1494
复杂	-1495
电缆	-1496
黑色	-1497
MB	-1498
在中国	-1499
格式	-1500
nt	-1501
的一种	-1502
俱乐部	-1503
理想	-1504
尤其	-1505
主编	-1506
生于	-1507
》，《	-1508
面的	-1509
职员	-1510
电视剧	-1511
▁--	-1512
股份	-1513
发动	-1514
常务	-1515
顾问	-1516
国务院	-1517
设有	-1518
的管理	-1519
气候	-1520
青岛	-1521
办理	-1522
▁第四节	-1523
出来	-1524
ine	-1525
意大利	-1526
▁黄	-1527
重新	-1528
练习	-1529
证书	-1530
性和	-1531
应当	-1532
面对	-1533
手术	-1534
挑战	-1535
法院	-1536
带来	-1537
基于	-1538
论坛	-1539
构成	-1540
的项目	-1541
化妆品	-1542
自治区	-1543
▁Y	-1544
高度	-1545
国家级	-1546
民主	-1547
▁天	-1548
众多	-1549
导师	-1550
ub	-1551
体现	-1552
对外	-1553
相当	-1554
它的	-1555
共有	-1556
kg	-1557
每一	-1558
来说	-1559
纤维	-1560
翻译	-1561
博物馆	-1562
身份	-1563
青春	-1564
OS	-1565
人大	-1566
始终	-1567
地质	-1568
地球	-1569
创意	-1570
漫画	-1571
▁年	-1572
的生活	-1573
限制	-1574
成熟	-1575
ra	-1576
会长	-1577
建成	-1578
的影响	-1579
阳市	-1580
西北	-1581
校长	-1582
:《	-1583
那些	-1584
if	-1585
十五	-1586
逐渐	-1587
▁总	-1588
饰演	-1589
▁学校	-1590
建筑面积	-1591
公交	-1592
所属	-1593
石油	-1594
死亡	-1595
预防	-1596
调节	-1597
病毒	-1598
经济学	-1599
蔬菜	-1600
江苏省	-1601
配合	-1602
诚信	-1603
反映	-1604
地下	-1605
此外	-1606
社会科学	-1607
更多	-1608
人体	-1609
周边	-1610
职务	-1611
家用电器	-1612
吸收	-1613
生素	-1614
其实	-1615
避免	-1616
模拟	-1617
优化	-1618
的设计	-1619
指南	-1620
联盟	-1621
思维	-1622
海拔	-1623
标志	-1624
吉林	-1625
了一个	-1626
成立于	-1627
安排	-1628
药品	-1629
落实	-1630
记忆	-1631
军事	-1632
购买	-1633
指标	-1634
母亲	-1635
▁第二章	-1636
海洋	-1637
表达	-1638
接触	-1639
样的	-1640
物品	-1641
武器	-1642
CD	-1643
事务	-1644
境内	-1645
等等	-1646
餐饮	-1647
是中国	-1648
梦想	-1649
专业的	-1650
相互	-1651
MA	-1652
▁无	-1653
▁,	-1654
公斤	-1655
平衡	-1656
曾经	-1657
一流	-1658
玉米	-1659
正确	-1660
报道	-1661
房屋	-1662
编剧	-1663
电气	-1664
如此	-1665
传说	-1666
之前	-1667
和社会	-1668
食用	-1669
大学生	-1670
第六	-1671
于是	-1672
单元	-1673
"。	-1674
公益	-1675
整合	-1676
技术咨询	-1677
循环	-1678
一等奖	-1679
一级	-1680
上海市	-1681
食物	-1682
人士	-1683
鞋帽	-1684
而成	-1685
效率	-1686
动态	-1687
技术的	-1688
流程	-1689
数的	-1690
共产党	-1691
期刊	-1692
云南	-1693
父母	-1694
角度	-1695
成都	-1696
规则	-1697
强的	-1698
节能	-1699
决策	-1700
改造	-1701
▁基本信息	-1702
自动化	-1703
典型	-1704
只要	-1705
机器	-1706
每天	-1707
辽宁	-1708
感染	-1709
效益	-1710
证券	-1711
专门	-1712
机会	-1713
西安	-1714
过去	-1715
▁出版	-1716
主角	-1717
的历史	-1718
est	-1719
市政府	-1720
自主	-1721
▁第三章	-1722
▁演员	-1723
习惯	-1724
水利	-1725
完整	-1726
▁to	-1727
道德	-1728
的问题	-1729
并在	-1730
费用	-1731
简称	-1732
更新	-1733
摄像	-1734
一年	-1735
职员表	-1736
购物	-1737
二等奖	-1738
家的	-1739
▁对	-1740
董事	-1741
▁e	-1742
播放	-1743
欢迎	-1744
注重	-1745
美容	-1746
杭州	-1747
类别	-1748
▁St	-1749
橡胶	-1750
PS	-1751
实力	-1752
人民共和国	-1753
部长	-1754
消防	-1755
三年	-1756
▁前	-1757
▁y	-1758
工艺品	-1759
突破	-1760
含量	-1761
重视	-1762
比例	-1763
同志	-1764
亚洲	-1765
监测	-1766
也不	-1767
粮食	-1768
十年	-1769
区的	-1770
就会	-1771
)》	-1772
▁陈	-1773
另一	-1774
具备	-1775
产权	-1776
禁止	-1777
斯特	-1778
结束	-1779
浙江省	-1780
服饰	-1781
协助	-1782
在线	-1783
寻找	-1784
手段	-1785
正文	-1786
林业	-1787
网上	-1788
成分	-1789
神秘	-1790
ER	-1791
....	-1792
团体	-1793
指挥	-1794
引进	-1795
小说类型	-1796
定义	-1797
事故	-1798
线路	-1799
的心	-1800
备注	-1801
记者	-1802
▁后	-1803
两种	-1804
推出	-1805
然而	-1806
相应	-1807
幼儿园	-1808
地面	-1809
印度	-1810
城镇	-1811
并不	-1812
阳光	-1813
的地方	-1814
多数	-1815
精品	-1816
也可	-1817
沟通	-1818
歌手	-1819
ec	-1820
公元	-1821
分公司	-1822
造型	-1823
部队	-1824
空调	-1825
社会主义	-1826
各个	-1827
黄色	-1828
也可以	-1829
汉语	-1830
血管	-1831
观察	-1832
▁刘	-1833
信用	-1834
家族	-1835
公司的	-1836
上市	-1837
依据	-1838
——	-1839
轻松	-1840
医师	-1841
▁北京	-1842
确保	-1843
大师	-1844
为一	-1845
▁海	-1846
功率	-1847
ng	-1848
陶瓷	-1849
司法	-1850
犯罪	-1851
AC	-1852
数码	-1853
令人	-1854
顾客	-1855
声音	-1856
的方法	-1857
无论	-1858
创办	-1859
山区	-1860
观众	-1861
他们的	-1862
▁最	-1863
方针	-1864
ows	-1865
ip	-1866
利益	-1867
AM	-1868
鉴定	-1869
人力	-1870
Ch	-1871
管理工作	-1872
仪器仪表	-1873
地震	-1874
up	-1875
收录	-1876
场所	-1877
升级	-1878
教育部	-1879
层次	-1880
传媒	-1881
器械	-1882
新技术	-1883
采取	-1884
人为	-1885
电动	-1886
同年	-1887
▁南	-1888
起点	-1889
乡村	-1890
车辆	-1891
几个	-1892
▁第四章	-1893
河南省	-1894
研究院	-1895
工程师	-1896
治理	-1897
组织实施	-1898
混合	-1899
危险品	-1900
贵州	-1901
年末	-1902
园区	-1903
通知	-1904
宗教	-1905
生存	-1906
现代化	-1907
长的	-1908
。【	-1909
找到	-1910
生育	-1911
▁马	-1912
相同	-1913
协议	-1914
国外	-1915
科学技术	-1916
扩大	-1917
证明	-1918
再次	-1919
城区	-1920
千米	-1921
ud	-1922
之中	-1923
方可	-1924
▁从	-1925
租赁	-1926
机的	-1927
▁该村	-1928
良好	-1929
月至	-1930
为什么	-1931
地处	-1932
能量	-1933
性格	-1934
有些	-1935
画面	-1936
市委	-1937
办事	-1938
PC	-1939
经纪	-1940
▁个人	-1941
▁制作	-1942
体制	-1943
不到	-1944
卫星	-1945
商贸有限公司	-1946
时的	-1947
转让	-1948
▁白	-1949
例如	-1950
▁作品	-1951
种类	-1952
照片	-1953
的作用	-1954
面向	-1955
四川省	-1956
图书馆	-1957
旅行	-1958
名字	-1959
频率	-1960
俄罗斯	-1961
电路	-1962
案件	-1963
人文	-1964
吸引	-1965
症状	-1966
▁水	-1967
小区	-1968
是一家	-1969
领先	-1970
ich	-1971
情况下	-1972
ID	-1973
兴趣	-1974
内存	-1975
只能	-1976
出生于	-1977
one	-1978
满意	-1979
准确	-1980
兄弟	-1981
▁多	-1982
显卡	-1983
轴承	-1984
今天	-1985
概况	-1986
先进的	-1987
男人	-1988
ne	-1989
的同时	-1990
认真	-1991
适用	-1992
适宜	-1993
秘密	-1994
our	-1995
建立了	-1996
分辨	-1997
越来	-1998
启动	-1999
常用	-2000
AN	-2001
便利	-2002
考虑	-2003
诗人	-2004
医药	-2005
互动	-2006
周围	-2007
型号	-2008
女人	-2009
老年	-2010
土壤	-2011
花园	-2012
是以	-2013
情感	-2014
舞蹈	-2015
产量	-2016
入选	-2017
的主	-2018
民国	-2019
越来越	-2020
分配	-2021
舞台	-2022
基层	-2023
钢材	-2024
防止	-2025
首次	-2026
几乎	-2027
家协会	-2028
中小	-2029
一般经营项目	-2030
首先	-2031
indows	-2032
支部	-2033
明确	-2034
的水	-2035
IT	-2036
职能	-2037
处于	-2038
均匀	-2039
完美	-2040
管理的	-2041
硬盘	-2042
给予	-2043
栽培	-2044
新型	-2045
承包	-2046
复合	-2047
发射	-2048
同学	-2049
管道	-2050
▁第五章	-2051
▁你	-2052
ev	-2053
融合	-2054
照明	-2055
奖励	-2056
万人	-2057
ry	-2058
规律	-2059
出场	-2060
破坏	-2061
曾任	-2062
不少	-2063
十八	-2064
”，	-2065
山西	-2066
占地面积	-2067
形成了	-2068
村委会	-2069
褐色	-2070
龙江	-2071
特别是	-2072
青少年	-2073
电线	-2074
怎样	-2075
装饰材料	-2076
的专业	-2077
姓名	-2078
扩展	-2079
▁长	-2080
魔法	-2081
爱好	-2082
ate	-2083
妈妈	-2084
实业	-2085
免疫	-2086
种子	-2087
专题	-2088
排名	-2089
个月	-2090
▁次	-2091
像素	-2092
AR	-2093
健身	-2094
心的	-2095
使得	-2096
▁v	-2097
鼠标	-2098
飞行	-2099
▁全	-2100
设定	-2101
的前	-2102
十六	-2103
流动	-2104
永远	-2105
法学	-2106
强度	-2107
年被	-2108
引导	-2109
▁图书目录	-2110
评论	-2111
合成	-2112
展开	-2113
深圳市	-2114
肿瘤	-2115
事业单位	-2116
相信	-2117
强化	-2118
针纺织品	-2119
的好	-2120
▁原	-2121
介绍了	-2122
护理	-2123
在校	-2124
县城	-2125
副书记	-2126
趋势	-2127
乡镇	-2128
将军	-2129
独特的	-2130
igh	-2131
离开	-2132
早期	-2133
景区	-2134
在此	-2135
包含	-2136
大道	-2137
各级	-2138
住宅	-2139
总结	-2140
江西	-2141
yl	-2142
先进单位	-2143
外国	-2144
可靠	-2145
第一次	-2146
▁In	-2147
保存	-2148
大力	-2149
上了	-2150
图像	-2151
▁角色	-2152
▁The	-2153
AP	-2154
市政	-2155
委托	-2156
保修	-2157
中间	-2158
建设工程	-2159
商标	-2160
书籍	-2161
都会	-2162
条例	-2163
医生	-2164
甘肃	-2165
作业	-2166
首发	-2167
收集	-2168
有关部门	-2169
不足	-2170
家居	-2171
授权	-2172
传输	-2173
工作者	-2174
呼吸	-2175
访问	-2176
英寸	-2177
有限责任	-2178
电压	-2179
ran	-2180
西方	-2181
自行	-2182
适用于	-2183
显著	-2184
少数	-2185
一条	-2186
ong	-2187
▁发展	-2188
三角	-2189
监察	-2190
构建	-2191
贷款	-2192
伤害	-2193
维生素	-2194
ok	-2195
的技术	-2196
逐步	-2197
放在	-2198
中华人民共和国	-2199
▁用	-2200
而是	-2201
扮演	-2202
接收	-2203
信息化	-2204
第七	-2205
考核	-2206
▁详情	-2207
年毕业于	-2208
ian	-2209
频道	-2210
女子	-2211
监管	-2212
▁ISBN	-2213
而不	-2214
近年来	-2215
基因	-2216
总面积	-2217
采购	-2218
陕西	-2219
义务	-2220
装潢	-2221
的企业	-2222
让人	-2223
的方式	-2224
部件	-2225
饮食	-2226
布局	-2227
前的	-2228
支付	-2229
基础设施	-2230
条形	-2231
研制	-2232
联赛	-2233
终于	-2234
分辨率	-2235
律师	-2236
有限责任公司	-2237
年龄	-2238
记载	-2239
IC	-2240
做法	-2241
▁可	-2242
黄金	-2243
附近	-2244
有人	-2245
电信	-2246
音频	-2247
超级	-2248
▁X	-2249
地图	-2250
**	-2251
西部	-2252
传奇	-2253
更是	-2254
就可以	-2255
现状	-2256
内外	-2257
▁自	-2258
的网络	-2259
基本信息	-2260
心理学	-2261
▁六	-2262
密度	-2263
穿越	-2264
伙伴	-2265
研究中心	-2266
定价	-2267
渠道	-2268
一点	-2269
著名的	-2270
邀请	-2271
合金	-2272
爆炸	-2273
黑龙江	-2274
学生的	-2275
▁"	-2276
属性	-2277
税务	-2278
▁附录	-2279
有效期	-2280
ON	-2281
▁阿	-2282
作者简介	-2283
处理器	-2284
qu	-2285
识别	-2286
思路	-2287
TV	-2288
飞机	-2289
▁历史	-2290
贸易有限公司	-2291
监督管理	-2292
视觉	-2293
▁作者简介	-2294
礼品	-2295
讨论	-2296
▁英文	-2297
ph	-2298
ass	-2299
团结	-2300
修改	-2301
戏剧	-2302
刺激	-2303
年获	-2304
权威	-2305
在于	-2306
是个	-2307
在一起	-2308
的基础上	-2309
球队	-2310
人工	-2311
尼亚	-2312
之路	-2313
明星	-2314
▁第六章	-2315
▁cm	-2316
障碍	-2317
▁中文	-2318
湖南省	-2319
预算	-2320
餐厅	-2321
三大	-2322
公主	-2323
务工	-2324
▁清	-2325
一下	-2326
汽车配件	-2327
他在	-2328
股份有限公司	-2329
全省	-2330
▁全国	-2331
▁第六	-2332
含有	-2333
妇女	-2334
▁东	-2335
精彩	-2336
儿子	-2337
国的	-2338
县委	-2339
ity	-2340
DR	-2341
▁数	-2342
人力资源	-2343
度的	-2344
美元	-2345
利亚	-2346
礼仪	-2347
ISBN	-2348
发的	-2349
班牙	-2350
意思	-2351
电机	-2352
进口	-2353
▁生	-2354
分享	-2355
每一个	-2356
湖北省	-2357
脂肪	-2358
哈尔	-2359
辐射	-2360
定期	-2361
年第	-2362
整理	-2363
▁简	-2364
市级	-2365
的时间	-2366
畜牧	-2367
。--	-2368
ith	-2369
赢得	-2370
国有	-2371
通用	-2372
The	-2373
功效	-2374
执法	-2375
地的	-2376
▁光	-2377
发明	-2378
厦门	-2379
中药	-2380
日报	-2381
南北	-2382
初中	-2383
人事	-2384
等方面	-2385
中国共产党	-2386
新疆	-2387
变成	-2388
这样的	-2389
读书	-2390
绘画	-2391
经济发展	-2392
多项	-2393
文化的	-2394
多家	-2395
条形码	-2396
城乡	-2397
苏州	-2398
大部分	-2399
往往	-2400
命运	-2401
木材	-2402
建于	-2403
少女	-2404
宝宝	-2405
胜利	-2406
模块	-2407
资质	-2408
敌人	-2409
▁双	-2410
上下	-2411
太平	-2412
党的	-2413
▁网络	-2414
美食	-2415
危机	-2416
态度	-2417
所谓	-2418
办的	-2419
辅导	-2420
▁国家	-2421
全书	-2422
研究员	-2423
物的	-2424
体重	-2425
有了	-2426
必要	-2427
添加	-2428
步骤	-2429
)(	-2430
ik	-2431
在这	-2432
走向	-2433
▁之	-2434
一家	-2435
医疗器械	-2436
ack	-2437
合并	-2438
生活的	-2439
共享	-2440
舒适	-2441
气温	-2442
”。	-2443
更多的	-2444
安徽省	-2445
山市	-2446
▁项目	-2447
审核	-2448
▁其他	-2449
做到	-2450
呈现	-2451
奥运	-2452
分离	-2453
月任	-2454
得到了	-2455
有时	-2456
离子	-2457
喜欢的	-2458
水泥	-2459
驾驶	-2460
历程	-2461
总收入的	-2462
建有	-2463
格兰	-2464
三等奖	-2465
开拓	-2466
man	-2467
后方可	-2468
围绕	-2469
四个	-2470
眼睛	-2471
十大	-2472
、"	-2473
▁工作	-2474
外科	-2475
And	-2476
觉得	-2477
加快	-2478
余人	-2479
多媒体	-2480
根本	-2481
首届	-2482
合格	-2483
为中国	-2484
平面	-2485
编号	-2486
体中文	-2487
摩托	-2488
ive	-2489
经营范围包括销售	-2490
解决方案	-2491
部的	-2492
那个	-2493
加拿	-2494
语种	-2495
地点	-2496
玩具	-2497
一代	-2498
克斯	-2499
连锁	-2500
告诉	-2501
塑料制品	-2502
年间	-2503
中有	-2504
的话	-2505
当然	-2506
名人	-2507
打印	-2508
VD	-2509
助理	-2510
内置	-2511
科学院	-2512
超市	-2513
最早	-2514
农产品	-2515
se	-2516
负责人	-2517
社团	-2518
生涯	-2519
最近	-2520
方位	-2521
学员	-2522
上述	-2523
截至	-2524
福建省	-2525
流量	-2526
电线电缆	-2527
打开	-2528
强大的	-2529
发育	-2530
展现	-2531
数据库	-2532
调研	-2533
研究会	-2534
所有的	-2535
财富	-2536
感受	-2537
卓越	-2538
本身	-2539
上映	-2540
不再	-2541
二级	-2542
第一个	-2543
干燥	-2544
学士	-2545
洗净	-2546
营业	-2547
到的	-2548
ant	-2549
总体	-2550
观念	-2551
特种	-2552
工厂	-2553
通道	-2554
下载	-2555
比如	-2556
身高	-2557
副局长	-2558
ert	-2559
名的	-2560
萝卜	-2561
配音	-2562
的销售等	-2563
进程	-2564
皇帝	-2565
遗址	-2566
主动	-2567
同样	-2568
问题的	-2569
以为	-2570
学报	-2571
权利	-2572
副教授	-2573
oh	-2574
之外	-2575
下来	-2576
摄像头	-2577
ain	-2578
感情	-2579
▁红	-2580
roid	-2581
效应	-2582
承办	-2583
和平	-2584
℃，	-2585
凭借	-2586
转换	-2587
教室	-2588
uc	-2589
齐全	-2590
宇宙	-2591
键盘	-2592
建筑工程	-2593
厚的	-2594
流通	-2595
▁这	-2596
搜索	-2597
eb	-2598
转移	-2599
河北省	-2600
方的	-2601
有利	-2602
</	-2603
西班牙	-2604
经营活动	-2605
LED	-2606
拓展	-2607
▁周	-2608
优良	-2609
咖啡	-2610
ice	-2611
地铁	-2612
直到	-2613
长江	-2614
纯收入	-2615
产值	-2616
EE	-2617
工资	-2618
生动	-2619
竞赛	-2620
故障	-2621
占地	-2622
考察	-2623
女孩	-2624
国土	-2625
税收	-2626
清晰	-2627
一位	-2628
公布	-2629
io	-2630
水电	-2631
相关部门	-2632
组成员	-2633
多少	-2634
拉丁	-2635
理工	-2636
加拿大	-2637
来到	-2638
多人	-2639
高速公路	-2640
▁第七章	-2641
器的	-2642
罗马	-2643
▁出	-2644
济南	-2645
余篇	-2646
政协	-2647
色的	-2648
世界上	-2649
绝对	-2650
占总收入的	-2651
教研	-2652
家长	-2653
专著	-2654
锈钢	-2655
历任	-2656
活性	-2657
执导	-2658
一名	-2659
课堂	-2660
取得了	-2661
带领	-2662
农村经济	-2663
立体	-2664
科技进步	-2665
交换	-2666
加热	-2667
万平方米	-2668
的要求	-2669
小的	-2670
ee	-2671
召开	-2672
魅力	-2673
抗日	-2674
人在	-2675
预测	-2676
类似	-2677
马克	-2678
边缘	-2679
直径	-2680
II	-2681
）。	-2682
骨干	-2683
修复	-2684
等地	-2685
诉讼	-2686
最具	-2687
ge	-2688
EC	-2689
材质	-2690
养生	-2691
路线	-2692
对手	-2693
ide	-2694
易制	-2695
应急	-2696
组建	-2697
ord	-2698
职称	-2699
传感	-2700
海外	-2701
ff	-2702
百姓	-2703
总部	-2704
十七	-2705
鸡蛋	-2706
▁华	-2707
信息系统	-2708
:"	-2709
细节	-2710
十章	-2711
书中	-2712
发动机	-2713
量的	-2714
百年	-2715
擅长	-2716
多年的	-2717
学的	-2718
▁Un	-2719
易制毒	-2720
润滑	-2721
清洁	-2722
停车	-2723
改进	-2724
不良	-2725
散文	-2726
婚姻	-2727
突然	-2728
第八	-2729
逻辑	-2730
参考文献	-2731
多元	-2732
山水	-2733
正是	-2734
获得了	-2735
▁爱	-2736
总经理	-2737
原创	-2738
的特点	-2739
售后	-2740
分管	-2741
ISO	-2742
观点	-2743
驱动	-2744
如下	-2745
您的	-2746
失去	-2747
积累	-2748
澳大利	-2749
强烈	-2750
师资	-2751
让你	-2752
▁上海	-2753
主要是	-2754
澳大利亚	-2755
乐队	-2756
就读	-2757
作曲	-2758
▁品牌	-2759
劳动力	-2760
加上	-2761
GA	-2762
军队	-2763
pl	-2764
环节	-2765
的社会	-2766
变得	-2767
同步	-2768
end	-2769
咨询服务	-2770
到达	-2771
销售等	-2772
激光	-2773
万吨	-2774
蛋白质	-2775
许可经营项目	-2776
基部	-2777
如今	-2778
回到	-2779
志愿	-2780
画家	-2781
西亚	-2782
出发	-2783
人均纯收入	-2784
用途	-2785
男子	-2786
ex	-2787
中山	-2788
软硬件	-2789
也会	-2790
ire	-2791
是一部	-2792
透明	-2793
▁for	-2794
意外	-2795
年中国	-2796
▁>	-2797
电流	-2798
项目的	-2799
最好	-2800
ES	-2801
有所	-2802
别人	-2803
▁美国	-2804
不锈钢	-2805
▁st	-2806
值得	-2807
广州市	-2808
虚拟	-2809
在这里	-2810
水量	-2811
办事处	-2812
的外	-2813
的教学	-2814
种植业	-2815
群体	-2816
相结合	-2817
▁国际	-2818
的中	-2819
佛教	-2820
配备	-2821
市场营销	-2822
依托	-2823
栏目	-2824
）;	-2825
性别	-2826
词汇	-2827
开关	-2828
资讯	-2829
秘书长	-2830
USB	-2831
有一个	-2832
作战	-2833
MHz	-2834
家庄	-2835
岗位	-2836
播出	-2837
的应用	-2838
辖区	-2839
创立	-2840
真的	-2841
▁第五节	-2842
即使	-2843
月参加	-2844
认可	-2845
一致	-2846
可见	-2847
秉承	-2848
主体	-2849
差异	-2850
继承	-2851
血液	-2852
审查	-2853
纽约	-2854
器件	-2855
知识产权	-2856
提示	-2857
全体	-2858
▁社会	-2859
做出	-2860
诗词	-2861
和管理	-2862
间的	-2863
ect	-2864
遗产	-2865
增值	-2866
较大	-2867
。（	-2868
保留	-2869
内蒙古	-2870
斗争	-2871
以上的	-2872
▁北	-2873
大众	-2874
诗歌	-2875
部位	-2876
热带	-2877
培育	-2878
于一	-2879
过的	-2880
场景	-2881
ntel	-2882
法的	-2883
探讨	-2884
人民币	-2885
高考	-2886
强调	-2887
▁服务	-2888
不知	-2889
难以	-2890
经批准	-2891
陕西省	-2892
投资管理	-2893
传统的	-2894
代表大会	-2895
),	-2896
损失	-2897
异常	-2898
顺利	-2899
传承	-2900
生导师	-2901
文化艺术	-2902
周年	-2903
动漫	-2904
语文	-2905
AD	-2906
正文语种	-2907
▁安	-2908
可是	-2909
地区的	-2910
▁Z	-2911
▁七	-2912
总是	-2913
宁波	-2914
市场的	-2915
繁殖	-2916
深刻	-2917
操作系统	-2918
古典	-2919
周期	-2920
ew	-2921
关节	-2922
学家	-2923
行政村	-2924
▁合作	-2925
防护	-2926
苹果	-2927
▁杨	-2928
男性	-2929
硕士学位	-2930
博士学位	-2931
长沙	-2932
留下	-2933
从此	-2934
最低	-2935
主管部门	-2936
董事长	-2937
所需	-2938
后期	-2939
成的	-2940
无限	-2941
财经	-2942
月生	-2943
中国人民	-2944
对照	-2945
一章	-2946
十一章	-2947
气象	-2948
的内容	-2949
大连	-2950
▁八	-2951
检察	-2952
货币	-2953
的世界	-2954
消息	-2955
上级	-2956
模具	-2957
老人	-2958
"、"	-2959
民政	-2960
身边	-2961
月出生	-2962
重庆市	-2963
尤其是	-2964
失败	-2965
查询	-2966
)、《	-2967
ight	-2968
刊物	-2969
奖项	-2970
ly	-2971
精心	-2972
使命	-2973
运作	-2974
MS	-2975
:(	-2976
又称	-2977
某些	-2978
主人	-2979
网友	-2980
ina	-2981
心灵	-2982
外出	-2983
下辖	-2984
全区	-2985
五年	-2986
均为	-2987
清华	-2988
管理和	-2989
生理	-2990
天地	-2991
多样	-2992
补充	-2993
毕业生	-2994
设计师	-2995
开设	-2996
普及	-2997
讲述了	-2998
区别	-2999
招商	-3000
混凝	-3001
式的	-3002
计划生育	-3003
师生	-3004
界的	-3005
摩托车	-3006
途径	-3007
冒险	-3008
环境保护	-3009
第一章	-3010
▁第八章	-3011
笔记	-3012
当前	-3013
收费	-3014
ash	-3015
成人	-3016
的生产	-3017
CC	-3018
江南	-3019
委员会委员	-3020
▁国	-3021
珠宝	-3022
中国的	-3023
▁字	-3024
岁的	-3025
ick	-3026
▁》、《	-3027
女儿	-3028
化工原料	-3029
物业管理	-3030
多年来	-3031
坐落	-3032
更好	-3033
规定的	-3034
煤炭	-3035
自然科学	-3036
创始	-3037
开发区	-3038
下降	-3039
本品	-3040
十二章	-3041
建造	-3042
收益	-3043
发达	-3044
们的	-3045
▁本书	-3046
不得从事	-3047
为客户	-3048
son	-3049
副主席	-3050
▁该	-3051
大队	-3052
花卉	-3053
热情	-3054
年平均	-3055
结构住房	-3056
已有	-3057
景点	-3058
三十	-3059
使用的	-3060
日在	-3061
世界的	-3062
EN	-3063
山西省	-3064
常委	-3065
活动的	-3066
镜头	-3067
云南省	-3068
融资	-3069
内涵	-3070
错误	-3071
ust	-3072
图文	-3073
情绪	-3074
气体	-3075
中共党员	-3076
相比	-3077
想要	-3078
星级	-3079
深受	-3080
国家和	-3081
年至	-3082
荣誉称号	-3083
教育教学	-3084
战士	-3085
日起	-3086
安全生产	-3087
运动员	-3088
普遍	-3089
更为	-3090
在全国	-3091
的关系	-3092
厨房	-3093
用来	-3094
水果	-3095
法制	-3096
传感器	-3097
帝国	-3098
▁r	-3099
隶属于	-3100
范围内	-3101
已成为	-3102
新区	-3103
图形	-3104
》、	-3105
混凝土	-3106
清洗	-3107
等工作	-3108
制冷	-3109
实现了	-3110
鼓励	-3111
专科	-3112
将其	-3113
大量的	-3114
个体	-3115
▁文	-3116
欣赏	-3117
▁导演	-3118
消化	-3119
第二章	-3120
ort	-3121
天的	-3122
ark	-3123
艺术家	-3124
sh	-3125
度假	-3126
red	-3127
招聘	-3128
相关的	-3129
▁.	-3130
路面	-3131
喜爱	-3132
两人	-3133
权益	-3134
为人	-3135
江西省	-3136
立即	-3137
因而	-3138
旗下	-3139
转变	-3140
深度	-3141
县政府	-3142
抑制	-3143
纪录	-3144
依靠	-3145
清水	-3146
技术人员	-3147
年开始	-3148
最好的	-3149
对方	-3150
▁Pro	-3151
哈尔滨	-3152
灵活	-3153
ore	-3154
肌肤	-3155
较为	-3156
适当	-3157
消除	-3158
撰写	-3159
管理局	-3160
领域的	-3161
全方位	-3162
CPU	-3163
技术转让	-3164
Android	-3165
初级	-3166
实训	-3167
凤凰	-3168
改为	-3169
股票	-3170
自然村	-3171
工会	-3172
企业形象	-3173
压缩	-3174
法律法规	-3175
▁九	-3176
轨道	-3177
出演	-3178
实例	-3179
约翰	-3180
危害	-3181
提名	-3182
理论与	-3183
原始	-3184
当年	-3185
网卡	-3186
转化	-3187
还可以	-3188
申报	-3189
里斯	-3190
篇小说	-3191
经营范围包括许可经营项目	-3192
SC	-3193
灵魂	-3194
随时	-3195
带着	-3196
are	-3197
缺乏	-3198
很大	-3199
经费	-3200
仍然	-3201
一生	-3202
水库	-3203
以前	-3204
地理位置	-3205
官方	-3206
的美	-3207
浪漫	-3208
民用	-3209
公顷	-3210
把握	-3211
加坡	-3212
公众	-3213
答案	-3214
高端	-3215
参加了	-3216
St	-3217
mg	-3218
过滤	-3219
本地	-3220
出来的	-3221
】:	-3222
公寓	-3223
Windows	-3224
每次	-3225
搅拌	-3226
警察	-3227
工艺美术	-3228
AL	-3229
讲师	-3230
产生的	-3231
辉煌	-3232
---	-3233
综合性	-3234
界面	-3235
土木	-3236
专注	-3237
浏览	-3238
题材	-3239
ast	-3240
妻子	-3241
被称为	-3242
领域内的	-3243
十三章	-3244
测定	-3245
体育用品	-3246
双方	-3247
寿命	-3248
和其他	-3249
公社	-3250
▁Sh	-3251
都能	-3252
少许	-3253
校区	-3254
组织的	-3255
灾害	-3256
上有	-3257
拼音	-3258
手册	-3259
要素	-3260
有效的	-3261
同一	-3262
▁……	-3263
接近	-3264
服装鞋帽	-3265
ont	-3266
茶叶	-3267
拉斯	-3268
▁版	-3269
病人	-3270
两次	-3271
长度	-3272
物资	-3273
▁页	-3274
行业的	-3275
▁简体中文	-3276
录音	-3277
第九	-3278
▁花	-3279
iz	-3280
支撑	-3281
企业管理咨询	-3282
总统	-3283
大奖	-3284
用水	-3285
遇到	-3286
事实	-3287
教育的	-3288
工程施工	-3289
审判	-3290
建设的	-3291
近代	-3292
这么	-3293
age	-3294
将会	-3295
各大	-3296
▁月	-3297
网页	-3298
感到	-3299
苏联	-3300
允许	-3301
▁...	-3302
血压	-3303
客房	-3304
出租	-3305
卫视	-3306
不含危险化学品	-3307
恐怖	-3308
服务的	-3309
十九	-3310
优点	-3311
一定的	-3312
ml	-3313
皮革	-3314
太阳能	-3315
第一节	-3316
海南	-3317
沈阳	-3318
理财	-3319
ib	-3320
垃圾	-3321
人群	-3322
▁演	-3323
快捷	-3324
认定	-3325
辣椒	-3326
▁k	-3327
想象	-3328
开展经营活动	-3329
加速	-3330
矛盾	-3331
党支部	-3332
传递	-3333
判断	-3334
▁~	-3335
曾在	-3336
编著	-3337
ll	-3338
标准化	-3339
北京大学	-3340
邮政	-3341
牺牲	-3342
▁文化	-3343
倒入	-3344
ey	-3345
▁黑	-3346
而言	-3347
远程	-3348
制的	-3349
巨大	-3350
高温	-3351
立方	-3352
县级	-3353
年增长	-3354
富有	-3355
的天	-3356
排水	-3357
斯坦	-3358
副会长	-3359
桥梁	-3360
合法	-3361
利润	-3362
个村民	-3363
▁社	-3364
回忆	-3365
获取	-3366
淀粉	-3367
连载于	-3368
平米	-3369
原来	-3370
▁CPU	-3371
小游戏	-3372
：“	-3373
就能	-3374
情节	-3375
大厦	-3376
一场	-3377
号线	-3378
叶片	-3379
违法	-3380
总人口	-3381
外观	-3382
发病	-3383
钢琴	-3384
ach	-3385
的批发	-3386
▁日	-3387
▁将	-3388
经批准的项目	-3389
南部	-3390
ps	-3391
oy	-3392
人民法院	-3393
最为	-3394
郑州	-3395
终端	-3396
一段	-3397
▁出版社	-3398
海军	-3399
辅料	-3400
十四章	-3401
辅助设备	-3402
号码	-3403
巴黎	-3404
房间	-3405
宣布	-3406
身上	-3407
▁吴	-3408
计量	-3409
设计的	-3410
代谢	-3411
合物	-3412
荷兰	-3413
总裁	-3414
ug	-3415
▁名	-3416
零售等	-3417
教练	-3418
▁古	-3419
）：	-3420
饲料	-3421
冲击	-3422
好评	-3423
尽管	-3424
报刊	-3425
eth	-3426
习题	-3427
灌溉	-3428
。”	-3429
力学	-3430
语音	-3431
消失	-3432
管理体系	-3433
Ph	-3434
会的	-3435
视角	-3436
精英	-3437
通讯器材	-3438
相关部门批准	-3439
千年	-3440
签约	-3441
河流	-3442
二年	-3443
农民人均纯收入	-3444
加盟	-3445
▁美	-3446
它是	-3447
主要以	-3448
和发展	-3449
他是	-3450
RO	-3451
NA	-3452
线的	-3453
构造	-3454
全新	-3455
搭配	-3456
上面	-3457
厂商	-3458
业绩	-3459
成功的	-3460
超越	-3461
ET	-3462
水稻	-3463
优美	-3464
彻底	-3465
截止	-3466
须经批准的项目	-3467
慢性	-3468
的不	-3469
▁演员表	-3470
影像	-3471
工作人员	-3472
主要有	-3473
公务	-3474
▁或	-3475
温暖	-3476
仪式	-3477
经相关部门批准	-3478
留学	-3479
▁获奖	-3480
他人	-3481
是什么	-3482
神奇	-3483
营造	-3484
作出	-3485
二章	-3486
市人民政府	-3487
国家的	-3488
工人	-3489
涵盖	-3490
豆腐	-3491
▁开本	-3492
注射	-3493
计算机软硬件	-3494
朝鲜	-3495
万亩	-3496
ment	-3497
保温	-3498
刑事	-3499
结婚	-3500
希腊	-3501
起源	-3502
承诺	-3503
解放军	-3504
此时	-3505
农作物	-3506
ens	-3507
密封	-3508
规章	-3509
客户的	-3510
由此	-3511
▁相关	-3512
SD	-3513
停止	-3514
▁当	-3515
林地	-3516
会展	-3517
大大	-3518
经相关部门批准后方可	-3519
的作品	-3520
接待	-3521
若干	-3522
ure	-3523
面临	-3524
成立了	-3525
研究的	-3526
喜剧	-3527
社会的	-3528
图案	-3529
▁系统	-3530
形状	-3531
客运	-3532
市区	-3533
生产的	-3534
可以在	-3535
大多数	-3536
▁书	-3537
▁第七	-3538
到底	-3539
现为	-3540
ical	-3541
不久	-3542
eg	-3543
来了	-3544
辽宁省	-3545
四年	-3546
损伤	-3547
退休	-3548
商务信息咨询	-3549
象征	-3550
十五章	-3551
贝尔	-3552
阀门	-3553
便捷	-3554
▁第九章	-3555
中等	-3556
▁石	-3557
防水	-3558
防御	-3559
美丽的	-3560
AA	-3561
In	-3562
航天	-3563
▁经济	-3564
生成	-3565
病的	-3566
溶液	-3567
提出了	-3568
ath	-3569
尊重	-3570
孩子的	-3571
经相关部门批准后方可开展经营活动	-3572
发表论文	-3573
哪些	-3574
的人生	-3575
信息技术	-3576
选用	-3577
▁下	-3578
立足	-3579
发电	-3580
插槽	-3581
表明	-3582
ver	-3583
精选	-3584
行的	-3585
▁元	-3586
长约	-3587
任教	-3588
随后	-3589
神话	-3590
游客	-3591
数十	-3592
服务中心	-3593
大战	-3594
小型	-3595
▁副	-3596
▁屏幕	-3597
之处	-3598
▁男	-3599
▁我们	-3600
优惠	-3601
分泌	-3602
奋斗	-3603
两年	-3604
也就是	-3605
教程	-3606
都在	-3607
遗传	-3608
有趣	-3609
起了	-3610
MI	-3611
即将	-3612
党组成员	-3613
场地	-3614
▁英	-3615
的精神	-3616
游戏中	-3617
人和	-3618
相似	-3619
高新技术	-3620
第三章	-3621
▁you	-3622
ue	-3623
大专	-3624
时刻	-3625
彩色	-3626
树立	-3627
劳保	-3628
拟订	-3629
ear	-3630
阿尔	-3631
依法须经批准的项目	-3632
更名为	-3633
前后	-3634
可持续	-3635
进出口业务	-3636
分支	-3637
每日	-3638
▁Th	-3639
前往	-3640
.《	-3641
改编	-3642
附属	-3643
液压	-3644
初步	-3645
及其他	-3646
代码	-3647
ish	-3648
商家	-3649
局部	-3650
变形	-3651
评审	-3652
还要	-3653
的中国	-3654
组长	-3655
干净	-3656
肯定	-3657
中外	-3658
熟悉	-3659
▁世界	-3660
热水	-3661
tern	-3662
短信	-3663
一系列	-3664
框架	-3665
船舶	-3666
北部	-3667
新建	-3668
净化	-3669
首都	-3670
机电产品	-3671
放弃	-3672
一天	-3673
处长	-3674
奉献	-3675
▁序	-3676
燃烧	-3677
畜牧业	-3678
微博	-3679
主持人	-3680
合肥	-3681
两侧	-3682
四大	-3683
月在	-3684
真正的	-3685
确认	-3686
誉为	-3687
▁林	-3688
扫描	-3689
比上	-3690
发出	-3691
采集	-3692
相应的	-3693
较高	-3694
三国	-3695
总数的	-3696
麦克	-3697
优秀的	-3698
年起	-3699
研讨	-3700
ah	-3701
的能力	-3702
仓储	-3703
十字	-3704
制片	-3705
▁龙	-3706
新加坡	-3707
易制毒化学品	-3708
▁内存	-3709
似乎	-3710
养老	-3711
商城	-3712
编辑推荐	-3713
场上	-3714
则是	-3715
就像	-3716
阐述	-3717
财产	-3718
直属	-3719
创始人	-3720
演员备注	-3721
分会	-3722
豪华	-3723
日用品	-3724
▁百	-3725
明的	-3726
氛围	-3727
完成了	-3728
▁风	-3729
触摸	-3730
▁所	-3731
又名	-3732
十六章	-3733
模范	-3734
贫困	-3735
江湖	-3736
味道	-3737
▁基本简介	-3738
会务	-3739
旋转	-3740
依然	-3741
要点	-3742
加大	-3743
研究方向	-3744
▁技术	-3745
ox	-3746
博览	-3747
名单	-3748
▁教育	-3749
巨大的	-3750
售后服务	-3751
颗粒	-3752
里面	-3753
经营的	-3754
西藏	-3755
挖掘	-3756
▁老	-3757
开本	-3758
内容介绍	-3759
经营理念	-3760
办公设备	-3761
释义	-3762
移动电话	-3763
实习	-3764
▁●	-3765
初期	-3766
释放	-3767
第二节	-3768
高压	-3769
什么是	-3770
章节	-3771
诞生	-3772
招生	-3773
输送	-3774
▁罗	-3775
支出	-3776
pr	-3777
高等教育	-3778
▁明	-3779
农田	-3780
▁on	-3781
高达	-3782
密切	-3783
模特	-3784
毫克	-3785
CO	-3786
应用于	-3787
橡胶制品	-3788
指数	-3789
可达	-3790
配方	-3791
畅销	-3792
的文化	-3793
司令	-3794
冷却	-3795
▁卡	-3796
函数	-3797
中部	-3798
的使用	-3799
和服务	-3800
户居住	-3801
民营	-3802
户外	-3803
浓度	-3804
评选	-3805
公民	-3806
▁单	-3807
力和	-3808
季节	-3809
带有	-3810
用法	-3811
为中心	-3812
蓝色	-3813
水的	-3814
及辅助设备	-3815
福利	-3816
▁*	-3817
宠物	-3818
验收	-3819
液体	-3820
党委书记	-3821
TO	-3822
▁<	-3823
一批	-3824
精度	-3825
切成	-3826
天津市	-3827
三章	-3828
▁地	-3829
毕业后	-3830
广播电视	-3831
注意事项	-3832
的形式	-3833
分布于	-3834
医学院	-3835
对话	-3836
级别	-3837
南方	-3838
很快	-3839
上网	-3840
几年	-3841
著有	-3842
不用	-3843
▁村	-3844
带头	-3845
考古	-3846
玫瑰	-3847
疗法	-3848
绩效	-3849
关心	-3850
清楚	-3851
大桥	-3852
耗材	-3853
开启	-3854
春秋	-3855
延伸	-3856
ies	-3857
东京	-3858
DVD	-3859
包装食品	-3860
元件	-3861
US	-3862
优越	-3863
昆明	-3864
不但	-3865
收购	-3866
aw	-3867
▁青	-3868
幽默	-3869
歌词	-3870
篮球	-3871
热爱	-3872
中文网	-3873
▁被	-3874
秩序	-3875
温泉	-3876
▁交通	-3877
指出	-3878
至少	-3879
丈夫	-3880
唱片	-3881
同时也	-3882
▁两	-3883
毛泽	-3884
野生	-3885
严谨	-3886
言情	-3887
学校的	-3888
劳保用品	-3889
农民收入	-3890
联合会	-3891
的一部	-3892
密码	-3893
沿革	-3894
视野	-3895
导航	-3896
林果	-3897
指定	-3898
开始游戏	-3899
有利于	-3900
马克思	-3901
总局	-3902
北方	-3903
尔斯	-3904
激励	-3905
十七章	-3906
教职工	-3907
统治	-3908
对比	-3909
商场	-3910
进取	-3911
▁平装	-3912
包装材料	-3913
发展规划	-3914
常规	-3915
理学	-3916
大气	-3917
这次	-3918
毛泽东	-3919
的第一	-3920
SM	-3921
最初	-3922
大地	-3923
ace	-3924
是对	-3925
为基础	-3926
纠纷	-3927
经销	-3928
上升	-3929
社科	-3930
天使	-3931
届全国	-3932
杰出	-3933
资助	-3934
有线	-3935
精灵	-3936
考生	-3937
空中	-3938
常委会	-3939
的三	-3940
强大	-3941
心脏	-3942
水中	-3943
吉林省	-3944
会有	-3945
非洲	-3946
硬化	-3947
饲养	-3948
机身	-3949
▁让	-3950
词语	-3951
▁山	-3952
市民	-3953
中介	-3954
倡导	-3955
服务器	-3956
▁平	-3957
全新的	-3958
引领	-3959
及相关	-3960
▁电	-3961
导弹	-3962
实时	-3963
理工大学	-3964
东莞	-3965
▁万	-3966
科普	-3967
男女	-3968
就在	-3969
加入中国共产党	-3970
使其	-3971
类的	-3972
战役	-3973
便于	-3974
宏观	-3975
omp	-3976
回归	-3977
眼镜	-3978
操作指南	-3979
原名	-3980
手法	-3981
爱国	-3982
窗口	-3983
也许	-3984
中学生	-3985
涂料	-3986
act	-3987
文体	-3988
▁应用	-3989
丛书名	-3990
为一体的	-3991
科技大学	-3992
维持	-3993
一定要	-3994
月参加工作	-3995
会上	-3996
饰品	-3997
▁如何	-3998
同意	-3999
各自	-4000
应对	-4001
在北京	-4002
印象	-4003
音响	-4004
转型	-4005
▁赵	-4006
时代的	-4007
赛季	-4008
人为本	-4009
年任	-4010
户通	-4011
火车站	-4012
履行	-4013
焊接	-4014
▁及	-4015
各国	-4016
和技术	-4017
▁剧情	-4018
提取	-4019
大批	-4020
名家	-4021
履历	-4022
ep	-4023
大约	-4024
解读	-4025
其中有	-4026
外语	-4027
十八章	-4028
实的	-4029
宾馆	-4030
激情	-4031
客观	-4032
与管理	-4033
可用	-4034
一支	-4035
塑造	-4036
垂直	-4037
细菌	-4038
发起	-4039
都不	-4040
治安	-4041
▁唐	-4042
用量	-4043
首席	-4044
紧密	-4045
年参加	-4046
多篇	-4047
内心	-4048
ost	-4049
一路	-4050
▁+	-4051
的事情	-4052
▁重量	-4053
党组	-4054
别墅	-4055
所长	-4056
第四章	-4057
事情	-4058
认知	-4059
设备的	-4060
纸张	-4061
道具	-4062
优雅	-4063
为您	-4064
王子	-4065
冶金	-4066
湿度	-4067
决赛	-4068
ai	-4069
分解	-4070
射击	-4071
面粉	-4072
军区	-4073
别名	-4074
的大型	-4075
实战	-4076
科学家	-4077
ax	-4078
中医药	-4079
通风	-4080
比亚	-4081
政务	-4082
的艺术	-4083
投影	-4084
一个人	-4085
引擎	-4086
消耗	-4087
产地	-4088
ial	-4089
定制	-4090
赛事	-4091
国防	-4092
时光	-4093
介质	-4094
伦敦	-4095
游泳	-4096
龙头	-4097
设计与	-4098
兼职	-4099
▁参考文献	-4100
黑暗	-4101
预包装食品	-4102
竞争力	-4103
▁|	-4104
rom	-4105
饮料	-4106
进展	-4107
ock	-4108
显存	-4109
AV	-4110
新生	-4111
▁装	-4112
一座	-4113
少数民族	-4114
的学生	-4115
武装	-4116
草原	-4117
下设	-4118
HD	-4119
▁重	-4120
▁Q	-4121
夫人	-4122
▁同	-4123
一部	-4124
巴西	-4125
冲突	-4126
企业形象策划	-4127
卫生院	-4128
供电	-4129
做了	-4130
享有	-4131
形势	-4132
固定资产	-4133
SP	-4134
生平	-4135
耕地面积	-4136
▁re	-4137
骑士	-4138
▁星	-4139
▁使用	-4140
▁宋	-4141
你们	-4142
ld	-4143
光学	-4144
党校	-4145
各界	-4146
健全	-4147
是一本	-4148
修建	-4149
又有	-4150
打击	-4151
拒绝	-4152
带动	-4153
编码	-4154
电台	-4155
千万	-4156
机动	-4157
等多种	-4158
古老	-4159
厚度	-4160
Intel	-4161
ae	-4162
十九章	-4163
完善的	-4164
口腔	-4165
人间	-4166
以外	-4167
指示	-4168
上线	-4169
老板	-4170
消毒	-4171
特色的	-4172
▁第十章	-4173
她们	-4174
一带	-4175
先进集体	-4176
▁i	-4177
水处理	-4178
除经纪	-4179
爸爸	-4180
精华	-4181
导向	-4182
家人	-4183
ary	-4184
▁饰	-4185
小麦	-4186
农业人口	-4187
单词	-4188
点的	-4189
最近的	-4190
▁酒店	-4191
爱好者	-4192
临时	-4193
选手	-4194
零部件	-4195
累积	-4196
ann	-4197
▁is	-4198
成语	-4199
黑龙江省	-4200
Sh	-4201
建设和	-4202
婴儿	-4203
解析	-4204
贯彻执行	-4205
有效期至	-4206
个村民小组	-4207
资深	-4208
首批	-4209
德育	-4210
通讯设备	-4211
本质	-4212
之下	-4213
制剂	-4214
氨基	-4215
面前	-4216
BS	-4217
中级	-4218
icro	-4219
四季	-4220
原子	-4221
从业	-4222
容器	-4223
▁数据	-4224
▁电源	-4225
高层	-4226
▁称号	-4227
担保	-4228
政法	-4229
现已	-4230
展览展示	-4231
演奏	-4232
参演	-4233
批评	-4234
都可以	-4235
ction	-4236
反对	-4237
附件	-4238
装潢材料	-4239
产品质量	-4240
中西	-4241
ohn	-4242
四章	-4243
多名	-4244
作文	-4245
游戏目标	-4246
急性	-4247
立方米	-4248
才是	-4249
得以	-4250
烟花	-4251
▁发行	-4252
体积	-4253
旨在	-4254
那里	-4255
尝试	-4256
随机	-4257
也能	-4258
日子	-4259
小学生	-4260
讲解	-4261
排列	-4262
图书信息	-4263
处的	-4264
在美国	-4265
童话	-4266
最多	-4267
▁其它	-4268
黄河	-4269
，"	-4270
中小学	-4271
全村有	-4272
观赏	-4273
ook	-4274
主办	-4275
东部	-4276
冬季	-4277
跟踪	-4278
等的	-4279
ited	-4280
投资者	-4281
OR	-4282
国民党	-4283
兼任	-4284
民俗	-4285
新鲜	-4286
活力	-4287
清代	-4288
▁包装	-4289
的教育	-4290
月份	-4291
损害	-4292
▁中华	-4293
▁软件	-4294
人民代表大会	-4295
一片	-4296
葡萄酒	-4297
回家	-4298
站在	-4299
ST	-4300
基础上	-4301
条件下	-4302
来看	-4303
雕塑	-4304
融入	-4305
说话	-4306
园林绿化	-4307
经贸	-4308
生日	-4309
ier	-4310
实际上	-4311
当选	-4312
▁心	-4313
生物学	-4314
漂亮	-4315
是不	-4316
该片	-4317
服务等	-4318
apter	-4319
但在	-4320
之地	-4321
ome	-4322
诸多	-4323
拍卖	-4324
ood	-4325
一九	-4326
备用	-4327
风情	-4328
领域内的技术开发	-4329
采访	-4330
副院长	-4331
▁尺寸	-4332
▁行政	-4333
移民	-4334
美女	-4335
的信息	-4336
区划	-4337
慢慢	-4338
始建于	-4339
带来的	-4340
互相	-4341
门户	-4342
成为了	-4343
表彰	-4344
大多	-4345
命名	-4346
性强	-4347
报警	-4348
自来	-4349
康复	-4350
供应商	-4351
▁苏	-4352
等待	-4353
花序	-4354
ond	-4355
疼痛	-4356
PL	-4357
的有	-4358
这部	-4359
及产品	-4360
动脉	-4361
耳机	-4362
的光	-4363
下了	-4364
▁&	-4365
重建	-4366
爱心	-4367
该校	-4368
从小	-4369
常常	-4370
精密	-4371
列入	-4372
难度	-4373
贵的	-4374
残疾	-4375
瑞士	-4376
竞技	-4377
反复	-4378
播种	-4379
阳县	-4380
简单的	-4381
加以	-4382
武术	-4383
为本	-4384
全身	-4385
价值观	-4386
机器人	-4387
疯狂	-4388
还在	-4389
情报	-4390
▁朱	-4391
业有限公司	-4392
VIP	-4393
矿产	-4394
电磁	-4395
的一些	-4396
▁with	-4397
都要	-4398
标准的	-4399
一体化	-4400
率为	-4401
常务理事	-4402
年生	-4403
男孩	-4404
▁关于	-4405
符号	-4406
全镇	-4407
就有	-4408
开创	-4409
坦克	-4410
硕士研究生	-4411
体内	-4412
用药	-4413
而在	-4414
命令	-4415
并没有	-4416
工艺礼品	-4417
委书记	-4418
期待	-4419
糖尿	-4420
分工	-4421
相连	-4422
▁『	-4423
金奖	-4424
信誉	-4425
烹饪	-4426
▁概述	-4427
水分	-4428
更换	-4429
▁编	-4430
的原则	-4431
外出务工	-4432
处罚	-4433
队长	-4434
步行	-4435
可爱	-4436
手续	-4437
累计	-4438
▁女	-4439
慈善	-4440
艺人	-4441
重复	-4442
走进	-4443
权力	-4444
道路为	-4445
痛苦	-4446
统筹	-4447
可在	-4448
花生	-4449
实业有限公司	-4450
邮件	-4451
百万	-4452
节约	-4453
▁条形码	-4454
IM	-4455
还能	-4456
多功能	-4457
一是	-4458
▁复	-4459
之道	-4460
的各种	-4461
弹性	-4462
演讲	-4463
敏感	-4464
五个	-4465
科长	-4466
经济林果	-4467
润滑油	-4468
IA	-4469
烈士	-4470
可供	-4471
斯科	-4472
隧道	-4473
清华大学	-4474
时空	-4475
长春	-4476
选举	-4477
无数	-4478
的网络小说	-4479
生活中	-4480
乘坐	-4481
以其	-4482
年后	-4483
ence	-4484
大于	-4485
再生	-4486
信任	-4487
肌肉	-4488
自信	-4489
公务员	-4490
发表于	-4491
岁月	-4492
物种	-4493
管辖	-4494
”、	-4495
全程	-4496
会在	-4497
姑娘	-4498
新华	-4499
家园	-4500
钢铁	-4501
风云	-4502
房地产开发	-4503
组成的	-4504
人心	-4505
予以	-4506
形成的	-4507
风光	-4508
az	-4509
经营范围包括一般经营项目	-4510
该书	-4511
腐蚀	-4512
▁音乐	-4513
工作室	-4514
甘肃省	-4515
干扰	-4516
▁建筑	-4517
历史上	-4518
▁Ar	-4519
的小说	-4520
▁》，	-4521
合作伙伴	-4522
顶级	-4523
信仰	-4524
的功能	-4525
电影节	-4526
自然资源	-4527
第五章	-4528
低于	-4529
列车	-4530
愿意	-4531
悠久	-4532
建国	-4533
博士生导师	-4534
潮流	-4535
村内	-4536
阿拉	-4537
▁ch	-4538
锻炼	-4539
按摩	-4540
乃至	-4541
成品	-4542
在职	-4543
一类	-4544
十余	-4545
回收	-4546
▁徐	-4547
感动	-4548
想到	-4549
▁根据	-4550
的情况下	-4551
Al	-4552
出血	-4553
一旦	-4554
商务咨询	-4555
丽的	-4556
液晶	-4557
per	-4558
路上	-4559
国王	-4560
我校	-4561
爆发	-4562
果实	-4563
▁视频	-4564
华人	-4565
外交	-4566
否则	-4567
乾隆	-4568
劳务	-4569
油画	-4570
重的	-4571
地上	-4572
市长	-4573
下午	-4574
下去	-4575
附录	-4576
IF	-4577
不知道	-4578
专控	-4579
年级	-4580
平方千米	-4581
)：	-4582
因子	-4583
字数	-4584
协作	-4585
二次	-4586
核桃	-4587
夏季	-4588
更好的	-4589
▁神	-4590
▁；	-4591
Cl	-4592
顶端	-4593
宁夏	-4594
与发展	-4595
▁胡	-4596
饭店	-4597
保养	-4598
审定	-4599
ber	-4600
繁荣	-4601
描写	-4602
无毛	-4603
改革开放	-4604
SO	-4605
自行车	-4606
流传	-4607
食材	-4608
下面	-4609
这就是	-4610
码头	-4611
ory	-4612
纳税	-4613
ign	-4614
剧院	-4615
遵循	-4616
天气	-4617
日益	-4618
人员的	-4619
CE	-4620
人性	-4621
渗透	-4622
大楼	-4623
通俗	-4624
▁前言	-4625
能力的	-4626
卵形	-4627
活跃	-4628
房产	-4629
配有	-4630
自来水	-4631
交叉	-4632
皇家	-4633
▁管理	-4634
力求	-4635
过敏	-4636
总数	-4637
补偿	-4638
好友	-4639
▁负责	-4640
庄村	-4641
极为	-4642
有关规定	-4643
助于	-4644
▁作为	-4645
拥有移动电话	-4646
登场	-4647
路口	-4648
美好	-4649
首饰	-4650
▁微	-4651
紧张	-4652
端口	-4653
人与	-4654
时期的	-4655
▁十	-4656
农户数	-4657
或是	-4658
兼容	-4659
三种	-4660
在这个	-4661
哥哥	-4662
保护区	-4663
▁分	-4664
公告	-4665
储存	-4666
并组织实施	-4667
响应	-4668
平原	-4669
基金会	-4670
▁专业	-4671
对应	-4672
班子	-4673
米的	-4674
一只	-4675
地带	-4676
RS	-4677
汉字	-4678
元年	-4679
另一个	-4680
隐藏	-4681
增加了	-4682
年被评为	-4683
PP	-4684
违反	-4685
嘉宾	-4686
引入	-4687
文具	-4688
发展有限公司	-4689
▁最大	-4690
并非	-4691
牛肉	-4692
显示屏	-4693
入学	-4694
为此	-4695
科大学	-4696
澳门	-4697
教育局	-4698
数控	-4699
调味	-4700
大街	-4701
常年	-4702
树脂	-4703
节奏	-4704
康熙	-4705
学术论文	-4706
二是	-4707
小姐	-4708
华东	-4709
签订	-4710
让我们	-4711
一项	-4712
oth	-4713
▁所属	-4714
出自	-4715
激发	-4716
的长	-4717
港口	-4718
第三节	-4719
太原	-4720
菜单	-4721
个行政村	-4722
尔夫	-4723
智能化	-4724
不了	-4725
宝贝	-4726
工程有限公司	-4727
无人	-4728
sub	-4729
公平	-4730
部署	-4731
arl	-4732
unc	-4733
笔记本	-4734
min	-4735
振动	-4736
投资咨询	-4737
ef	-4738
去世	-4739
均有	-4740
)-	-4741
布置	-4742
所得	-4743
CS	-4744
为企业	-4745
▁由	-4746
结构的	-4747
高科技	-4748
内地	-4749
▁职业	-4750
一张	-4751
;(	-4752
灯具	-4753
人均耕地	-4754
的目的	-4755
▁特	-4756
家乡	-4757
千克	-4758
妹妹	-4759
防火	-4760
本人	-4761
制成	-4762
架构	-4763
实体	-4764
制作人	-4765
精细	-4766
人大常委会	-4767
剧本	-4768
引起的	-4769
出席	-4770
还原	-4771
期货	-4772
现金	-4773
县人	-4774
民事	-4775
集团有限公司	-4776
很好的	-4777
▁克	-4778
不在	-4779
hy	-4780
异的	-4781
清单	-4782
剪辑	-4783
地域	-4784
蓝牙	-4785
进修	-4786
pt	-4787
又是	-4788
爆竹	-4789
提高了	-4790
商品除外	-4791
纳米	-4792
货运	-4793
高档	-4794
收获	-4795
第二次	-4796
▁再	-4797
交往	-4798
泰国	-4799
史上	-4800
益智	-4801
发酵	-4802
村庄	-4803
▁真	-4804
成年	-4805
燃料	-4806
几十	-4807
核算	-4808
除危险化学品	-4809
深化	-4810
两大	-4811
煤矿	-4812
orm	-4813
ss	-4814
集团公司	-4815
总监	-4816
源于	-4817
之为	-4818
尽量	-4819
机遇	-4820
的选择	-4821
向上	-4822
唐代	-4823
晚会	-4824
格局	-4825
)《	-4826
高清	-4827
old	-4828
在国内	-4829
所在地	-4830
宽带	-4831
并将	-4832
▁车	-4833
救助	-4834
婚礼	-4835
区政府	-4836
信访	-4837
含义	-4838
▁法	-4839
ium	-4840
产业化	-4841
的学习	-4842
讲座	-4843
MV	-4844
伯特	-4845
合适	-4846
术语	-4847
前景	-4848
观测	-4849
奥运会	-4850
科学与	-4851
气息	-4852
为主要	-4853
全力	-4854
作词	-4855
通话	-4856
较高的	-4857
今年	-4858
省政府	-4859
足够	-4860
未来的	-4861
很有	-4862
▁研究	-4863
本着	-4864
起义	-4865
身为	-4866
▁正	-4867
瞬间	-4868
技术和	-4869
酱油	-4870
主治	-4871
十年代	-4872
人才培养	-4873
哪里	-4874
美洲	-4875
那样	-4876
厂家	-4877
降水量	-4878
电站	-4879
建筑物	-4880
▁j	-4881
不如	-4882
这位	-4883
情景	-4884
考入	-4885
智力	-4886
派出	-4887
为核心	-4888
之旅	-4889
型的	-4890
出品	-4891
地形	-4892
阶级	-4893
前进	-4894
词典	-4895
修订	-4896
灯光	-4897
期的	-4898
国道	-4899
联邦	-4900
隶属	-4901
怪兽	-4902
明代	-4903
GHz	-4904
▁一个	-4905
主流	-4906
也在	-4907
善于	-4908
EL	-4909
力度	-4910
生产线	-4911
部级	-4912
CH	-4913
优秀教师	-4914
后勤	-4915
参观	-4916
很好	-4917
事务所	-4918
纪检	-4919
▁任	-4920
结论	-4921
锅炉	-4922
自然科学基金	-4923
手工	-4924
带头人	-4925
演绎	-4926
出现在	-4927
一层	-4928
守护	-4929
交办的	-4930
衣服	-4931
的环境	-4932
und	-4933
入口	-4934
主要从事	-4935
管理系统	-4936
ork	-4937
主机	-4938
高等学校	-4939
的海	-4940
争议	-4941
家电	-4942
权的	-4943
学士学位	-4944
显得	-4945
不宜	-4946
孩子们	-4947
以此	-4948
聚集	-4949
▁存储	-4950
进球	-4951
控制系统	-4952
完整的	-4953
宝石	-4954
王国	-4955
饮水	-4956
更有	-4957
大学出版社	-4958
院士	-4959
开发的	-4960
研究和	-4961
▁显卡	-4962
▁他	-4963
并不是	-4964
糖尿病	-4965
牛奶	-4966
细腻	-4967
对其	-4968
第六章	-4969
长安	-4970
激烈	-4971
床上	-4972
说是	-4973
元器件	-4974
增产	-4975
顺序	-4976
意味	-4977
▁第八	-4978
ame	-4979
引发	-4980
欧美	-4981
）（	-4982
控股	-4983
相机	-4984
中小企业	-4985
▁曾	-4986
原本	-4987
率先	-4988
等职	-4989
建筑装饰	-4990
曲线	-4991
尼斯	-4992
很少	-4993
论述	-4994
搭建	-4995
新人	-4996
起到	-4997
延长	-4998
和国家	-4999
无锡	-5000
采用了	-5001
工程设计	-5002
实务	-5003
主干	-5004
年以来	-5005
我是	-5006
疾病的	-5007
当中	-5008
内有	-5009
取消	-5010
年初	-5011
比上年增长	-5012
幻想	-5013
▁艺术	-5014
提前	-5015
矿山	-5016
财务管理	-5017
威胁	-5018
道的	-5019
未知	-5020
▁时	-5021
板块	-5022
股东	-5023
将在	-5024
遭遇	-5025
携带	-5026
省市	-5027
定了	-5028
聪明	-5029
单曲	-5030
乐趣	-5031
缺陷	-5032
岩石	-5033
抓住	-5034
出版的图书	-5035
联合国	-5036
工作中	-5037
证据	-5038
化合物	-5039
红外	-5040
烟花爆竹	-5041
理论和	-5042
为主的	-5043
第二届	-5044
很难	-5045
▁加	-5046
九年	-5047
亲自	-5048
放大	-5049
ite	-5050
就要	-5051
试点	-5052
水质	-5053
一书	-5054
等人	-5055
列为	-5056
报纸	-5057
朝阳	-5058
面上	-5059
说明书	-5060
打破	-5061
清新	-5062
遵守	-5063
对策	-5064
美术学院	-5065
名牌	-5066
队员	-5067
激素	-5068
ix	-5069
的目标	-5070
形态特征	-5071
yst	-5072
的原因	-5073
为止	-5074
的力量	-5075
▁日本	-5076
▁巴	-5077
▁香	-5078
▁特色	-5079
ational	-5080
。。	-5081
姆斯	-5082
多彩	-5083
▁分子	-5084
素质教育	-5085
祖国	-5086
皮革制品	-5087
当今	-5088
放射	-5089
备案	-5090
青海	-5091
温馨	-5092
的音乐	-5093
两岸	-5094
剧名	-5095
新农村	-5096
红军	-5097
职业技术	-5098
▁第十一章	-5099
中毒	-5100
手动	-5101
的质量	-5102
▁亚	-5103
山县	-5104
ile	-5105
的变化	-5106
容积	-5107
PE	-5108
▁组织	-5109
pe	-5110
纵横	-5111
立法	-5112
在一个	-5113
很大的	-5114
注释	-5115
软件及辅助设备	-5116
▁变	-5117
橡塑	-5118
进化	-5119
基督	-5120
译者	-5121
▁教学	-5122
协同	-5123
▁Cl	-5124
种种	-5125
农药	-5126
文化用品	-5127
▁安全	-5128
外形	-5129
企业家	-5130
此次	-5131
进攻	-5132
▁奥	-5133
ilm	-5134
球场	-5135
理由	-5136
零配件	-5137
▁布	-5138
▁第六节	-5139
▁办学	-5140
轿车	-5141
机床	-5142
零件	-5143
主张	-5144
不管	-5145
光明	-5146
的游戏	-5147
尔德	-5148
▁Al	-5149
局局长	-5150
执业	-5151
给了	-5152
▁人物简介	-5153
out	-5154
发展和	-5155
是一位	-5156
恋爱	-5157
稳定性	-5158
▁电子	-5159
赢得了	-5160
感应	-5161
探测	-5162
监督检查	-5163
钢结构	-5164
年平均气温	-5165
贵州省	-5166
影响力	-5167
中原	-5168
低温	-5169
OL	-5170
供水	-5171
瑞典	-5172
椭圆形	-5173
的爱	-5174
的效果	-5175
单位的	-5176
科研成果	-5177
▁姓名	-5178
不见	-5179
静脉	-5180
一线	-5181
▁实验	-5182
总产值	-5183
文化遗产	-5184
少儿	-5185
做的	-5186
自有	-5187
充足	-5188
雕刻	-5189
乐园	-5190
友谊	-5191
距离最近的	-5192
走出	-5193
等多	-5194
价值的	-5195
名师	-5196
毗邻	-5197
参考资料	-5198
外部	-5199
计算机网络	-5200
无需	-5201
新颖	-5202
谈判	-5203
太子	-5204
柔毛	-5205
划分	-5206
职场	-5207
ere	-5208
农副	-5209
发送	-5210
医用	-5211
某种	-5212
车间	-5213
▁正文语种	-5214
一日	-5215
ult	-5216
医科大学	-5217
趣味	-5218
切实	-5219
用地	-5220
线性	-5221
在校学生	-5222
温柔	-5223
义务教育	-5224
明白	-5225
ove	-5226
百科	-5227
开通	-5228
▁Br	-5229
▁定价	-5230
优先	-5231
查看	-5232
生命的	-5233
▁初	-5234
ern	-5235
商店	-5236
年内	-5237
弟子	-5238
不得经营	-5239
▁血	-5240
代表作	-5241
塞尔	-5242
兰州	-5243
超声	-5244
精致	-5245
的市场	-5246
观光	-5247
马克思主义	-5248
积分	-5249
王朝	-5250
主要种植	-5251
保卫	-5252
服用	-5253
三级	-5254
争取	-5255
成型	-5256
交通运输	-5257
命名为	-5258
▁内置	-5259
的概念	-5260
建设项目	-5261
FT	-5262
▁保修	-5263
返回	-5264
的安全	-5265
防范	-5266
确立	-5267
鲁迅	-5268
志愿者	-5269
是连载于	-5270
作了	-5271
商会	-5272
审美	-5273
不好	-5274
并于	-5275
福州	-5276
教育厅	-5277
石家庄	-5278
真相	-5279
贵族	-5280
监控化学品	-5281
扶贫	-5282
▁孙	-5283
竣工	-5284
如果你	-5285
游戏的	-5286
▁小说	-5287
县人民政府	-5288
召唤	-5289
气质	-5290
晚上	-5291
一百	-5292
与中国	-5293
ATA	-5294
一边	-5295
行政管理	-5296
蛋糕	-5297
一本	-5298
安市	-5299
出处	-5300
彼此	-5301
善良	-5302
江市	-5303
太平洋	-5304
ase	-5305
的经济	-5306
股权	-5307
电阻	-5308
▁相	-5309
▁火	-5310
生化	-5311
平安	-5312
设备及	-5313
”、“	-5314
整形	-5315
▁pro	-5316
科研项目	-5317
合伙	-5318
洛阳	-5319
质保	-5320
年前	-5321
说的	-5322
载体	-5323
CP	-5324
坚持以	-5325
▁出版时间	-5326
弘扬	-5327
CM	-5328
历史的	-5329
软件开发	-5330
单一	-5331
历代	-5332
餐馆	-5333
▁地址	-5334
预计	-5335
得名	-5336
教堂	-5337
ata	-5338
历经	-5339
金属制品	-5340
为客户提供	-5341
不错	-5342
风雨	-5343
常见的	-5344
教学班	-5345
▁出生	-5346
人次	-5347
AB	-5348
便是	-5349
借鉴	-5350
创作的	-5351
开始了	-5352
一人	-5353
民办	-5354
▁Mar	-5355
电梯	-5356
胡椒	-5357
广阔	-5358
发掘	-5359
终身	-5360
▁郑	-5361
了中国	-5362
太极	-5363
中最	-5364
达标	-5365
▁帧	-5366
▁伊	-5367
究竟	-5368
的东西	-5369
期限	-5370
安置	-5371
热点	-5372
征收	-5373
生态环境	-5374
展会	-5375
法人	-5376
int	-5377
高于	-5378
的过程	-5379
奇迹	-5380
▁电影	-5381
▁武	-5382
生殖	-5383
口味	-5384
▁An	-5385
境界	-5386
理事长	-5387
器官	-5388
出现了	-5389
起点中文网	-5390
的国际	-5391
全世界	-5392
小结	-5393
科学发展	-5394
特定	-5395
的建设	-5396
是我	-5397
变革	-5398
箱包	-5399
司马	-5400
让我	-5401
古城	-5402
明显的	-5403
低压	-5404
般的	-5405
▁米	-5406
储备	-5407
球员	-5408
剂量	-5409
单独	-5410
宁市	-5411
马来	-5412
▁Unit	-5413
▁Ex	-5414
与其他	-5415
加载	-5416
在大	-5417
披针	-5418
准则	-5419
胡萝卜	-5420
斯卡	-5421
宿舍	-5422
养殖业	-5423
▁好	-5424
下属	-5425
更高	-5426
发放	-5427
姐姐	-5428
有点	-5429
配送	-5430
方程	-5431
市场营销策划	-5432
产生了	-5433
计算机信息系统	-5434
关闭	-5435
的老	-5436
博士后	-5437
团购	-5438
。[	-5439
专任	-5440
这时	-5441
报名	-5442
了一些	-5443
农场	-5444
pis	-5445
渔业	-5446
》;	-5447
调料	-5448
omm	-5449
交通便利	-5450
清除	-5451
牡丹	-5452
的后	-5453
uk	-5454
制药	-5455
长达	-5456
戏曲	-5457
气的	-5458
iss	-5459
系列产品	-5460
今后	-5461
精确	-5462
族自治	-5463
厂房	-5464
会务服务	-5465
会同	-5466
工业大学	-5467
必然	-5468
分别为	-5469
养护	-5470
演变	-5471
eat	-5472
经营管理	-5473
内容包括	-5474
redited	-5475
休息	-5476
的全	-5477
被誉为	-5478
专业委员会	-5479
起草	-5480
下列	-5481
新兴	-5482
的人物	-5483
可以通过	-5484
洗涤	-5485
反射	-5486
省委	-5487
成都市	-5488
不变	-5489
纷纷	-5490
住宿	-5491
宋代	-5492
uncredited	-5493
指令	-5494
稳定的	-5495
ink	-5496
看着	-5497
绝缘	-5498
缺点	-5499
的一切	-5500
笔画	-5501
月加入中国共产党	-5502
▁于	-5503
螺旋	-5504
面包	-5505
提供的	-5506
eng	-5507
是为	-5508
受理	-5509
书院	-5510
名词	-5511
真诚	-5512
矿产品	-5513
其中农业人口	-5514
乐器	-5515
光盘	-5516
味精	-5517
技法	-5518
威尔	-5519
本土	-5520
任意	-5521
较大的	-5522
▁德	-5523
▁何	-5524
正义	-5525
充分发挥	-5526
分散	-5527
封闭	-5528
美术馆	-5529
接着	-5530
凝聚	-5531
存在的	-5532
是最	-5533
▁江	-5534
意志	-5535
不易	-5536
容纳	-5537
活泼	-5538
占有	-5539
背光	-5540
流水	-5541
省内	-5542
勇敢	-5543
昆虫	-5544
内科	-5545
乐团	-5546
燃气	-5547
吉他	-5548
iel	-5549
二人	-5550
教研室	-5551
区委	-5552
▁标准	-5553
展览展示服务	-5554
越南	-5555
空军	-5556
%、	-5557
音效	-5558
海岸	-5559
开业	-5560
招标	-5561
子宫	-5562
注入	-5563
新城	-5564
传动	-5565
此后	-5566
也要	-5567
至于	-5568
前列	-5569
海上	-5570
的情况	-5571
足球俱乐部	-5572
有色	-5573
系数	-5574
任职	-5575
监理	-5576
务实	-5577
心中	-5578
一套	-5579
说法	-5580
钻石	-5581
▁详细	-5582
水晶	-5583
日记	-5584
无论是	-5585
并与	-5586
其余	-5587
主人公	-5588
游击	-5589
节日	-5590
修理	-5591
水平的	-5592
业余	-5593
从事货物	-5594
湿地	-5595
情的	-5596
测绘	-5597
复印	-5598
▁----	-5599
珍珠	-5600
不起	-5601
结晶	-5602
给你	-5603
的需求	-5604
编程	-5605
敬业	-5606
乡村人口	-5607
楼盘	-5608
莲花	-5609
公安局	-5610
水暖	-5611
细致	-5612
东南亚	-5613
美学	-5614
偶像	-5615
公元前	-5616
粉丝	-5617
▁来	-5618
南昌	-5619
完毕	-5620
剧中	-5621
工程专业	-5622
中央电视台	-5623
的开发	-5624
的不同	-5625
的理论	-5626
叫做	-5627
第七章	-5628
跨越	-5629
设计制作	-5630
救援	-5631
伟大的	-5632
的风	-5633
与社会	-5634
是因为	-5635
信息服务	-5636
也就	-5637
替代	-5638
高品质	-5639
每个人	-5640
六年	-5641
张家	-5642
GP	-5643
▁=	-5644
电视机	-5645
减肥	-5646
病变	-5647
于一体的	-5648
印发	-5649
火车	-5650
百分	-5651
链接	-5652
▁剧情简介	-5653
▁活动	-5654
披针形	-5655
育人	-5656
溶解	-5657
沿海	-5658
▁设计	-5659
电工	-5660
宽度	-5661
相继	-5662
婴幼儿	-5663
标签	-5664
▁硬盘	-5665
区内	-5666
流域	-5667
伟大	-5668
▁网站	-5669
料酒	-5670
纪律	-5671
ery	-5672
科学研究	-5673
文本	-5674
高原	-5675
一样的	-5676
资产管理	-5677
固体	-5678
颁发的	-5679
化工原料及产品	-5680
工艺美术品	-5681
观音	-5682
实在	-5683
芝麻	-5684
橡塑制品	-5685
Mar	-5686
的核心	-5687
无一般经营项目	-5688
真空	-5689
专任教师	-5690
前沿	-5691
也没有	-5692
家里	-5693
高级教师	-5694
先后在	-5695
一份	-5696
事迹	-5697
推理	-5698
面板	-5699
甲基	-5700
战场	-5701
疗效	-5702
代替	-5703
办公厅	-5704
官员	-5705
桃花	-5706
领袖	-5707
接壤	-5708
强制	-5709
作家协会	-5710
的规定	-5711
清理	-5712
美人	-5713
看见	-5714
雄厚	-5715
同类	-5716
各部门	-5717
这本书	-5718
硫酸	-5719
逝世	-5720
减轻	-5721
既有	-5722
水面	-5723
紫色	-5724
▁据	-5725
上发表	-5726
鉴赏	-5727
恶魔	-5728
睡眠	-5729
▁生产	-5730
回报	-5731
的花	-5732
的行为	-5733
当事	-5734
赔偿	-5735
依赖	-5736
农村经济总收入	-5737
▁市	-5738
扩张	-5739
由中国	-5740
▁And	-5741
概论	-5742
组成部分	-5743
直至	-5744
紧急	-5745
情人	-5746
体会	-5747
ade	-5748
停车场	-5749
创新的	-5750
▁任务	-5751
却是	-5752
客人	-5753
发生了	-5754
按钮	-5755
转向	-5756
▁现代	-5757
均可	-5758
竟然	-5759
单纯	-5760
排行	-5761
群岛	-5762
文物保护	-5763
消灭	-5764
bps	-5765
报表	-5766
夫妻	-5767
携手	-5768
营销策划	-5769
雷达	-5770
以下简称	-5771
发生在	-5772
通过了	-5773
。“	-5774
让他	-5775
Ar	-5776
之作	-5777
今日	-5778
另有	-5779
器具	-5780
新增	-5781
届中国	-5782
学名	-5783
骨干教师	-5784
▁de	-5785
受欢迎	-5786
总投资	-5787
合作医疗	-5788
查处	-5789
书写	-5790
传染	-5791
贯穿	-5792
体现了	-5793
不含危险品	-5794
有一种	-5795
皇后	-5796
专职	-5797
子女	-5798
之上	-5799
村位于	-5800
描绘	-5801
。②	-5802
制订	-5803
km	-5804
晋江	-5805
思考题	-5806
▁第十二章	-5807
先端	-5808
公关	-5809
亩产	-5810
鉴别	-5811
原文	-5812
让您	-5813
以便	-5814
教科	-5815
au	-5816
极限	-5817
是一名	-5818
冷冻	-5819
请求	-5820
卫生所	-5821
潜力	-5822
烟台	-5823
▁非	-5824
而又	-5825
阅览	-5826
ous	-5827
pp	-5828
撤销	-5829
战国	-5830
▁演职员表	-5831
上午	-5832
感谢	-5833
合作关系	-5834
Th	-5835
参赛	-5836
绍兴	-5837
该剧	-5838
pisod	-5839
尚未	-5840
居委会	-5841
Un	-5842
山的	-5843
推行	-5844
日语	-5845
陆军	-5846
土豆	-5847
贯彻落实	-5848
经营范围包括批发	-5849
材料的	-5850
专注于	-5851
精神文明	-5852
友好	-5853
棉花	-5854
▁sh	-5855
企事业单位	-5856
文化传播	-5857
微生物	-5858
拉克	-5859
机构的	-5860
的高度	-5861
进士	-5862
研究成果	-5863
能在	-5864
NT	-5865
主导	-5866
ley	-5867
可作为	-5868
发性	-5869
▁我的	-5870
地板	-5871
宣传部	-5872
政策和	-5873
▁“	-5874
流畅	-5875
irect	-5876
ric	-5877
氨酸	-5878
法则	-5879
渐渐	-5880
▁身高	-5881
户数	-5882
台北	-5883
▁You	-5884
出现的	-5885
较多	-5886
ime	-5887
许可审批	-5888
小平	-5889
附加	-5890
▁热	-5891
层的	-5892
平凡	-5893
完美的	-5894
▁重要	-5895
人气	-5896
中专	-5897
Win	-5898
信息的	-5899
个性化	-5900
杀人	-5901
口服	-5902
标识	-5903
为广大	-5904
服务业	-5905
塑胶	-5906
▁最佳	-5907
并对	-5908
▁手机	-5909
家协会会员	-5910
职业教育	-5911
是从	-5912
晋升	-5913
发展战略	-5914
散热	-5915
欢乐	-5916
私人	-5917
铃声	-5918
灰色	-5919
的首	-5920
▁功能	-5921
金银	-5922
全年	-5923
控制器	-5924
信赖	-5925
提交	-5926
水资源	-5927
党委副书记	-5928
拟定	-5929
坐落于	-5930
声器	-5931
诊疗	-5932
交通大学	-5933
▁合作作品	-5934
势力	-5935
锅中	-5936
一流的	-5937
▁圣	-5938
岁时	-5939
相当于	-5940
更好地	-5941
lash	-5942
天空	-5943
▁引	-5944
几何	-5945
).	-5946
不够	-5947
入门	-5948
压器	-5949
白云	-5950
验证	-5951
CN	-5952
腾讯	-5953
星期	-5954
人格	-5955
温州	-5956
永恒	-5957
▁旅游	-5958
美味	-5959
需要的	-5960
长大	-5961
LO	-5962
大力发展	-5963
An	-5964
线上	-5965
联想	-5966
的爱情	-5967
万像素	-5968
的双	-5969
理性	-5970
行政法规	-5971
enn	-5972
少量	-5973
火箭	-5974
出土	-5975
名胜	-5976
移植	-5977
▁汉	-5978
工程学院	-5979
后卫	-5980
文书	-5981
杀手	-5982
孤独	-5983
▁后记	-5984
名誉	-5985
扮演角色	-5986
视为	-5987
杆菌	-5988
而来	-5989
这首	-5990
承认	-5991
经济的	-5992
可分为	-5993
技术的进出口业务	-5994
共计	-5995
的通知	-5996
公正	-5997
专用产品	-5998
切换	-5999
先锋	-6000
南海	-6001
Pa	-6002
相传	-6003
背后	-6004
狮子	-6005
举办的	-6006
对称	-6007
观看	-6008
反馈	-6009
摇滚	-6010
阴阳	-6011
▁Bl	-6012
抗战	-6013
翻炒	-6014
洁具	-6015
的最	-6016
贸市场	-6017
高职	-6018
EM	-6019
有助于	-6020
分局	-6021
计算机信息系统安全	-6022
处置	-6023
直播	-6024
三包	-6025
光滑	-6026
有效地	-6027
规范化	-6028
联络	-6029
防腐	-6030
调控	-6031
达成	-6032
▁Man	-6033
百度	-6034
研究室	-6035
不多	-6036
科技成果	-6037
领导下	-6038
枢纽	-6039
效力	-6040
特殊的	-6041
专业技术	-6042
字母	-6043
研讨会	-6044
信念	-6045
▁时间	-6046
该村到	-6047
公用	-6048
均衡	-6049
蒸汽	-6050
总公司	-6051
平时	-6052
率达	-6053
比利	-6054
民用爆炸	-6055
美观	-6056
小于	-6057
杀死	-6058
赋予	-6059
▁音频	-6060
作风	-6061
延续	-6062
各类广告	-6063
师范学院	-6064
务公开	-6065
对抗	-6066
五十	-6067
ivers	-6068
取出	-6069
博览会	-6070
为何	-6071
yn	-6072
比赛中	-6073
▁公司简介	-6074
门窗	-6075
切割	-6076
形容	-6077
BA	-6078
的感觉	-6079
光电	-6080
不得不	-6081
土木结构住房	-6082
总理	-6083
场合	-6084
长城	-6085
du	-6086
▁叶	-6087
体制改革	-6088
服装服饰	-6089
选拔	-6090
▁科	-6091
排放	-6092
▁wh	-6093
淘宝	-6094
巩固	-6095
收到	-6096
▁系列	-6097
，“	-6098
ail	-6099
▁超	-6100
乙烯	-6101
受伤	-6102
登陆	-6103
买卖	-6104
基础知识	-6105
典型的	-6106
的女人	-6107
植株	-6108
发生的	-6109
是一道	-6110
工程建设	-6111
文明单位	-6112
机械设备及配件	-6113
为其	-6114
▁◆	-6115
伦理	-6116
合唱	-6117
石化	-6118
难题	-6119
扶持	-6120
开花	-6121
农业大学	-6122
极其	-6123
经济效益	-6124
出身	-6125
演唱会	-6126
▁Chapter	-6127
变迁	-6128
ake	-6129
有害	-6130
检察院	-6131
诠释	-6132
剧场	-6133
。)	-6134
录制	-6135
腹部	-6136
elf	-6137
怪物	-6138
▁论	-6139
去了	-6140
全乡	-6141
快的	-6142
的结构	-6143
山村	-6144
句话	-6145
社交	-6146
简洁	-6147
开心	-6148
精准	-6149
蝴蝶	-6150
ton	-6151
车程	-6152
▁Sc	-6153
》)	-6154
酒吧	-6155
方形	-6156
参谋	-6157
复兴	-6158
算法	-6159
锂电池	-6160
民用爆炸物品	-6161
缓存	-6162
猪肉	-6163
省部级	-6164
称之为	-6165
山地	-6166
科学的	-6167
▁各	-6168
斯基	-6169
遍布	-6170
作品简介	-6171
QQ	-6172
――	-6173
功夫	-6174
管理办法	-6175
番茄	-6176
与其	-6177
做出了	-6178
扮演角色导演	-6179
话题	-6180
桂林	-6181
第八章	-6182
计算机信息系统安全专用产品	-6183
手指	-6184
为一体	-6185
的两	-6186
的热	-6187
生产基地	-6188
弟弟	-6189
路径	-6190
节省	-6191
▁学习	-6192
羽毛	-6193
人人	-6194
公司在	-6195
DDR	-6196
想法	-6197
农副产品	-6198
曝光	-6199
仲裁	-6200
试题	-6201
处方	-6202
德里	-6203
传统文化	-6204
制备	-6205
结局	-6206
是我国	-6207
借助	-6208
纳入	-6209
制度的	-6210
业主	-6211
兴建	-6212
ris	-6213
▁优秀	-6214
绘制	-6215
▁通过	-6216
的过程中	-6217
纪委	-6218
sp	-6219
检索	-6220
还会	-6221
金钱	-6222
风味	-6223
▁影片	-6224
阴谋	-6225
听到	-6226
党组书记	-6227
回答	-6228
房子	-6229
而不是	-6230
面积为	-6231
万字	-6232
内在	-6233
设机构	-6234
如同	-6235
埃及	-6236
曲目	-6237
头的	-6238
天堂	-6239
愿望	-6240
可能是	-6241
......	-6242
="	-6243
版纸	-6244
太空	-6245
气管	-6246
最有	-6247
白糖	-6248
面团	-6249
只需	-6250
编委	-6251
十佳	-6252
姐妹	-6253
民生	-6254
春天	-6255
壮大	-6256
特尔	-6257
索引	-6258
苗木	-6259
闪光	-6260
金刚	-6261
残疾人	-6262
的机会	-6263
出栏	-6264
晶体	-6265
种族	-6266
。·	-6267
旋律	-6268
橄榄	-6269
缓解	-6270
保密	-6271
这款	-6272
own	-6273
心里	-6274
叙述	-6275
室内外	-6276
全国各地	-6277
，(	-6278
珠海	-6279
风景区	-6280
旅客	-6281
女生	-6282
▁为了	-6283
化石	-6284
olog	-6285
高峰	-6286
行政区域	-6287
孢子	-6288
给人	-6289
老年人	-6290
一对	-6291
多为	-6292
店铺	-6293
西兰	-6294
论证	-6295
金牌	-6296
VGA	-6297
不断提高	-6298
几种	-6299
的综合	-6300
ystem	-6301
已被	-6302
的思想	-6303
CT	-6304
入住	-6305
产业发展	-6306
五大	-6307
辞典	-6308
着力	-6309
有线电视	-6310
向前	-6311
边的	-6312
不需要	-6313
▁mm	-6314
克尔	-6315
生活在	-6316
累积获得	-6317
香味	-6318
AY	-6319
刚刚	-6320
ics	-6321
ech	-6322
一块	-6323
前期	-6324
★★	-6325
士兵	-6326
短期	-6327
金额	-6328
英格兰	-6329
八年	-6330
的人才	-6331
物体	-6332
企业和	-6333
常用的	-6334
▁做	-6335
孔子	-6336
陆续	-6337
创造了	-6338
北大	-6339
合作社	-6340
》（	-6341
城县	-6342
整治	-6343
监狱	-6344
新产品	-6345
芯片组	-6346
以往	-6347
陷入	-6348
▁把	-6349
集合	-6350
次数	-6351
三星	-6352
复制	-6353
性与	-6354
月初	-6355
饮用	-6356
高质量	-6357
墨西	-6358
直流	-6359
头部	-6360
语法	-6361
社会保障	-6362
七年	-6363
室外	-6364
奖最佳	-6365
仅仅	-6366
轮胎	-6367
ux	-6368
标本	-6369
录取	-6370
▁个	-6371
沙漠	-6372
▁而	-6373
大纲	-6374
安防	-6375
▁语言	-6376
债务	-6377
特效	-6378
半年	-6379
▁①	-6380
事物	-6381
数百	-6382
结算	-6383
日军	-6384
威廉	-6385
崛起	-6386
党委委员	-6387
分裂	-6388
勤奋	-6389
铸造	-6390
高血压	-6391
扬州	-6392
ael	-6393
复习	-6394
党组织	-6395
揭示	-6396
等方面的	-6397
日照	-6398
约为	-6399
那种	-6400
千里	-6401
弯曲	-6402
工程技术	-6403
无线电	-6404
对此	-6405
膨胀	-6406
提要	-6407
交界	-6408
能力和	-6409
洗衣	-6410
华南	-6411
稳产	-6412
的需要	-6413
宪法	-6414
的上	-6415
总额	-6416
erv	-6417
每周	-6418
▁城市	-6419
Pro	-6420
印刷时间	-6421
▁be	-6422
▁学	-6423
一中	-6424
彼得	-6425
机体	-6426
扬声器	-6427
导体	-6428
除计算机信息系统安全专用产品	-6429
气氛	-6430
引资	-6431
▁物业	-6432
EX	-6433
地貌	-6434
过渡	-6435
发现了	-6436
先进个人	-6437
有一定的	-6438
玛丽	-6439
歌唱	-6440
催化	-6441
生意	-6442
合作作品	-6443
任命	-6444
等于	-6445
设在	-6446
评定	-6447
法定	-6448
动的	-6449
媒介	-6450
生死	-6451
规划和	-6452
▁丛书名	-6453
同行	-6454
经济社会	-6455
信心	-6456
回顾	-6457
Ex	-6458
自学	-6459
繁华	-6460
锦标	-6461
年获得	-6462
极具	-6463
玄幻	-6464
透过	-6465
镇政府	-6466
遭到	-6467
)/	-6468
鲜明	-6469
音乐学院	-6470
oll	-6471
中所	-6472
寻求	-6473
▁Re	-6474
三次	-6475
关怀	-6476
得知	-6477
闻名	-6478
国立	-6479
▁艾	-6480
山脉	-6481
ict	-6482
栖息	-6483
爱你	-6484
凭许可证	-6485
ru	-6486
之际	-6487
过了	-6488
类型的	-6489
英文名	-6490
小心	-6491
艰苦	-6492
▁中央	-6493
墨西哥	-6494
分支机构	-6495
时装	-6496
她是	-6497
本科生	-6498
大幅	-6499
中型	-6500
之战	-6501
还可	-6502
毒性	-6503
石头	-6504
▁：-	-6505
在其	-6506
科技创新	-6507
国土资源	-6508
站点	-6509
税务局	-6510
▁距离	-6511
光绪	-6512
并有	-6513
ave	-6514
▁木	-6515
杂交	-6516
较低	-6517
颁发	-6518
▁人口	-6519
分枝	-6520
放心	-6521
调试	-6522
随意	-6523
小儿	-6524
▁到	-6525
尚书	-6526
交办的其他	-6527
不受	-6528
武汉市	-6529
为准	-6530
方言	-6531
早在	-6532
MM	-6533
安县	-6534
葫芦	-6535
时间的	-6536
▁it	-6537
正确的	-6538
籍贯	-6539
▁episod	-6540
其次	-6541
▁Film	-6542
半岛	-6543
lor	-6544
▁职员表	-6545
oft	-6546
▁夏	-6547
可谓	-6548
必备	-6549
金融业务	-6550
常务委员会	-6551
一同	-6552
关卡	-6553
创建于	-6554
▁Sp	-6555
▁指	-6556
开发商	-6557
深深	-6558
疲劳	-6559
进而	-6560
许可审批类	-6561
津贴	-6562
许可审批类商品除外	-6563
CI	-6564
较好	-6565
是国内	-6566
口感	-6567
为你	-6568
大脑	-6569
唯一的	-6570
分校	-6571
并以	-6572
出租车	-6573
三维	-6574
业内	-6575
斯的	-6576
染色	-6577
可能会	-6578
依照	-6579
县长	-6580
部落	-6581
▁质量	-6582
产物	-6583
侦探	-6584
歌舞	-6585
参考书	-6586
拯救	-6587
UN	-6588
命题	-6589
鱼类	-6590
和小	-6591
▁HD	-6592
ames	-6593
之子	-6594
四周	-6595
关联	-6596
anc	-6597
成立以来	-6598
之谜	-6599
藏书	-6600
红旗	-6601
▁Pl	-6602
华中	-6603
常识	-6604
高等院校	-6605
班主任	-6606
对待	-6607
▁核心	-6608
主演的	-6609
独家	-6610
目的是	-6611
通信设备	-6612
无穷	-6613
最后的	-6614
关系的	-6615
和中国	-6616
湿润	-6617
健康的	-6618
火山	-6619
本科学	-6620
解决了	-6621
合一	-6622
▁十一	-6623
世界各地	-6624
科幻	-6625
公式	-6626
ose	-6627
另一方面	-6628
照顾	-6629
童年	-6630
启示	-6631
.)	-6632
心情	-6633
高手	-6634
通过对	-6635
▁商	-6636
ance	-6637
中期	-6638
修炼	-6639
物料	-6640
的多	-6641
年轻人	-6642
农家	-6643
是有	-6644
应力	-6645
由来	-6646
提醒	-6647
体质	-6648
玩法	-6649
时间内	-6650
品位	-6651
▁En	-6652
新浪	-6653
▁要	-6654
额定	-6655
远的	-6656
华夏	-6657
不出	-6658
仿真	-6659
自然的	-6660
杰克	-6661
ara	-6662
大酒店	-6663
企业文化	-6664
回来	-6665
抗生素	-6666
日内	-6667
背景设定	-6668
树木	-6669
年出生	-6670
大使	-6671
民众	-6672
远离	-6673
不仅仅	-6674
分布范围	-6675
tt	-6676
战术	-6677
rist	-6678
思想政治	-6679
总值	-6680
用书	-6681
留在	-6682
国民经济	-6683
户型	-6684
破碎	-6685
按键	-6686
读物	-6687
意味着	-6688
▁韩	-6689
办公室主任	-6690
终点	-6691
求职	-6692
演艺	-6693
一道	-6694
万余	-6695
之时	-6696
镇有	-6697
独具	-6698
易懂	-6699
电网	-6700
有关的	-6701
因其	-6702
性状	-6703
淋巴	-6704
ean	-6705
女主角	-6706
▁发	-6707
精美	-6708
国家队	-6709
非法	-6710
理事会	-6711
▁并	-6712
债券	-6713
▁角色演员备注	-6714
cl	-6715
开工	-6716
政府的	-6717
锦标赛	-6718
分区	-6719
日的	-6720
▁香港	-6721
合理的	-6722
有一定	-6723
▁Windows	-6724
▁Sch	-6725
一期	-6726
··	-6727
食品安全	-6728
试图	-6729
亿美元	-6730
活动中	-6731
▁印	-6732
变更	-6733
重生	-6734
品牌的	-6735
每一位	-6736
电子元器件	-6737
天然气	-6738
金山	-6739
及以上	-6740
▁案例	-6741
全长	-6742
国际化	-6743
杭州市	-6744
人们的	-6745
浓郁	-6746
▁成	-6747
看看	-6748
业界	-6749
放置	-6750
氨基酸	-6751
▁本章	-6752
幕后	-6753
微笑	-6754
柠檬	-6755
这类	-6756
工委	-6757
▁基本参数	-6758
奇幻	-6759
突发	-6760
有一些	-6761
水产	-6762
海关	-6763
调解	-6764
职位	-6765
写字	-6766
综合征	-6767
人民医院	-6768
业的	-6769
明天	-6770
自身的	-6771
进行的	-6772
驻地	-6773
ild	-6774
样子	-6775
制作的	-6776
技术研究	-6777
石材	-6778
订单	-6779
美好的	-6780
出售	-6781
复杂的	-6782
天才	-6783
平等	-6784
故乡	-6785
毫无	-6786
充电	-6787
从中	-6788
bit	-6789
▁郭	-6790
是一所	-6791
或许	-6792
护肤	-6793
▁手	-6794
的书	-6795
等领域	-6796
权限	-6797
光泽	-6798
第一名	-6799
口语	-6800
医学会	-6801
旅行社	-6802
接入	-6803
永久	-6804
冰箱	-6805
水上	-6806
▁环境	-6807
纪录片	-6808
特种设备	-6809
有多	-6810
达到了	-6811
常住	-6812
成效	-6813
柴油	-6814
一方面	-6815
全校	-6816
颁奖	-6817
用户的	-6818
克服	-6819
att	-6820
▁综合	-6821
游戏大小	-6822
人生的	-6823
▁著	-6824
线条	-6825
外包	-6826
马来西亚	-6827
封面	-6828
经济林果地	-6829
中华民族	-6830
在他	-6831
市场上	-6832
avid	-6833
学金	-6834
隔离	-6835
环保设备	-6836
人之	-6837
大事	-6838
支持下	-6839
负担	-6840
▁Pr	-6841
▁如果	-6842
co	-6843
忘记	-6844
用户提供	-6845
春季	-6846
最新的	-6847
▁第十三章	-6848
欧阳	-6849
是为了	-6850
▁饰演	-6851
子公司	-6852
国土面积	-6853
年由	-6854
▁乌	-6855
造成的	-6856
工学	-6857
DS	-6858
了他	-6859
第九章	-6860
科院	-6861
!!	-6862
▁。《	-6863
意为	-6864
神秘的	-6865
可持续发展	-6866
排除	-6867
管理学院	-6868
不想	-6869
▁第九	-6870
伊斯	-6871
和大	-6872
交汇	-6873
总建筑面积	-6874
▁外观	-6875
波兰	-6876
聘请	-6877
▁USB	-6878
外的	-6879
冷藏	-6880
艺术的	-6881
并被	-6882
白菜	-6883
▁cl	-6884
推出的	-6885
承受	-6886
担心	-6887
齿轮	-6888
▁工程	-6889
合法权益	-6890
有效灌溉	-6891
寂寞	-6892
懂得	-6893
床上用品	-6894
取代	-6895
精湛	-6896
▁欧洲	-6897
铝合金	-6898
仿佛	-6899
面试	-6900
副校长	-6901
教委	-6902
养成	-6903
病理	-6904
促销	-6905
全面的	-6906
▁◎	-6907
不幸	-6908
家中	-6909
本公司	-6910
法师	-6911
铁道	-6912
网点	-6913
讲话	-6914
▁首	-6915
轻轻	-6916
渴望	-6917
已经成为	-6918
地势	-6919
至上	-6920
菩萨	-6921
专营	-6922
文集	-6923
头发	-6924
量为	-6925
知识和	-6926
招商引资	-6927
数值	-6928
教育工作	-6929
TS	-6930
确实	-6931
的手	-6932
主要包括	-6933
回国	-6934
途中	-6935
海内外	-6936
金融机构	-6937
固定电话	-6938
少的	-6939
日至	-6940
即时	-6941
比对照	-6942
运动会	-6943
有个	-6944
账户	-6945
国家和地区	-6946
受到了	-6947
商学院	-6948
新世纪	-6949
文具用品	-6950
的原	-6951
▁章	-6952
忠诚	-6953
袭击	-6954
主干道	-6955
标题	-6956
▁杜	-6957
年降水量	-6958
不断的	-6959
不懈	-6960
大火	-6961
▁专辑	-6962
强烈的	-6963
表现为	-6964
者和	-6965
管理人员	-6966
援助	-6967
病虫	-6968
给我	-6969
党政	-6970
入侵	-6971
等内容	-6972
其间	-6973
中的应用	-6974
▁Con	-6975
ron	-6976
▁代表	-6977
领导小组	-6978
他说	-6979
独立的	-6980
able	-6981
分别占	-6982
柏林	-6983
文化艺术交流	-6984
偶然	-6985
发热	-6986
存款	-6987
NO	-6988
付款	-6989
大门	-6990
梅花	-6991
生猪	-6992
大胆	-6993
ene	-6994
曾获	-6995
汇集	-6996
稳产农田	-6997
与此	-6998
▁电池	-6999
上部	-7000
收缩	-7001
马拉	-7002
矿物	-7003
华北	-7004
损坏	-7005
相邻	-7006
重组	-7007
供给	-7008
row	-7009
人类的	-7010
会计师	-7011
河道	-7012
机理	-7013
安装工程	-7014
与应用	-7015
你可以	-7016
和社会保障	-7017
的组织	-7018
面貌	-7019
高山	-7020
高稳产农田	-7021
励志	-7022
系统集成	-7023
的国家	-7024
夏天	-7025
石灰	-7026
化学危险品	-7027
庆典	-7028
仓库	-7029
装有	-7030
写的	-7031
空白	-7032
实物	-7033
我市	-7034
HT	-7035
吉祥	-7036
草本	-7037
▁输入	-7038
▁制作人	-7039
▁方	-7040
洛克	-7041
ole	-7042
巧妙	-7043
扎实	-7044
遥控	-7045
克力	-7046
的一本	-7047
消费者的	-7048
愿景	-7049
见的	-7050
译文	-7051
为主题	-7052
ica	-7053
阿拉伯	-7054
开幕	-7055
施行	-7056
世的	-7057
PA	-7058
成套	-7059
修正	-7060
专业化	-7061
大夫	-7062
▁反	-7063
清朝	-7064
是美国	-7065
▁梁	-7066
后者	-7067
艺术学院	-7068
言情小说	-7069
GPS	-7070
全民	-7071
决心	-7072
封建	-7073
风暴	-7074
itt	-7075
真实的	-7076
孵化	-7077
之星	-7078
日用杂	-7079
紧紧	-7080
▁显存	-7081
磷酸	-7082
被人	-7083
DI	-7084
礼物	-7085
变成了	-7086
//	-7087
城市的	-7088
剧照	-7089
组件	-7090
组织开展	-7091
陶瓷制品	-7092
有益	-7093
▁an	-7094
几年来	-7095
师资力量	-7096
麦克风	-7097
扩建	-7098
中国画	-7099
社会科学院	-7100
东路	-7101
恐龙	-7102
品味	-7103
▁建设	-7104
中心的	-7105
▁)，	-7106
服务于	-7107
行政执法	-7108
布鲁	-7109
阻止	-7110
倾向	-7111
▁云	-7112
力争	-7113
▁Ad	-7114
▁体重	-7115
记得	-7116
僵尸	-7117
▁上映	-7118
为目标	-7119
的朋友	-7120
;《	-7121
也很	-7122
技艺	-7123
行驶	-7124
秋季	-7125
年产	-7126
广泛的	-7127
HO	-7128
用车	-7129
恐惧	-7130
ower	-7131
婚纱	-7132
▁省	-7133
明清	-7134
民意	-7135
沉积	-7136
一一	-7137
▁获得	-7138
名录	-7139
有力	-7140
剧团	-7141
马上	-7142
的关键	-7143
app	-7144
单位和	-7145
胶版纸	-7146
高稳产农田地面积	-7147
身心	-7148
考点	-7149
本来	-7150
的相关	-7151
ner	-7152
挑选	-7153
外汇	-7154
自觉	-7155
▁近	-7156
并入	-7157
魔术	-7158
服装设计	-7159
之日起	-7160
心态	-7161
村的	-7162
形的	-7163
网的	-7164
纸制品	-7165
地利	-7166
而出	-7167
组织部	-7168
知名度	-7169
世博	-7170
iam	-7171
喜爱的	-7172
博客	-7173
本市	-7174
运转	-7175
▁by	-7176
年出版	-7177
保罗	-7178
ree	-7179
不论	-7180
资源的	-7181
街道办事处	-7182
针织	-7183
待遇	-7184
禁忌	-7185
两位	-7186
▁生活	-7187
铁矿	-7188
数字化	-7189
ett	-7190
局面	-7191
外国语	-7192
较强的	-7193
珍贵	-7194
%(	-7195
Ad	-7196
啤酒	-7197
面部	-7198
的语言	-7199
国际贸易	-7200
开了	-7201
预警	-7202
MO	-7203
最小	-7204
一部分	-7205
主料	-7206
ool	-7207
▁打	-7208
加油	-7209
▁浙江	-7210
当时的	-7211
指导和	-7212
▁银	-7213
能否	-7214
大规模	-7215
尽可能	-7216
邓小平	-7217
业务范围	-7218
养老保险	-7219
是我们	-7220
ater	-7221
的无	-7222
网游	-7223
展望	-7224
经销商	-7225
一颗	-7226
走了	-7227
卡通	-7228
穿着	-7229
防空	-7230
▁周边	-7231
裂片	-7232
负荷	-7233
ys	-7234
的结果	-7235
奥林	-7236
有序	-7237
班级	-7238
▁★	-7239
的一部分	-7240
大理	-7241
离婚	-7242
尔特	-7243
ins	-7244
坐落在	-7245
收支	-7246
灵感	-7247
▁地理	-7248
的一款	-7249
探险	-7250
▁位于	-7251
华侨	-7252
捐赠	-7253
基本上	-7254
ual	-7255
▁Ph	-7256
浏览器	-7257
沉淀	-7258
不断地	-7259
的人员	-7260
个自然村	-7261
日出生于	-7262
▁谁	-7263
交互	-7264
南路	-7265
ava	-7266
次会议	-7267
副部长	-7268
学研究	-7269
正面	-7270
薄膜	-7271
以免	-7272
▁也	-7273
疑难	-7274
带来了	-7275
用具	-7276
信息公开	-7277
认同	-7278
天文	-7279
衰老	-7280
共青	-7281
分布在	-7282
承接	-7283
▁or	-7284
乔治	-7285
▁，《	-7286
工作和	-7287
于此	-7288
烦恼	-7289
主教	-7290
勇于	-7291
优秀奖	-7292
ista	-7293
太多	-7294
ung	-7295
的位置	-7296
的活动	-7297
习性	-7298
女神	-7299
知的	-7300
浸泡	-7301
与研究	-7302
参展	-7303
▁Wh	-7304
大学的	-7305
▁Part	-7306
的制作	-7307
这张	-7308
静电	-7309
内容简介本书	-7310
对中国	-7311
教学楼	-7312
发光	-7313
添加剂	-7314
第三届	-7315
DC	-7316
▁'	-7317
攻关	-7318
机组	-7319
▁南京	-7320
人称	-7321
▁此	-7322
上去	-7323
关爱	-7324
不住	-7325
中国科学院	-7326
衍生	-7327
环境的	-7328
SS	-7329
▁千	-7330
抗日战争	-7331
▁DDR	-7332
农村合作医疗	-7333
一所	-7334
迄今	-7335
PV	-7336
▁个人简介	-7337
俗称	-7338
估计	-7339
丘陵	-7340
洋葱	-7341
EEE	-7342
ise	-7343
▁摄影	-7344
PG	-7345
再现	-7346
综述	-7347
指导下	-7348
不开	-7349
直立	-7350
行走	-7351
及技术	-7352
高尔夫	-7353
分别是	-7354
在校生	-7355
行业协会	-7356
小镇	-7357
声誉	-7358
月的	-7359
农户总数的	-7360
生产和	-7361
前来	-7362
过来	-7363
▁号	-7364
使之	-7365
同事	-7366
他还	-7367
光驱	-7368
的分析	-7369
▁基本介绍	-7370
分明	-7371
投标	-7372
青睐	-7373
科学发展观	-7374
用人	-7375
出国	-7376
感恩	-7377
她在	-7378
维尔	-7379
管理与	-7380
mA	-7381
坐标	-7382
新中国	-7383
第十二	-7384
之家	-7385
增大	-7386
颁布	-7387
增值电信	-7388
经历了	-7389
▁如	-7390
月中	-7391
见到	-7392
▁me	-7393
公司拥有	-7394
货物运输	-7395
一款	-7396
有什么	-7397
内存容量	-7398
总会	-7399
港澳	-7400
感受到	-7401
名列	-7402
ition	-7403
史料	-7404
医疗卫生	-7405
早餐	-7406
测验	-7407
工业企业	-7408
▁卷	-7409
特长	-7410
oss	-7411
胶囊	-7412
▁我国	-7413
的山	-7414
自杀	-7415
贵金属	-7416
适配	-7417
进村	-7418
明朝	-7419
出去	-7420
不超过	-7421
中共中央	-7422
▁类型	-7423
西洋	-7424
▁摄像头	-7425
看来	-7426
多万元	-7427
多元化	-7428
">	-7429
GO	-7430
直线	-7431
队伍建设	-7432
圆柱	-7433
开水	-7434
首家	-7435
提出的	-7436
这也是	-7437
ichael	-7438
典雅	-7439
回合	-7440
的品牌	-7441
ve	-7442
过度	-7443
占领	-7444
教育培训	-7445
套装	-7446
必要的	-7447
行星	-7448
LE	-7449
名片	-7450
变化的	-7451
开采	-7452
zh	-7453
之乡	-7454
现在的	-7455
线索	-7456
孕妇	-7457
战胜	-7458
市场经济	-7459
户居住砖	-7460
oph	-7461
环球	-7462
怀孕	-7463
▁秦	-7464
拍照	-7465
见证	-7466
青岛市	-7467
总支	-7468
和研究	-7469
儿童文学	-7470
意思是	-7471
▁那	-7472
抵抗	-7473
事一	-7474
门诊	-7475
为国家	-7476
面料	-7477
摩擦	-7478
▁太	-7479
教学质量	-7480
模仿	-7481
丹麦	-7482
补贴	-7483
路灯	-7484
反映了	-7485
农机	-7486
缓慢	-7487
DNA	-7488
艰难	-7489
烤烟	-7490
背面	-7491
授课	-7492
相遇	-7493
▁向	-7494
法治	-7495
管理学	-7496
land	-7497
建筑设计	-7498
ike	-7499
▁》《	-7500
▁信息	-7501
土耳	-7502
文物保护单位	-7503
▁适量	-7504
变压器	-7505
▁春	-7506
人都	-7507
匹配	-7508
ound	-7509
座椅	-7510
户居住于	-7511
瀑布	-7512
亮度	-7513
团长	-7514
是用	-7515
富含	-7516
期望	-7517
吸附	-7518
陈列	-7519
靠近	-7520
花椒	-7521
的标准	-7522
yle	-7523
第十章	-7524
好像	-7525
设备有限公司	-7526
邮电	-7527
海峡	-7528
▁》(	-7529
奠定了	-7530
而已	-7531
西路	-7532
更大的	-7533
等农作物	-7534
很高	-7535
前身	-7536
城堡	-7537
抓好	-7538
欲望	-7539
硬度	-7540
药用	-7541
的孩子	-7542
投诉	-7543
长期从事	-7544
认为是	-7545
从来	-7546
法兰	-7547
是谁	-7548
早年	-7549
相反	-7550
聚会	-7551
供应链	-7552
土耳其	-7553
特有的	-7554
Micro	-7555
不敢	-7556
领导的	-7557
▁定	-7558
显示器	-7559
突出贡献	-7560
网络营销	-7561
早已	-7562
格尔	-7563
第四节	-7564
葡萄牙	-7565
模糊	-7566
其中包括	-7567
▁乐	-7568
某个	-7569
妇科	-7570
致富	-7571
生产经营	-7572
下部	-7573
光纤	-7574
制动	-7575
协商	-7576
开辟	-7577
▁第十四章	-7578
造价	-7579
灌木	-7580
英文名称	-7581
▁十二	-7582
个教学班	-7583
森林公园	-7584
副秘书长	-7585
立项	-7586
矿业	-7587
解答	-7588
参照	-7589
▁导	-7590
▁否	-7591
潜在	-7592
文档	-7593
警方	-7594
历史文化	-7595
af	-7596
应在	-7597
了一种	-7598
的城市	-7599
▁材料	-7600
▁看	-7601
Phone	-7602
温和	-7603
▁拉	-7604
国际机场	-7605
管理制度	-7606
CA	-7607
会所	-7608
▁学院	-7609
的商品	-7610
总线	-7611
支援	-7612
矿产资源	-7613
队的	-7614
服务有限公司	-7615
救灾	-7616
带给	-7617
条款	-7618
香菇	-7619
色泽	-7620
一度	-7621
lex	-7622
特产	-7623
道理	-7624
霉素	-7625
▁一般	-7626
部门的	-7627
暴力	-7628
ott	-7629
复旦	-7630
乡政府	-7631
orld	-7632
女士	-7633
▁ad	-7634
二手	-7635
共赢	-7636
环绕	-7637
▁自动	-7638
的情	-7639
凭证	-7640
转速	-7641
的形成	-7642
ternational	-7643
素材	-7644
特约	-7645
高级工程师	-7646
下游	-7647
土路	-7648
osh	-7649
相同的	-7650
ini	-7651
▁Le	-7652
第一部	-7653
无效	-7654
CR	-7655
浦东	-7656
主板	-7657
的电影	-7658
法庭	-7659
半导体	-7660
要有	-7661
麻烦	-7662
中文系	-7663
▁沙	-7664
他对	-7665
出色	-7666
噪声	-7667
专卖	-7668
三包服务	-7669
占据	-7670
▁飞	-7671
的其他	-7672
赏析	-7673
▁内容	-7674
设计和	-7675
简历	-7676
▁编剧	-7677
中南	-7678
兴奋	-7679
▁精	-7680
人家	-7681
头痛	-7682
淄博	-7683
素养	-7684
制造业	-7685
考验	-7686
自助	-7687
公益事业	-7688
ane	-7689
易于	-7690
武侠	-7691
日制	-7692
传送	-7693
噪音	-7694
选育	-7695
▁歌曲	-7696
易燃	-7697
成份	-7698
及技术的进出口业务	-7699
的医疗	-7700
使人	-7701
配料	-7702
流浪	-7703
国家自然科学基金	-7704
小火	-7705
共青团	-7706
▁He	-7707
▁常	-7708
动员	-7709
外贸	-7710
检疫	-7711
▁比	-7712
本办法	-7713
删除	-7714
叶柄	-7715
FL	-7716
当事人	-7717
支队	-7718
柔软	-7719
成为中国	-7720
就读于	-7721
来源于	-7722
前置	-7723
普查	-7724
SCI	-7725
▁山东	-7726
enter	-7727
东风	-7728
▁历史沿革	-7729
摆脱	-7730
不停	-7731
极端	-7732
时间剧名	-7733
▁校	-7734
邮票	-7735
承载	-7736
许可证有效期至	-7737
极大的	-7738
第一届	-7739
行政主管部门	-7740
联保	-7741
百余	-7742
而过	-7743
火焰	-7744
XP	-7745
模板	-7746
溶于	-7747
遇见	-7748
之美	-7749
了许多	-7750
大厅	-7751
年全国	-7752
▁雷	-7753
脉冲	-7754
的人们	-7755
用心	-7756
的法律	-7757
粉末	-7758
阿里	-7759
风机	-7760
▁书名	-7761
一号	-7762
亮点	-7763
Br	-7764
的那	-7765
见于	-7766
▁机构	-7767
排行榜	-7768
充分利用	-7769
中国当代	-7770
万里	-7771
道教	-7772
中国古代	-7773
的神	-7774
肉牛	-7775
筹备	-7776
专栏	-7777
集贸市场	-7778
击败	-7779
不及	-7780
一次性	-7781
公交车	-7782
口号	-7783
边界	-7784
页面	-7785
影响力的	-7786
重点实验室	-7787
概括	-7788
女王	-7789
约束	-7790
▁油	-7791
阅览室	-7792
▁Ed	-7793
的传统	-7794
的所有	-7795
cc	-7796
军人	-7797
局限	-7798
不可能	-7799
主任医师	-7800
国产	-7801
三产业	-7802
这是一个	-7803
dB	-7804
布拉	-7805
人民出版社	-7806
角色演员备注	-7807
负责全县	-7808
上传	-7809
变换	-7810
振兴	-7811
商业银行	-7812
政权	-7813
坚实	-7814
发扬	-7815
无所	-7816
章程	-7817
社会学	-7818
John	-7819
ward	-7820
堪称	-7821
三人	-7822
代言	-7823
总量	-7824
正规	-7825
跳跃	-7826
职业技术学院	-7827
误差	-7828
BC	-7829
ML	-7830
技术与	-7831
基督教	-7832
时报	-7833
万美元	-7834
DP	-7835
男主角	-7836
微波	-7837
悲剧	-7838
极大	-7839
学习的	-7840
▁ex	-7841
卫生洁具	-7842
城的	-7843
密集	-7844
▁图	-7845
绪论	-7846
周刊	-7847
黑白	-7848
运行环境	-7849
书店	-7850
横向	-7851
激活	-7852
。③	-7853
土石	-7854
下辖村	-7855
古籍	-7856
音像	-7857
在内的	-7858
教育和	-7859
上帝	-7860
也被	-7861
共分	-7862
意的	-7863
饱和	-7864
山镇	-7865
被告	-7866
跟随	-7867
中文名	-7868
有很多	-7869
两面	-7870
也将	-7871
▁英语	-7872
长时间	-7873
荧光	-7874
过于	-7875
Bl	-7876
口碑	-7877
怀疑	-7878
地狱	-7879
君子	-7880
未能	-7881
某一	-7882
新闻出版	-7883
书名	-7884
肠道	-7885
兵团	-7886
功能的	-7887
潜能	-7888
百合	-7889
现代化的	-7890
球形	-7891
irl	-7892
较好的	-7893
▁通	-7894
区分	-7895
出版物	-7896
职业技能	-7897
彝族	-7898
调度	-7899
PCI	-7900
花期	-7901
▁就	-7902
解毒	-7903
第三方	-7904
CDMA	-7905
主频	-7906
本科学历	-7907
SE	-7908
机械工业	-7909
局副局长	-7910
▁田	-7911
起伏	-7912
▁由于	-7913
表情	-7914
晋江文学	-7915
BO	-7916
Sc	-7917
星座	-7918
▁获奖记录	-7919
克里斯	-7920
严重的	-7921
邪恶	-7922
风格的	-7923
在一	-7924
病因	-7925
读音	-7926
启蒙	-7927
手中	-7928
业务的	-7929
所致	-7930
▁性别	-7931
差别	-7932
出场进球	-7933
而成的	-7934
世家	-7935
妊娠	-7936
溶剂	-7937
▁目前	-7938
中考	-7939
拌匀	-7940
延安	-7941
学会理事	-7942
学术交流	-7943
所作	-7944
赛车	-7945
跨国	-7946
TP	-7947
待机	-7948
主要作品	-7949
硕士生导师	-7950
壮族	-7951
酸盐	-7952
▁生长	-7953
的价格	-7954
前卫	-7955
剩余	-7956
每月	-7957
▁农业	-7958
做事	-7959
主要用于	-7960
适宜种植	-7961
变为	-7962
潍坊	-7963
obert	-7964
回族	-7965
标记	-7966
▁episodes	-7967
▁建	-7968
姿态	-7969
泉水	-7970
眼前	-7971
可行	-7972
棕色	-7973
▁at	-7974
很容易	-7975
序列	-7976
公子	-7977
峡谷	-7978
深厚	-7979
感悟	-7980
装甲	-7981
成立的	-7982
山大	-7983
▁谢	-7984
勋章	-7985
在上海	-7986
风湿	-7987
▁领导	-7988
到位	-7989
世纪的	-7990
职业生涯	-7991
乒乓	-7992
党建	-7993
大同	-7994
贴近	-7995
胡椒粉	-7996
光荣	-7997
事一议	-7998
沼气	-7999
就读到	-8000
我要	-8001
▁地理位置	-8002
将以	-8003
流体	-8004
类游戏	-8005
环境优美	-8006
原有	-8007
名校	-8008
可根据	-8009
改良	-8010
冲洗	-8011
月经	-8012
发票	-8013
步伐	-8014
讲究	-8015
勇气	-8016
古今	-8017
国学	-8018
版权	-8019
解剖	-8020
奥林匹	-8021
▁永	-8022
火灾	-8023
最多的	-8024
出版时间	-8025
第一产业	-8026
紫外	-8027
顶尖	-8028
等各种	-8029
同名	-8030
人民群众	-8031
年全村	-8032
MBA	-8033
人民代表大会常务委员会	-8034
批判	-8035
据说	-8036
攻读	-8037
▁形态特征	-8038
维亚	-8039
黄瓜	-8040
油田	-8041
盈利	-8042
全文	-8043
前锋	-8044
高素质	-8045
色素	-8046
▁市场	-8047
经济总收入	-8048
▁说	-8049
两条	-8050
多部	-8051
本次	-8052
变动	-8053
主办的	-8054
哥伦	-8055
时间剧名扮演角色导演	-8056
amp	-8057
从未	-8058
机车	-8059
TA	-8060
解除	-8061
Mbps	-8062
):《	-8063
唱歌	-8064
地名	-8065
尼克	-8066
客户端	-8067
▁波	-8068
政治部	-8069
优秀成果	-8070
PH	-8071
利于	-8072
显微	-8073
个人的	-8074
依旧	-8075
列表	-8076
真人	-8077
钥匙	-8078
最重要的	-8079
反思	-8080
放松	-8081
本草	-8082
创作的网络小说	-8083
一方	-8084
巧克力	-8085
震撼	-8086
主要的	-8087
年荣获	-8088
速率	-8089
出入	-8090
三角形	-8091
是国家	-8092
开办	-8093
持有	-8094
▁哈	-8095
主讲	-8096
交易所	-8097
装饰装修	-8098
化和	-8099
才会	-8100
有一天	-8101
触摸屏	-8102
eter	-8103
动力学	-8104
瑜伽	-8105
ale	-8106
兴起	-8107
腐败	-8108
百家	-8109
市中心	-8110
oo	-8111
之人	-8112
平行	-8113
ese	-8114
▁先	-8115
四十	-8116
娃娃	-8117
并为	-8118
以人为本	-8119
明珠	-8120
级的	-8121
实用性	-8122
iversity	-8123
▁牛	-8124
景色	-8125
FC	-8126
但他	-8127
遗迹	-8128
应用程序	-8129
用作	-8130
于一体	-8131
当天	-8132
春节	-8133
诊治	-8134
客户提供	-8135
短篇小说	-8136
▁已	-8137
缩短	-8138
上市公司	-8139
▁基础设施	-8140
运动的	-8141
钢筋	-8142
产业结构	-8143
切片	-8144
朝廷	-8145
等多个	-8146
销量	-8147
▁le	-8148
教育学院	-8149
升高	-8150
廉政	-8151
充满了	-8152
比利时	-8153
中国人	-8154
师从	-8155
无疑	-8156
蜘蛛	-8157
修养	-8158
焦点	-8159
综艺	-8160
促使	-8161
主义的	-8162
实践中	-8163
通路	-8164
一直在	-8165
上游	-8166
方法和	-8167
三是	-8168
好了	-8169
评委	-8170
▁汽车	-8171
的秘密	-8172
实质	-8173
之心	-8174
克兰	-8175
▁家	-8176
一时	-8177
住在	-8178
六个	-8179
运算	-8180
后面	-8181
根廷	-8182
配套设施	-8183
rap	-8184
保安	-8185
着重	-8186
律宾	-8187
气势	-8188
路易	-8189
服务平台	-8190
工程系	-8191
经营范围包括从事	-8192
▁防	-8193
系统和	-8194
配电	-8195
共产党员	-8196
审议	-8197
的数据	-8198
切除	-8199
菲律宾	-8200
地面接收	-8201
受益	-8202
哺乳	-8203
天线	-8204
造就	-8205
orn	-8206
▁CAS	-8207
碰撞	-8208
卡片	-8209
国籍	-8210
患者的	-8211
尔多	-8212
▁序言	-8213
人大代表	-8214
▁夜	-8215
拆迁	-8216
主营	-8217
市的	-8218
混乱	-8219
的女儿	-8220
整机	-8221
汕头	-8222
站式	-8223
▁获	-8224
攻略	-8225
-(	-8226
经验和	-8227
活动策划	-8228
年版	-8229
合资	-8230
关键词	-8231
清热	-8232
不动	-8233
叙事	-8234
平板	-8235
提倡	-8236
加强对	-8237
世界杯	-8238
拼搏	-8239
丙烯	-8240
并发	-8241
可以说	-8242
▁斯	-8243
▁又	-8244
毫升	-8245
专业施工	-8246
青山	-8247
千瓦	-8248
▁吉	-8249
布莱	-8250
之一的	-8251
你会	-8252
大豆	-8253
▁史	-8254
概率	-8255
时间为	-8256
还没有	-8257
下一	-8258
子里	-8259
干旱	-8260
迷你	-8261
的意义	-8262
工业园区	-8263
无奈	-8264
病例	-8265
村镇	-8266
热量	-8267
军团	-8268
发电机	-8269
草案	-8270
▁其	-8271
▁配音	-8272
奇怪	-8273
实地	-8274
水源	-8275
月亮	-8276
沥青	-8277
性好	-8278
预报	-8279
▁Mc	-8280
▁编辑推荐	-8281
大臣	-8282
物理学	-8283
灾难	-8284
机动车	-8285
程度上	-8286
规划设计	-8287
▁玉	-8288
有色金属	-8289
困境	-8290
直升	-8291
脱离	-8292
农民收入以	-8293
证实	-8294
较小	-8295
做人	-8296
暂时	-8297
率领	-8298
五金工具	-8299
。●	-8300
和对	-8301
爱上	-8302
▁截至	-8303
是目前	-8304
文化传播有限公司	-8305
烟草	-8306
出任	-8307
组织和	-8308
处处长	-8309
文学家	-8310
研究与	-8311
曲折	-8312
▁al	-8313
幼虫	-8314
少年儿童	-8315
知识的	-8316
星星	-8317
月被	-8318
新能源	-8319
花瓣	-8320
▁Ste	-8321
它们的	-8322
试剂	-8323
▁名称	-8324
建筑装潢材料	-8325
主力	-8326
▁毛	-8327
雨量	-8328
适配器	-8329
一件	-8330
将来	-8331
泡沫	-8332
症的	-8333
限定	-8334
在国际	-8335
文化交流	-8336
梦幻	-8337
负责全市	-8338
场的	-8339
先进工作者	-8340
优异	-8341
自然保护区	-8342
山上	-8343
麻醉	-8344
▁Ge	-8345
莫斯科	-8346
行政许可	-8347
▁操作系统	-8348
原来的	-8349
▁公	-8350
出行	-8351
增多	-8352
引用	-8353
羊肉	-8354
心血管	-8355
常住人口	-8356
保洁	-8357
篆刻	-8358
▁家庭	-8359
派出所	-8360
▁行	-8361
要求的	-8362
分数	-8363
幸运	-8364
姓氏	-8365
VI	-8366
的大小	-8367
理想的	-8368
▁创作	-8369
电气设备	-8370
产后	-8371
捞出	-8372
编曲	-8373
鲜花	-8374
起重	-8375
领导人	-8376
▁别	-8377
被迫	-8378
行为的	-8379
与人	-8380
去除	-8381
车型	-8382
国画	-8383
的声音	-8384
规范性	-8385
克拉	-8386
里程	-8387
大学学历	-8388
传达	-8389
▁Am	-8390
二十一	-8391
功耗	-8392
RE	-8393
▁经	-8394
给他	-8395
安德	-8396
北宋	-8397
氯化	-8398
年轻的	-8399
看起来	-8400
通车	-8401
学会会员	-8402
▁第十五章	-8403
▁低	-8404
▁质保	-8405
木制品	-8406
理论与实践	-8407
村级	-8408
领先的	-8409
处分	-8410
深处	-8411
▁广州	-8412
相互作用	-8413
GE	-8414
后人	-8415
房型	-8416
督促	-8417
很高的	-8418
无敌	-8419
明亮	-8420
特点是	-8421
央视	-8422
招收	-8423
▁he	-8424
地说	-8425
第十三	-8426
失踪	-8427
过程中的	-8428
uper	-8429
ky	-8430
北路	-8431
两者	-8432
圣诞	-8433
水泵	-8434
▁企业文化	-8435
区和	-8436
南宋	-8437
独自	-8438
的具体	-8439
通电	-8440
完结	-8441
插图	-8442
▁生日	-8443
亚热带	-8444
酒精	-8445
双向	-8446
▁处理器	-8447
口径	-8448
DA	-8449
派的	-8450
现存	-8451
在我	-8452
拖拉	-8453
陷阱	-8454
For	-8455
进了	-8456
自幼	-8457
展出	-8458
直观	-8459
菜品	-8460
庆祝	-8461
你是	-8462
二氧化	-8463
(《	-8464
他们在	-8465
按规定	-8466
技术创新	-8467
宫廷	-8468
加州	-8469
教会	-8470
我想	-8471
书的	-8472
完备	-8473
历史悠久	-8474
▁诚信	-8475
公里处	-8476
▁商品	-8477
质量管理体系	-8478
溃疡	-8479
▁会	-8480
夫妇	-8481
文联	-8482
结核	-8483
应用介绍	-8484
筛选	-8485
▁介绍	-8486
亲切	-8487
ans	-8488
消防器材	-8489
华丽	-8490
名义	-8491
威力	-8492
ement	-8493
的女孩	-8494
▁广东省	-8495
▁广	-8496
在本	-8497
神的	-8498
赞誉	-8499
纪念馆	-8500
办学理念	-8501
广泛应用于	-8502
手的	-8503
詹姆斯	-8504
▁片	-8505
介入	-8506
照相	-8507
透露	-8508
▁没有	-8509
系统工程	-8510
尼尔	-8511
▁英国	-8512
一般的	-8513
古老的	-8514
可靠性	-8515
专业从事	-8516
之内	-8517
ino	-8518
让她	-8519
▁光驱	-8520
注册资本	-8521
样品	-8522
EP	-8523
参编	-8524
教导	-8525
民营企业	-8526
一届	-8527
聊天	-8528
▁商务	-8529
利率	-8530
片的	-8531
科级	-8532
ART	-8533
~~	-8534
感的	-8535
持久	-8536
熟练	-8537
收录了	-8538
图书目录	-8539
社长	-8540
BM	-8541
为例	-8542
后再	-8543
▁习题	-8544
产业链	-8545
综合治理	-8546
支柱	-8547
笔名	-8548
马尔	-8549
▁即	-8550
东海	-8551
上世纪	-8552
▁铁	-8553
层面	-8554
将成为	-8555
学科带头人	-8556
微机	-8557
点评	-8558
学专业	-8559
▁松	-8560
监制	-8561
药材	-8562
斯顿	-8563
卫生部	-8564
的一生	-8565
亚军	-8566
表现出	-8567
增添	-8568
世人	-8569
丰富多彩	-8570
ethyl	-8571
泰山	-8572
科室	-8573
ons	-8574
同比	-8575
终极	-8576
长途	-8577
传记	-8578
约定	-8579
见面	-8580
农业生产	-8581
约会	-8582
中青年	-8583
之王	-8584
▁词	-8585
水准	-8586
处处	-8587
对接	-8588
会同有关部门	-8589
必需	-8590
殖民	-8591
具体的	-8592
固醇	-8593
库存	-8594
田径	-8595
可爱的	-8596
网民	-8597
全面发展	-8598
世间	-8599
肥料	-8600
发展成为	-8601
▁所属分类	-8602
在日本	-8603
急救	-8604
来电	-8605
失业	-8606
成交	-8607
耐磨	-8608
等相关	-8609
复仇	-8610
欧盟	-8611
乳制品	-8612
分开	-8613
中西医	-8614
为导向	-8615
天天	-8616
奖学金	-8617
同时也是	-8618
课堂教学	-8619
犹如	-8620
▁这个	-8621
楼宇	-8622
害怕	-8623
质量管理	-8624
仔细	-8625
ony	-8626
并通过	-8627
理论的	-8628
炸弹	-8629
光线	-8630
南通	-8631
这座	-8632
建设工程专业施工	-8633
化肥	-8634
北美	-8635
迎接	-8636
日常工作	-8637
质的	-8638
前言	-8639
代号	-8640
第十一章	-8641
▁曹	-8642
开展了	-8643
委员会副主任	-8644
保管	-8645
亲子	-8646
刻录	-8647
勘察	-8648
底部	-8649
武汉大学	-8650
典礼	-8651
分成	-8652
规程	-8653
生产企业	-8654
到来	-8655
后又	-8656
状元	-8657
事业的	-8658
▁福	-8659
聚焦	-8660
作品展	-8661
其中的	-8662
嵌入	-8663
工贸	-8664
局的	-8665
--《	-8666
依次	-8667
浪费	-8668
影响的	-8669
推出了	-8670
官网	-8671
置于	-8672
法学院	-8673
捕捉	-8674
CAD	-8675
礼仪服务	-8676
多平方米	-8677
共建	-8678
牙齿	-8679
读卡	-8680
可选	-8681
装配	-8682
频繁	-8683
肉猪	-8684
结束后	-8685
帝王	-8686
余名	-8687
所著	-8688
一贯	-8689
尔兰	-8690
过多	-8691
▁拉丁	-8692
▁第七节	-8693
裁判	-8694
西湖	-8695
人民检察院	-8696
科研工作	-8697
毁灭	-8698
风水	-8699
客座	-8700
往事	-8701
为社会	-8702
另一种	-8703
改变了	-8704
抵押	-8705
▁机	-8706
月底	-8707
的价值	-8708
补助	-8709
CL	-8710
▁梅	-8711
运河	-8712
数码产品	-8713
重要的是	-8714
征服	-8715
身材	-8716
二期	-8717
编织	-8718
花鸟	-8719
▁能	-8720
启发	-8721
新村	-8722
工程项目	-8723
应邀	-8724
arb	-8725
很强的	-8726
Re	-8727
之所以	-8728
▁盐	-8729
已实现	-8730
的名字	-8731
进度	-8732
奶油	-8733
▁许	-8734
河口	-8735
年生于	-8736
病情	-8737
加入了	-8738
等为主	-8739
宁县	-8740
aur	-8741
倾斜	-8742
名叫	-8743
▁广东	-8744
服务体系	-8745
▁曲	-8746
北海	-8747
护士	-8748
习俗	-8749
土石方	-8750
声乐	-8751
▁Tr	-8752
当选为	-8753
友情	-8754
并提供	-8755
血糖	-8756
个别	-8757
灿烂	-8758
HE	-8759
去皮	-8760
美术设计	-8761
交响	-8762
编排	-8763
扩散	-8764
挪威	-8765
食堂	-8766
形式的	-8767
计生	-8768
健身器材	-8769
将于	-8770
实际情况	-8771
微型	-8772
▁适用	-8773
国有资产	-8774
量身	-8775
条件的	-8776
财经大学	-8777
▁回	-8778
聚合	-8779
:￥	-8780
ºC	-8781
▁×	-8782
▁预	-8783
大展	-8784
疫苗	-8785
及原料	-8786
press	-8787
彩虹	-8788
星球	-8789
真是	-8790
蜂蜜	-8791
假日	-8792
行使	-8793
下旬	-8794
的部分	-8795
复议	-8796
操纵	-8797
苞片	-8798
起来的	-8799
非物质	-8800
一把	-8801
卡尔	-8802
村人	-8803
诱惑	-8804
基金项目	-8805
林木	-8806
这套	-8807
特殊津贴	-8808
后记	-8809
折射	-8810
▁三个	-8811
及应用	-8812
有力的	-8813
制冷设备	-8814
进村道路为	-8815
▁普	-8816
模式的	-8817
聘为	-8818
经验的	-8819
精益	-8820
间隔	-8821
▁英文名	-8822
ei	-8823
派遣	-8824
出资	-8825
草地	-8826
定律	-8827
▁现	-8828
选取	-8829
作出了	-8830
有毒	-8831
整齐	-8832
▁她	-8833
犹太	-8834
表格	-8835
访谈	-8836
退出	-8837
锅内	-8838
悬疑	-8839
着的	-8840
小说网	-8841
负责对	-8842
心理咨询	-8843
西瓜	-8844
有哪些	-8845
ology	-8846
OM	-8847
间接	-8848
风采	-8849
电子设备	-8850
范畴	-8851
OK	-8852
抢救	-8853
变焦	-8854
探究	-8855
路站	-8856
▁科学	-8857
不详	-8858
深的	-8859
而被	-8860
▁创新	-8861
散装	-8862
海口	-8863
诗集	-8864
▁媒体	-8865
系统地	-8866
丝绸	-8867
▁包装清单	-8868
大概	-8869
排出	-8870
肝脏	-8871
讲授	-8872
还将	-8873
畜牧业收入	-8874
收取	-8875
发布会	-8876
死后	-8877
草药	-8878
或其他	-8879
▁英文名称	-8880
壁画	-8881
▁ac	-8882
最早的	-8883
样本	-8884
不得从事增值电信	-8885
体长	-8886
了大量	-8887
▁that	-8888
但却	-8889
剖析	-8890
域名	-8891
▁教授	-8892
工业园	-8893
种植业收入	-8894
微量	-8895
全自动	-8896
户籍	-8897
的农户数	-8898
翡翠	-8899
体育场	-8900
高新技术企业	-8901
农业部	-8902
IG	-8903
客服	-8904
有农户	-8905
难点	-8906
制造商	-8907
半个	-8908
所需的	-8909
民政局	-8910
坚定	-8911
出版的	-8912
而得名	-8913
▁陆	-8914
全日制	-8915
的一致	-8916
糯米	-8917
师大	-8918
贮藏	-8919
这本	-8920
ald	-8921
ife	-8922
一首	-8923
出版社出版时间	-8924
测评	-8925
高分子	-8926
鼠标点击	-8927
肝炎	-8928
转会	-8929
内容的	-8930
十几	-8931
南宁	-8932
月刊	-8933
校舍	-8934
公安机关	-8935
澳洲	-8936
的家	-8937
直达	-8938
果树	-8939
br	-8940
山庄	-8941
徐州	-8942
位的	-8943
粗糙	-8944
让孩子	-8945
但由于	-8946
▁姜	-8947
专属	-8948
精力	-8949
配乐	-8950
变频	-8951
垄断	-8952
▁抗	-8953
工程的	-8954
野生动物	-8955
海水	-8956
理论研究	-8957
上门	-8958
余亩	-8959
一群	-8960
▁温	-8961
圆锥	-8962
校级	-8963
sc	-8964
▁分类	-8965
制片人	-8966
专科学校	-8967
场上位置	-8968
随之	-8969
***	-8970
▁as	-8971
的空间	-8972
保健食品	-8973
新农村建设	-8974
双手	-8975
和尚	-8976
运会	-8977
骨折	-8978
会议室	-8979
敏捷	-8980
户通电	-8981
▁Ser	-8982
有耕地	-8983
路由	-8984
▁荣誉	-8985
三百	-8986
出道	-8987
成药	-8988
ana	-8989
原材料	-8990
na	-8991
▁公里	-8992
炎症	-8993
世界大战	-8994
大海	-8995
情侣	-8996
副主编	-8997
怎么办	-8998
下车	-8999
悬挂	-9000
这就	-9001
▁做法	-9002
的态度	-9003
IV	-9004
夺得	-9005
插入	-9006
片中	-9007
话剧	-9008
▁门	-9009
Sp	-9010
▁临	-9011
一面	-9012
其后	-9013
▁台湾	-9014
迈克尔	-9015
enc	-9016
这一切	-9017
发言	-9018
拥有移动电话的农户数	-9019
始终坚持	-9020
风景名胜	-9021
跟着	-9022
▁自然	-9023
工序	-9024
特级	-9025
祭祀	-9026
落在	-9027
从业人员	-9028
▁中文名称	-9029
▁亩	-9030
粮油	-9031
归纳	-9032
提琴	-9033
▁Comp	-9034
美国的	-9035
出栏肉猪	-9036
▁选	-9037
天后	-9038
Ste	-9039
核心期刊	-9040
制约	-9041
街头	-9042
的前提	-9043
阿根廷	-9044
抽象	-9045
构件	-9046
落的	-9047
全球化	-9048
汇聚	-9049
集镇	-9050
十足	-9051
游览	-9052
▁Intel	-9053
女友	-9054
这项	-9055
等行业	-9056
加密	-9057
季风	-9058
涉嫌	-9059
轨迹	-9060
岛屿	-9061
取决	-9062
得的	-9063
轨道交通	-9064
翅膀	-9065
的表现	-9066
余项	-9067
出版了	-9068
文学奖	-9069
文化产业	-9070
栽培技术	-9071
▁Gu	-9072
拥有电视机	-9073
实证	-9074
学习和	-9075
领导干部	-9076
打工	-9077
热血	-9078
玻璃制品	-9079
▁紫	-9080
分割	-9081
可使	-9082
陌生	-9083
弹簧	-9084
科目	-9085
远远	-9086
广电	-9087
)：《	-9088
珊瑚	-9089
粒子	-9090
恶性	-9091
红楼	-9092
评比	-9093
教学成果	-9094
▁小说类型	-9095
晚报	-9096
考证	-9097
贫血	-9098
保定	-9099
术后	-9100
洪水	-9101
我们将	-9102
正当	-9103
小学校	-9104
登录	-9105
种植面积	-9106
我省	-9107
优质的	-9108
读卡器	-9109
▁流	-9110
了一批	-9111
ideo	-9112
建筑装饰材料	-9113
熊猫	-9114
ank	-9115
曾多次	-9116
寓意	-9117
部和	-9118
新西兰	-9119
▁蓝	-9120
▁学术	-9121
争夺	-9122
高铁	-9123
部部长	-9124
军的	-9125
是通过	-9126
最高的	-9127
管委会	-9128
干事	-9129
集群	-9130
way	-9131
保鲜	-9132
▁投资	-9133
▁深圳	-9134
文体用品	-9135
简约	-9136
的最佳	-9137
施肥	-9138
的角度	-9139
不等	-9140
余年	-9141
▁现任	-9142
ao	-9143
和方法	-9144
杀菌	-9145
%)。	-9146
▁....	-9147
nm	-9148
各有	-9149
节点	-9150
钟表	-9151
鸟类	-9152
充电器	-9153
▁sp	-9154
都没有	-9155
浓缩	-9156
▁人物经历	-9157
月起	-9158
要注意	-9159
除危险品	-9160
钢管	-9161
杀害	-9162
▁子	-9163
真题	-9164
政协委员	-9165
游记	-9166
的时代	-9167
▁网	-9168
坚强	-9169
电商	-9170
量子	-9171
规划教材	-9172
▁冰	-9173
▁主演	-9174
!《	-9175
州的	-9176
庄园	-9177
严格的	-9178
▁简体中文开本	-9179
县的	-9180
源自	-9181
调制	-9182
免信息	-9183
操作方法	-9184
开阔	-9185
设备和	-9186
play	-9187
人际	-9188
已在	-9189
政策的	-9190
IEEE	-9191
场面	-9192
维奇	-9193
装箱	-9194
中国人民解放军	-9195
自愿	-9196
事实上	-9197
文史	-9198
湖泊	-9199
arr	-9200
阐述了	-9201
及制品	-9202
司机	-9203
年华	-9204
VID	-9205
与服务	-9206
分析和	-9207
无比	-9208
精通	-9209
园艺	-9210
定居	-9211
小孩	-9212
第四届	-9213
长篇小说	-9214
▁沈	-9215
利的	-9216
变速	-9217
改革的	-9218
的一次	-9219
爷爷	-9220
产于	-9221
居然	-9222
尽的	-9223
腹泻	-9224
等功能	-9225
------	-9226
▁每	-9227
第十二章	-9228
奥林匹克	-9229
▁至	-9230
录像	-9231
付出	-9232
高新	-9233
员工的	-9234
德华	-9235
蓬勃	-9236
作为一个	-9237
经济管理	-9238
先天	-9239
性疾病	-9240
在外	-9241
族的	-9242
残酷	-9243
怎样的	-9244
听说	-9245
GSM	-9246
▁化学	-9247
▁格	-9248
通往	-9249
pro	-9250
▁John	-9251
再度	-9252
桌面	-9253
的研发	-9254
拥有电视机农户	-9255
与之	-9256
人对	-9257
美化	-9258
日上午	-9259
ication	-9260
村里	-9261
取决于	-9262
身份证	-9263
暴露	-9264
见解	-9265
酸性	-9266
担任职务	-9267
枸杞	-9268
议会	-9269
去的	-9270
奇特	-9271
才华	-9272
拖拉机	-9273
KB	-9274
保证了	-9275
接到	-9276
涉外	-9277
装卸	-9278
非凡	-9279
法官	-9280
落叶	-9281
雄蕊	-9282
其中拥有移动电话	-9283
大全	-9284
遭受	-9285
青铜	-9286
CB	-9287
看出	-9288
阴道	-9289
农民收入主要以	-9290
▁维	-9291
未确定	-9292
了一系列	-9293
硬化的	-9294
RA	-9295
第一家	-9296
科技领域内的技术开发	-9297
植被	-9298
票据	-9299
联通	-9300
要在	-9301
门户网站	-9302
日常生活	-9303
宁波市	-9304
▁注	-9305
境外	-9306
架空	-9307
培训中心	-9308
滨海	-9309
用电	-9310
眼光	-9311
▁上市	-9312
DL	-9313
的金	-9314
考研	-9315
变量	-9316
吸血	-9317
iP	-9318
iew	-9319
展示了	-9320
▁雪	-9321
是大	-9322
针灸	-9323
乳腺	-9324
转动	-9325
的知识	-9326
名著	-9327
蒸发	-9328
air	-9329
稳步	-9330
借款	-9331
武帝	-9332
下来的	-9333
』『	-9334
区位	-9335
▁四川	-9336
▁鸡	-9337
天涯	-9338
安全的	-9339
▁魔	-9340
重点项目	-9341
南京市	-9342
主要职责	-9343
发售	-9344
馆藏	-9345
东与	-9346
显然	-9347
色列	-9348
心动	-9349
农历	-9350
天赋	-9351
妙的	-9352
投资有限公司	-9353
粉碎	-9354
张专辑	-9355
哥伦比亚	-9356
互助	-9357
寄生	-9358
德尔	-9359
打扮	-9360
心理健康	-9361
癌症	-9362
培训班	-9363
与此同时	-9364
为之	-9365
南山	-9366
南与	-9367
ms	-9368
出一	-9369
▁运动	-9370
失去了	-9371
愤怒	-9372
签署	-9373
▁推荐	-9374
分级	-9375
无机	-9376
个社区	-9377
不安	-9378
四方	-9379
用手	-9380
落后	-9381
三分	-9382
北与	-9383
合著	-9384
较少	-9385
章节目录	-9386
▁自然资源	-9387
不明	-9388
为学生	-9389
%-	-9390
女演员	-9391
HDMI	-9392
园林绿化工程	-9393
哈佛	-9394
彰显	-9395
米兰	-9396
▁参加	-9397
的生命	-9398
勘探	-9399
微信	-9400
和使用	-9401
奥地利	-9402
反而	-9403
最后一	-9404
家村	-9405
断裂	-9406
体系的	-9407
埃尔	-9408
示范学校	-9409
万物	-9410
▁可以	-9411
众多的	-9412
内设	-9413
学子	-9414
木耳	-9415
等问题	-9416
检修	-9417
的古	-9418
在我国	-9419
膳食	-9420
家居用品	-9421
的理想	-9422
和高	-9423
暂行	-9424
水土	-9425
文化部	-9426
▁半	-9427
大致	-9428
水文	-9429
▁以及	-9430
前面	-9431
泌尿	-9432
商人	-9433
蘑菇	-9434
型企业	-9435
佛山	-9436
发作	-9437
奖章	-9438
尽快	-9439
暂无	-9440
马斯	-9441
主要内容	-9442
把它	-9443
缺少	-9444
不仅是	-9445
演职员表	-9446
底蕴	-9447
治愈	-9448
年内出栏肉猪	-9449
花的	-9450
不必	-9451
变的	-9452
莱坞	-9453
▁英格兰	-9454
导演电影	-9455
教学工作	-9456
▁宝	-9457
可视	-9458
存放	-9459
ram	-9460
五金产品	-9461
性收入	-9462
卡拉	-9463
酷睿	-9464
之意	-9465
学说	-9466
办公楼	-9467
契约	-9468
无可	-9469
OSS	-9470
教师队伍	-9471
距离最近的车站	-9472
砂糖	-9473
其中从事	-9474
外资	-9475
海域	-9476
盆地	-9477
随笔	-9478
族自治县	-9479
南瓜	-9480
排骨	-9481
限度	-9482
学生在	-9483
理查	-9484
局机关	-9485
大卫	-9486
首创	-9487
被授予	-9488
公害	-9489
通报	-9490
的角色	-9491
HS	-9492
他和	-9493
搜集	-9494
珠宝首饰	-9495
定向	-9496
inux	-9497
中国人民大学	-9498
▁连	-9499
波动	-9500
别人的	-9501
精神文明建设	-9502
▁致	-9503
的科学	-9504
…………	-9505
师傅	-9506
乐观	-9507
低保	-9508
江县	-9509
归来	-9510
月上	-9511
西与	-9512
海南省	-9513
历时	-9514
射线	-9515
穿过	-9516
找到了	-9517
盛顿	-9518
并获得	-9519
EG	-9520
▁立	-9521
定为	-9522
步枪	-9523
西门	-9524
非物质文化遗产	-9525
奖金	-9526
ull	-9527
积累了	-9528
这两	-9529
▁主要作品	-9530
▁制作公司	-9531
候选	-9532
离心	-9533
初级中学	-9534
安装固定电话	-9535
%~	-9536
OP	-9537
乙醇	-9538
拆除	-9539
▁工业	-9540
仅有	-9541
升学	-9542
生姜	-9543
▁分布范围	-9544
同盟	-9545
足以	-9546
完成的	-9547
▁北京市	-9548
其中拥有移动电话农户数	-9549
▁因	-9550
总体规划	-9551
外出务工人数	-9552
一千	-9553
巡回	-9554
歌剧	-9555
乒乓球	-9556
登上	-9557
传媒有限公司	-9558
动手	-9559
复活	-9560
灵敏	-9561
瞄准	-9562
──	-9563
诚实	-9564
团委	-9565
忽视	-9566
▁No	-9567
游戏大小为	-9568
定时	-9569
体力	-9570
▁富	-9571
副本	-9572
崇拜	-9573
截图	-9574
静的	-9575
▁》。	-9576
苗族	-9577
Am	-9578
门的	-9579
exe	-9580
▁译者	-9581
与国际	-9582
ings	-9583
▁第十六章	-9584
台阶	-9585
rit	-9586
▁屏幕尺寸	-9587
Ge	-9588
九龙	-9589
成长的	-9590
打印机	-9591
风貌	-9592
年农村经济总收入	-9593
调理	-9594
迁移	-9595
输入法	-9596
这是一	-9597
基本简介	-9598
细胞的	-9599
性地	-9600
一半	-9601
惊喜	-9602
洛杉	-9603
件事	-9604
声明	-9605
气动	-9606
画的	-9607
试卷	-9608
SATA	-9609
骨骼	-9610
等专业	-9611
ount	-9612
经济开发区	-9613
转入	-9614
线程	-9615
追踪	-9616
ode	-9617
光源	-9618
后在	-9619
声卡	-9620
平均亩产	-9621
份额	-9622
古迹	-9623
沃尔	-9624
发展到	-9625
来自于	-9626
是将	-9627
百强	-9628
SA	-9629
日下午	-9630
等服务	-9631
之初	-9632
供销	-9633
泉州	-9634
示例	-9635
以太	-9636
变种	-9637
米尔	-9638
▁情	-9639
▁莫	-9640
上一	-9641
风扇	-9642
演员表	-9643
村内主干道	-9644
▁深	-9645
担当	-9646
行程	-9647
赠送	-9648
筹建	-9649
作品的	-9650
的农户	-9651
主要依靠	-9652
流转	-9653
东莞市	-9654
纯净	-9655
身的	-9656
语言学	-9657
严肃	-9658
减速	-9659
快递	-9660
投票	-9661
及其它	-9662
坐在	-9663
祝福	-9664
等国家	-9665
监视	-9666
讨厌	-9667
▁商业	-9668
可用于	-9669
死了	-9670
静态	-9671
不同于	-9672
运营商	-9673
门口	-9674
光照	-9675
国语	-9676
引人	-9677
水肿	-9678
▁外形	-9679
▁经营	-9680
安全性	-9681
世代	-9682
农林	-9683
往来	-9684
▁主料	-9685
产业的	-9686
军官	-9687
多位	-9688
三峡	-9689
出于	-9690
▁科技	-9691
斯塔	-9692
传真	-9693
水域	-9694
新一代	-9695
有可能	-9696
改建	-9697
是他	-9698
狐狸	-9699
默默	-9700
ream	-9701
▁页数	-9702
enz	-9703
也不会	-9704
编辑部	-9705
亚太	-9706
短片	-9707
我公司	-9708
电动机	-9709
投产	-9710
真理	-9711
东南部	-9712
Fran	-9713
复旦大学	-9714
年春	-9715
便秘	-9716
性感	-9717
指引	-9718
调查研究	-9719
▁给	-9720
特邀	-9721
银河	-9722
的分类	-9723
▁山东省	-9724
亲情	-9725
既是	-9726
:'	-9727
大方	-9728
沙滩	-9729
侦察	-9730
夜间	-9731
版的	-9732
钢板	-9733
外表	-9734
的发生	-9735
成熟的	-9736
研究领域	-9737
药房	-9738
京剧	-9739
。--《	-9740
从事货物及技术的进出口业务	-9741
市政工程	-9742
起步	-9743
为大	-9744
楼层	-9745
ors	-9746
在国内外	-9747
初始	-9748
此书	-9749
香油	-9750
年份	-9751
▁农村经济	-9752
科技进步二等奖	-9753
代价	-9754
可口	-9755
地段	-9756
渊源	-9757
绿地	-9758
不得经营等	-9759
洛杉矶	-9760
劳动模范	-9761
享年	-9762
挂牌	-9763
安装固定电话或	-9764
助手	-9765
阵容	-9766
的一般	-9767
填写	-9768
精髓	-9769
问答	-9770
双重	-9771
假设	-9772
却又	-9773
听力	-9774
多层	-9775
小吃	-9776
▁GB	-9777
的平台	-9778
胆固醇	-9779
构筑	-9780
衔接	-9781
▁湖南	-9782
转化为	-9783
▁计算机	-9784
年全村经济总收入	-9785
一心	-9786
庭院	-9787
一大	-9788
价比	-9789
体外	-9790
定量	-9791
汤姆	-9792
选为	-9793
送到	-9794
里克	-9795
▁§	-9796
审理	-9797
比喻	-9798
以下的	-9799
负责本	-9800
也为	-9801
▁普通	-9802
▁特点	-9803
石器	-9804
赚钱	-9805
水利水电	-9806
等作物	-9807
脱落	-9808
▁植物	-9809
我在	-9810
用了	-9811
▁pl	-9812
相处	-9813
素有	-9814
和计划生育	-9815
思想的	-9816
▁角色介绍	-9817
搜索引擎	-9818
年到	-9819
一世	-9820
海底	-9821
是全国	-9822
的一首	-9823
xt	-9824
乘客	-9825
主题曲	-9826
irectX	-9827
体育馆	-9828
更大	-9829
求实	-9830
罕见	-9831
年出生于	-9832
和新	-9833
外来	-9834
▁结	-9835
增收	-9836
▁Be	-9837
oe	-9838
」，	-9839
冷水	-9840
获荣誉	-9841
和中	-9842
确定的	-9843
方向键	-9844
不大	-9845
嫌疑	-9846
商品批发	-9847
上方	-9848
夜晚	-9849
较强	-9850
▁采用	-9851
出色的	-9852
和企业	-9853
by	-9854
代表性	-9855
开发利用	-9856
日用杂品	-9857
▁凯	-9858
三位	-9859
丧失	-9860
三月	-9861
端子	-9862
reg	-9863
搞笑	-9864
汇编	-9865
等功	-9866
钓鱼	-9867
车的	-9868
创伤	-9869
当作	-9870
▁人民	-9871
储量	-9872
化为	-9873
晚期	-9874
剑桥	-9875
木质	-9876
芬兰	-9877
重力	-9878
书法家	-9879
系主任	-9880
▁Fran	-9881
剧目	-9882
盛世	-9883
duction	-9884
小轿车	-9885
病虫害	-9886
入了	-9887
死的	-9888
职于	-9889
第五届	-9890
采收	-9891
教师的	-9892
直升机	-9893
拥有林地	-9894
幕墙	-9895
分析与	-9896
▁约	-9897
你要	-9898
旅程	-9899
▁博	-9900
▁柳	-9901
到处	-9902
甲状	-9903
画展	-9904
火锅	-9905
发现的	-9906
建制	-9907
协会会员	-9908
众人	-9909
侦查	-9910
差距	-9911
而定	-9912
▁强	-9913
肉质	-9914
可以用	-9915
的成绩	-9916
热的	-9917
发明专利	-9918
在新	-9919
以内	-9920
遍及	-9921
始于	-9922
摩尔	-9923
获得者	-9924
edia	-9925
毒品	-9926
不清	-9927
双核	-9928
▁本章小结	-9929
▁from	-9930
之情	-9931
告别	-9932
文名	-9933
未经	-9934
沉默	-9935
▁Me	-9936
生产总值	-9937
UR	-9938
ki	-9939
精神的	-9940
小康	-9941
self	-9942
一定会	-9943
日正式	-9944
牵引	-9945
的总	-9946
NS	-9947
老鼠	-9948
AMD	-9949
中成药	-9950
参合	-9951
fer	-9952
系统中	-9953
▁产品类型	-9954
他为	-9955
州区	-9956
西北部	-9957
学期	-9958
Le	-9959
儿女	-9960
填补	-9961
爵士	-9962
感兴趣	-9963
痕迹	-9964
交际	-9965
年均	-9966
目光	-9967
金华	-9968
）；	-9969
arm	-9970
▁图片	-9971
▁干	-9972
不上	-9973
套房	-9974
的白	-9975
文化活动	-9976
▁天津	-9977
住房以	-9978
委员会主任	-9979
ING	-9980
成为一个	-9981
看似	-9982
选择了	-9983
.(	-9984
性研究	-9985
包围	-9986
悲伤	-9987
斯蒂	-9988
调入	-9989
实验学校	-9990
耐火	-9991
优美的	-9992
▁内设机构	-9993
奠基	-9994
外出务工收入	-9995
汤匙	-9996
特聘	-9997
这段	-9998
合适的	-9999
是一家集	-10000
甜蜜	-10001
▁重庆	-10002
款式	-10003
的日子	-10004
覆盖率	-10005
▁英文单词	-10006
刺史	-10007
更高的	-10008
▁your	-10009
透视	-10010
可能性	-10011
骄傲	-10012
是根据	-10013
凭许可证经营	-10014
相望	-10015
祖籍	-10016
DD	-10017
格斗	-10018
油菜	-10019
入手	-10020
安娜	-10021
领导者	-10022
血清	-10023
▁应	-10024
低碳	-10025
包裹	-10026
接地	-10027
引起了	-10028
克莱	-10029
伊斯兰	-10030
soft	-10031
专项审批	-10032
上报	-10033
用以	-10034
人物简介	-10035
向往	-10036
双语	-10037
唐朝	-10038
中国大陆	-10039
草莓	-10040
顶部	-10041
与合作	-10042
侵略	-10043
通俗易懂	-10044
光谱	-10045
流的	-10046
特色产业	-10047
生抽	-10048
mod	-10049
偶尔	-10050
教育学	-10051
的政治	-10052
余种	-10053
与环境	-10054
诺贝尔	-10055
集装箱	-10056
文的	-10057
都很	-10058
规章制度	-10059
异性	-10060
我们在	-10061
水产品	-10062
珠江	-10063
核准	-10064
武林	-10065
已完成	-10066
的有关	-10067
▁江苏省	-10068
微软	-10069
体系认证	-10070
交付	-10071
年和	-10072
油漆	-10073
主要为	-10074
▁提供	-10075
有许多	-10076
三亚	-10077
寺院	-10078
而后	-10079
在他的	-10080
菊花	-10081
▁规格	-10082
各项工作	-10083
终结	-10084
同时还	-10085
股市	-10086
三产业收入	-10087
刑法	-10088
工资性收入	-10089
各位	-10090
两国	-10091
的建筑	-10092
突击	-10093
葡萄糖	-10094
时机	-10095
人才的	-10096
驾驶员	-10097
▁角色演员	-10098
第一产业人数	-10099
在该	-10100
尾巴	-10101
▁故事	-10102
VS	-10103
定点	-10104
求精	-10105
处女	-10106
紧凑	-10107
人民的	-10108
冬天	-10109
山顶	-10110
成像	-10111
海报	-10112
肥胖	-10113
领导班子	-10114
代理商	-10115
发行的	-10116
是不是	-10117
aster	-10118
气压	-10119
大学教授	-10120
学前	-10121
无不	-10122
汽油	-10123
页数	-10124
的成功	-10125
兵器	-10126
头脑	-10127
巡视	-10128
白天	-10129
国务院决定	-10130
领军	-10131
开封	-10132
打败	-10133
支气管	-10134
▁Col	-10135
月毕业于	-10136
负载	-10137
近期	-10138
中药材	-10139
样式	-10140
Pl	-10141
一无	-10142
的自然	-10143
艺术节	-10144
▁丁	-10145
剧集	-10146
史记	-10147
科员	-10148
近百	-10149
机械制造	-10150
林业收入	-10151
吃饭	-10152
的四	-10153
文化和	-10154
▁图书信息	-10155
前提	-10156
十月	-10157
矿物质	-10158
▁绿	-10159
常年外出务工人数	-10160
达尔	-10161
▁主题	-10162
电器设备	-10163
▁直	-10164
走上	-10165
意义的	-10166
梳理	-10167
汇总	-10168
电容	-10169
音箱	-10170
▁结构	-10171
产品有	-10172
侵犯	-10173
北纬	-10174
打算	-10175
搬迁	-10176
政委	-10177
立刻	-10178
IR	-10179
亚种	-10180
改制	-10181
echn	-10182
下方	-10183
基准	-10184
执政	-10185
纠错	-10186
管件	-10187
终止	-10188
参考答案	-10189
知名品牌	-10190
公约	-10191
等特点	-10192
Kg	-10193
成功地	-10194
技术有限公司	-10195
条约	-10196
调动	-10197
转载	-10198
有乡村人口	-10199
上演	-10200
坚决	-10201
洽谈	-10202
的一项	-10203
没有任何	-10204
性价比	-10205
执着	-10206
佛山市	-10207
国家标准	-10208
判决	-10209
和文化	-10210
滑雪	-10211
男友	-10212
yd	-10213
三千	-10214
那时	-10215
▁主持	-10216
木结构住房	-10217
乔木	-10218
是集	-10219
育种	-10220
临沂	-10221
歌声	-10222
配角	-10223
ym	-10224
并未	-10225
生产能力	-10226
we	-10227
电极	-10228
第十四	-10229
VIDIA	-10230
不含化学危险品	-10231
TR	-10232
水性	-10233
龙门	-10234
▁中文名	-10235
IL	-10236
广播电台	-10237
▁齐	-10238
信托	-10239
外围	-10240
百花	-10241
酵母	-10242
TX	-10243
田园	-10244
看法	-10245
典范	-10246
圆满	-10247
不应	-10248
格里	-10249
遗憾	-10250
为宗旨	-10251
财政部	-10252
为己	-10253
五月	-10254
入围	-10255
奶奶	-10256
美发	-10257
第十三章	-10258
哲学社会科学	-10259
加水	-10260
这一点	-10261
ever	-10262
山路	-10263
文人	-10264
重重	-10265
个村	-10266
环境中	-10267
中心小学	-10268
年至今	-10269
访问学者	-10270
预备	-10271
和国际	-10272
生物制品	-10273
兽医	-10274
及耗材	-10275
事宜	-10276
嘉兴	-10277
独创	-10278
读本	-10279
东北部	-10280
第一位	-10281
搞好	-10282
江区	-10283
都被	-10284
新材料	-10285
标志着	-10286
艺术品	-10287
高专	-10288
▁字数	-10289
故宫	-10290
ari	-10291
的父亲	-10292
树种	-10293
民歌	-10294
一个个	-10295
压缩机	-10296
▁人物生平	-10297
▁中华人民共和国	-10298
乳房	-10299
仙人	-10300
MD	-10301
省道	-10302
▁法国	-10303
改名为	-10304
侧面	-10305
奥特	-10306
快速发展	-10307
图画	-10308
促进了	-10309
图书室	-10310
的大力	-10311
发音	-10312
水暖器材	-10313
不太	-10314
又能	-10315
咳嗽	-10316
随便	-10317
的理念	-10318
人力资源管理	-10319
山坡	-10320
▁规划	-10321
执导的	-10322
系的	-10323
ION	-10324
类小说	-10325
内衣	-10326
ler	-10327
外界	-10328
LAN	-10329
和完善	-10330
艺术设计	-10331
技术开发区	-10332
便携	-10333
焦虑	-10334
颇有	-10335
机械配件	-10336
造纸	-10337
……《	-10338
交办的其他事项	-10339
__	-10340
武功	-10341
题目	-10342
aj	-10343
▁Eng	-10344
illiam	-10345
▁De	-10346
▁土	-10347
台风	-10348
客车	-10349
▁梦	-10350
的优势	-10351
的最大	-10352
失眠	-10353
ts	-10354
汇报	-10355
特定的	-10356
了自己的	-10357
储蓄	-10358
布尔	-10359
黄油	-10360
▁德国	-10361
▁显示	-10362
▁绿色	-10363
亦有	-10364
的营养	-10365
tain	-10366
优秀论文	-10367
▁制作发行	-10368
整洁	-10369
舆论	-10370
鸡肉	-10371
the	-10372
的速度	-10373
▁→	-10374
之力	-10375
称作	-10376
▁New	-10377
中海	-10378
宴会	-10379
文库	-10380
华盛顿	-10381
动机	-10382
常州	-10383
简便	-10384
▁关	-10385
区长	-10386
▁无线	-10387
淮南	-10388
防盗	-10389
在省内	-10390
城市规划	-10391
▁作品目录	-10392
"(	-10393
卫浴	-10394
远销	-10395
该公司	-10396
▁人物履历	-10397
Web	-10398
力资源	-10399
生前	-10400
发布的	-10401
基本参数	-10402
政府信息公开	-10403
回复	-10404
抑郁	-10405
篇章	-10406
中日	-10407
可怕	-10408
岛上	-10409
urn	-10410
完成后	-10411
ない	-10412
传授	-10413
吸引了	-10414
的战斗	-10415
全村外出务工收入	-10416
人造	-10417
喜好	-10418
▁播出	-10419
字符	-10420
写字楼	-10421
▁请	-10422
附有	-10423
各样的	-10424
设立了	-10425
抗体	-10426
诗文	-10427
esson	-10428
你在	-10429
▁银行	-10430
与时	-10431
处级	-10432
赛区	-10433
饮用水	-10434
电厂	-10435
鸡精	-10436
▁学生	-10437
不满	-10438
议员	-10439
过关	-10440
▁金融	-10441
追究	-10442
勇士	-10443
我就	-10444
课外	-10445
爱尔兰	-10446
长圆形	-10447
备受	-10448
达人	-10449
举办了	-10450
行政审批	-10451
》,	-10452
带宽	-10453
幸福的	-10454
全局	-10455
巅峰	-10456
万册	-10457
户居住于土木结构住房	-10458
论著	-10459
可通过	-10460
绿化率	-10461
动词	-10462
邯郸	-10463
污水处理	-10464
流失	-10465
与实践	-10466
用法用量	-10467
公认	-10468
酒店用品	-10469
步兵	-10470
图文设计制作	-10471
洁净	-10472
▁地区	-10473
人物的	-10474
年成立	-10475
续航	-10476
菜肴	-10477
的任务	-10478
医疗机构	-10479
基础设施建设	-10480
白酒	-10481
感冒	-10482
电解	-10483
网络科技有限公司	-10484
三部	-10485
兼顾	-10486
太郎	-10487
工农	-10488
校风	-10489
私营	-10490
▁Or	-10491
树林	-10492
高尚	-10493
和他的	-10494
等方式	-10495
罗伯特	-10496
to	-10497
也可作为	-10498
▁第十七章	-10499
纠正	-10500
普通的	-10501
中西医结合	-10502
感知	-10503
市政公用	-10504
密的	-10505
狭窄	-10506
自律	-10507
ugh	-10508
所得税	-10509
距离最近的集贸市场	-10510
并茂	-10511
▁智能	-10512
农村土地	-10513
技师	-10514
编写的	-10515
举报	-10516
存栏	-10517
年会	-10518
▁康	-10519
各式	-10520
镇卫生院	-10521
▁教	-10522
便宜	-10523
为代表	-10524
毒素	-10525
网球	-10526
仪器设备	-10527
吉尔	-10528
壮观	-10529
王的	-10530
起的	-10531
社会各界	-10532
故名	-10533
残留	-10534
耳朵	-10535
触发	-10536
隆重	-10537
商品批发贸易	-10538
升降	-10539
烤箱	-10540
CEO	-10541
樱桃	-10542
芙蓉	-10543
济南市	-10544
社会保险	-10545
图书信息出版社	-10546
占用	-10547
面具	-10548
额外	-10549
涵盖了	-10550
第二条	-10551
技术监督	-10552
农牧	-10553
料理	-10554
每位	-10555
贯通	-10556
▁泰	-10557
产科	-10558
心肌	-10559
any	-10560
▁制度	-10561
工商管理	-10562
男生	-10563
祖父	-10564
马里	-10565
▁区域	-10566
▁文学	-10567
第一批	-10568
代表作品	-10569
工作先进单位	-10570
校友	-10571
组委会	-10572
生机	-10573
朋友们	-10574
团员	-10575
资本主义	-10576
我不	-10577
肾脏	-10578
越高	-10579
▁my	-10580
▁冷	-10581
营运	-10582
▁江苏	-10583
适时	-10584
cel	-10585
万人次	-10586
研究生学历	-10587
以南	-10588
食盐	-10589
前列腺	-10590
油脂	-10591
▁随着	-10592
标兵	-10593
质地	-10594
▁控制	-10595
停车位	-10596
生活方式	-10597
自古	-10598
长寿	-10599
律师事务所	-10600
.,	-10601
格林	-10602
浙江大学	-10603
▁性	-10604
南开	-10605
如有	-10606
新娘	-10607
物价	-10608
短暂	-10609
组装	-10610
是日本	-10611
▁are	-10612
计算机软件	-10613
眼泪	-10614
程度的	-10615
▁余	-10616
为先	-10617
长征	-10618
▁主要职责	-10619
再加上	-10620
深厚的	-10621
其中从事第一产业人数	-10622
好好	-10623
子和	-10624
攻击力	-10625
没想到	-10626
沿着	-10627
肥沃	-10628
▁理论	-10629
举行的	-10630
多年生	-10631
主演担任职务	-10632
尸体	-10633
庞大的	-10634
▁异	-10635
矩阵	-10636
党总支	-10637
▁点	-10638
病学	-10639
过程的	-10640
先生的	-10641
▁制	-10642
子弹	-10643
▁按	-10644
构图	-10645
▁魏	-10646
俱进	-10647
轮回	-10648
▁国内	-10649
老化	-10650
在中	-10651
互联	-10652
变异	-10653
找出	-10654
淘汰	-10655
缩写	-10656
花冠	-10657
西斯	-10658
成立后	-10659
呕吐	-10660
与现代	-10661
就被	-10662
潜心	-10663
时间剧名扮演角色导演主演担任职务	-10664
Pr	-10665
这场	-10666
▁University	-10667
区级	-10668
诸葛	-10669
职业学校	-10670
计划的	-10671
▁赤	-10672
疑问	-10673
▁Dr	-10674
▁生物	-10675
很多人	-10676
后果	-10677
构思	-10678
选购	-10679
应该是	-10680
抗菌	-10681
▁喜欢的	-10682
▁共	-10683
倍液	-10684
六十	-10685
对他	-10686
战后	-10687
气味	-10688
罚款	-10689
项目管理	-10690
▁注意事项	-10691
无力	-10692
就算	-10693
▁公共	-10694
和水	-10695
两项	-10696
▁Gr	-10697
读者对象	-10698
斯拉	-10699
又在	-10700
山下	-10701
%；	-10702
客家	-10703
游乐	-10704
西汉	-10705
▁药	-10706
】【	-10707
自营	-10708
芳香	-10709
杂质	-10710
珍惜	-10711
Cr	-10712
所未	-10713
服务和	-10714
的现代	-10715
范围内的	-10716
家禽	-10717
放到	-10718
桥镇	-10719
▁–	-10720
史学	-10721
留学生	-10722
usic	-10723
即可开始游戏	-10724
▁野	-10725
违纪	-10726
食谱	-10727
效力于	-10728
月中旬	-10729
副理事长	-10730
外壳	-10731
思念	-10732
神奇的	-10733
PLAY	-10734
▁道	-10735
地基	-10736
寺庙	-10737
甘草	-10738
rans	-10739
缅甸	-10740
▁进行	-10741
平滑	-10742
每亩	-10743
inc	-10744
好处	-10745
恋人	-10746
联谊	-10747
▁生态	-10748
财政收入	-10749
是经	-10750
次年	-10751
不规则	-10752
等一系列	-10753
区人民政府	-10754
硫化	-10755
展览会	-10756
▁蔡	-10757
奔腾	-10758
耕地总面积	-10759
春风	-10760
端的	-10761
苏州市	-10762
西南部	-10763
erg	-10764
专业技术人员	-10765
大米	-10766
支配	-10767
now	-10768
作品集	-10769
摄影师	-10770
农业机械	-10771
及设备	-10772
研究工作	-10773
不相	-10774
法语	-10775
走到	-10776
老百姓	-10777
Dr	-10778
前者	-10779
门市	-10780
开发和	-10781
UL	-10782
全集	-10783
干预	-10784
此类	-10785
短短	-10786
索尼	-10787
存在着	-10788
的投资	-10789
教育事业	-10790
龙头企业	-10791
▁保	-10792
原型	-10793
自称	-10794
装扮	-10795
▁不要	-10796
▁接口	-10797
的决定	-10798
ROM	-10799
▁健康	-10800
管理者	-10801
购物中心	-10802
足迹	-10803
伤口	-10804
收视	-10805
▁数字	-10806
南非	-10807
对面	-10808
这条	-10809
少林	-10810
纯粹	-10811
ures	-10812
▁都	-10813
一台	-10814
建模	-10815
▁机身	-10816
有趣的	-10817
博弈	-10818
alk	-10819
全面工作	-10820
辖区内	-10821
机构编制	-10822
之夜	-10823
口岸	-10824
并购	-10825
污水	-10826
管理部门	-10827
▁河	-10828
他与	-10829
但不	-10830
即为	-10831
又一	-10832
江山	-10833
为指导	-10834
其中男性	-10835
青年教师	-10836
--------	-10837
侵权	-10838
屋顶	-10839
落地	-10840
交给	-10841
深刻的	-10842
生活中的	-10843
匈牙	-10844
抗震	-10845
故意	-10846
民航	-10847
畸形	-10848
盛典	-10849
con	-10850
写了	-10851
签证	-10852
EI	-10853
建构	-10854
病原	-10855
所谓的	-10856
农户住房以	-10857
村内主干道均为	-10858
以色列	-10859
新品种	-10860
信息咨询服务	-10861
VA	-10862
退役	-10863
造林	-10864
岭南	-10865
以及其他	-10866
威海	-10867
信用卡	-10868
副处长	-10869
书面	-10870
创刊	-10871
在全球	-10872
六大	-10873
大蒜	-10874
强力	-10875
port	-10876
副总	-10877
万年	-10878
义词	-10879
操控	-10880
演化	-10881
▁集成	-10882
淡水	-10883
胎儿	-10884
辈子	-10885
▁十五	-10886
产业为	-10887
HP	-10888
棋牌	-10889
组的	-10890
花岗	-10891
故居	-10892
form	-10893
▁!	-10894
三层	-10895
体型	-10896
平县	-10897
小品	-10898
稀释	-10899
诗词正文	-10900
享受三包服务	-10901
一小	-10902
德镇	-10903
情怀	-10904
直辖	-10905
▁选择	-10906
觉醒	-10907
是如何	-10908
三中	-10909
废弃	-10910
成年人	-10911
lish	-10912
主打	-10913
▁全球	-10914
疏松	-10915
org	-10916
环境和	-10917
刊登	-10918
后被	-10919
画法	-10920
参与了	-10921
KG	-10922
▁只	-10923
一夜	-10924
处在	-10925
病害	-10926
呈现出	-10927
数据的	-10928
执行情况	-10929
文化办公用品	-10930
不已	-10931
意图	-10932
批复	-10933
机型	-10934
荒山	-10935
▁保护	-10936
▁最高	-10937
所属分类	-10938
无意	-10939
首个	-10940
inn	-10941
同样的	-10942
tr	-10943
℃。	-10944
年为	-10945
汉书	-10946
通行	-10947
全村辖	-10948
▁重要参数	-10949
▁卢	-10950
函授	-10951
甘蔗	-10952
年美国	-10953
应注意	-10954
等部门	-10955
科研课题	-10956
义乌	-10957
泄漏	-10958
心中的	-10959
畅销书	-10960
第十四章	-10961
平稳	-10962
搭载	-10963
阵地	-10964
创办于	-10965
第六届	-10966
充实	-10967
增加值	-10968
制式	-10969
却不	-10970
古人	-10971
胶原	-10972
APP	-10973
中路	-10974
育苗	-10975
车身	-10976
▁大学	-10977
突出的	-10978
中国国际	-10979
圣地	-10980
微观	-10981
而生	-10982
隐患	-10983
▁政治	-10984
村民的医疗	-10985
油气	-10986
的红	-10987
十二年	-10988
交错	-10989
户口	-10990
的开	-10991
东汉	-10992
中和	-10993
外面	-10994
成形	-10995
提供一个	-10996
去年	-10997
国营	-10998
制定了	-10999
西安市	-11000
奴隶	-11001
鳞片	-11002
有过	-11003
色谱	-11004
贵阳	-11005
ions	-11006
渐尖	-11007
甲状腺	-11008
维斯	-11009
个人简介	-11010
博士研究生	-11011
巨人	-11012
龙山	-11013
RJ	-11014
▁印刷时间	-11015
上学	-11016
首位	-11017
发改	-11018
住了	-11019
永不	-11020
立志	-11021
警告	-11022
雅典	-11023
内分泌	-11024
能手	-11025
违规	-11026
风流	-11027
总承包	-11028
老虎	-11029
御史	-11030
磁场	-11031
一般在	-11032
格拉	-11033
碱性	-11034
这里的	-11035
村务公开	-11036
▁）	-11037
之余	-11038
神仙	-11039
优良的	-11040
摄像机	-11041
丽莎	-11042
交友	-11043
比重	-11044
卫生间	-11045
海鲜	-11046
祖先	-11047
站长	-11048
花絮	-11049
投放	-11050
简易	-11051
▁浙江省	-11052
PM	-11053
也称	-11054
八大	-11055
预订	-11056
▁基于	-11057
搅拌均匀	-11058
刻画	-11059
号召	-11060
村民的医疗主要依靠	-11061
▁过	-11062
的经典	-11063
难忘	-11064
TC	-11065
入驻	-11066
南县	-11067
影子	-11068
查找	-11069
活血	-11070
源头	-11071
二中	-11072
河镇	-11073
真菌	-11074
途经	-11075
旗下的	-11076
底座	-11077
的他	-11078
赛季俱乐部	-11079
亮相	-11080
理化	-11081
生产力	-11082
大人	-11083
水位	-11084
婚庆	-11085
的责任	-11086
联手	-11087
能使	-11088
香水	-11089
LC	-11090
支架	-11091
规范性文件	-11092
亚历	-11093
沼气池	-11094
自动化设备	-11095
负债	-11096
走在	-11097
女性的	-11098
▁为什么	-11099
▁最喜欢的	-11100
音乐会	-11101
鲜明的	-11102
▁京	-11103
导入	-11104
流行的	-11105
之称	-11106
:-	-11107
背叛	-11108
固化	-11109
温带	-11110
oug	-11111
的一面	-11112
内容丰富	-11113
五行	-11114
例句	-11115
抒情	-11116
CCTV	-11117
总部位于	-11118
牵头	-11119
与众	-11120
张力	-11121
碳酸	-11122
简化	-11123
舰队	-11124
设计服务	-11125
之歌	-11126
等格式	-11127
做过	-11128
天生	-11129
山药	-11130
曾被	-11131
缴纳	-11132
高兴	-11133
com	-11134
作用的	-11135
▁冯	-11136
oci	-11137
的业务	-11138
合作演员	-11139
平坦	-11140
改装	-11141
连环	-11142
高频	-11143
主要由	-11144
▁International	-11145
意境	-11146
优质服务	-11147
资格考试	-11148
▁秋	-11149
各省	-11150
多亩	-11151
单位为	-11152
健康发展	-11153
联赛等级	-11154
ii	-11155
不锈钢制品	-11156
改称	-11157
统战	-11158
轮廓	-11159
适当的	-11160
PN	-11161
上班	-11162
省外	-11163
▁小区	-11164
经济增长	-11165
致命	-11166
女人的	-11167
第二个	-11168
甲级	-11169
破产	-11170
▁社区	-11171
udio	-11172
之所	-11173
晚年	-11174
▁贝	-11175
弗兰	-11176
坚守	-11177
俄国	-11178
余万元	-11179
山林	-11180
敢于	-11181
▁It	-11182
一处	-11183
不息	-11184
决议	-11185
抵达	-11186
路的	-11187
实业投资	-11188
信贷	-11189
只好	-11190
越大	-11191
高级职称	-11192
▁丹	-11193
马丁	-11194
▁东方	-11195
也就是说	-11196
丢失	-11197
BOSS	-11198
的项目除外	-11199
▁Cor	-11200
党支部书记	-11201
别的	-11202
器和	-11203
▁My	-11204
是一座	-11205
关于印发	-11206
政法大学	-11207
人畜	-11208
呼叫	-11209
▁培养	-11210
▁内存容量	-11211
毫不	-11212
刀具	-11213
会出现	-11214
匈牙利	-11215
详细的	-11216
ourn	-11217
和信息化	-11218
以上学历	-11219
城乡建设	-11220
编著图书	-11221
后方可经营	-11222
类医疗器械	-11223
一开始	-11224
年上海	-11225
第一百	-11226
神经系统	-11227
自然灾害	-11228
食用农产品	-11229
即是	-11230
布朗	-11231
血症	-11232
露出	-11233
组织协调	-11234
中长期	-11235
东侧	-11236
推崇	-11237
长久	-11238
▁战略	-11239
对焦	-11240
教训	-11241
在使用	-11242
▁左	-11243
的优秀	-11244
DE	-11245
▁MB	-11246
集中在	-11247
四种	-11248
旧址	-11249
有无	-11250
les	-11251
获国家	-11252
工程专业承包	-11253
划归	-11254
废物	-11255
use	-11256
例子	-11257
文教	-11258
追溯	-11259
的特色	-11260
加载完毕	-11261
吾尔	-11262
拓宽	-11263
▁民族	-11264
研究所所长	-11265
小小	-11266
层层	-11267
是你	-11268
绝望	-11269
ichard	-11270
的新型	-11271
散装食品	-11272
提起	-11273
▁客户	-11274
▁灵	-11275
萨斯	-11276
不适	-11277
备份	-11278
数千	-11279
出租车约	-11280
航空公司	-11281
字典	-11282
致力	-11283
▁绪论	-11284
好莱坞	-11285
亦可	-11286
原声	-11287
场馆	-11288
硬化的路面	-11289
局域	-11290
恶劣	-11291
胸部	-11292
衰竭	-11293
重修	-11294
第三条	-11295
了对	-11296
杂志社	-11297
票务	-11298
秀丽	-11299
西侧	-11300
经营者	-11301
体检	-11302
做成	-11303
▁欧	-11304
分化	-11305
板材	-11306
热门	-11307
第一条	-11308
▁荣誉称号	-11309
为他	-11310
科科长	-11311
既然	-11312
把自己	-11313
知名的	-11314
企业营销策划	-11315
边境	-11316
住院	-11317
在与	-11318
学风	-11319
简明	-11320
可容纳	-11321
质量监督	-11322
珍藏	-11323
ator	-11324
▁鱼	-11325
下达	-11326
寒冷	-11327
爆破	-11328
老子	-11329
跑道	-11330
食疗	-11331
副总经理	-11332
监督实施	-11333
▁台	-11334
咽喉	-11335
文明的	-11336
▁第十八章	-11337
。'	-11338
和工作	-11339
无公害	-11340
Tr	-11341
恒星	-11342
制定的	-11343
电动工具	-11344
宁静	-11345
除此	-11346
▁因为	-11347
帮助下	-11348
微量元素	-11349
留下了	-11350
联赛等级排名	-11351
又不	-11352
手枪	-11353
日前	-11354
纲要	-11355
展现了	-11356
的创作	-11357
作品目录	-11358
儿科	-11359
远古	-11360
阐释	-11361
带的	-11362
支流	-11363
现今	-11364
▁练习	-11365
高级中学	-11366
出场进球国家	-11367
睡觉	-11368
企业提供	-11369
敦煌	-11370
水流	-11371
从而使	-11372
背景下	-11373
最强	-11374
致使	-11375
不良反应	-11376
分的	-11377
开机	-11378
次的	-11379
赛季俱乐部号码	-11380
可惜	-11381
在对	-11382
问题研究	-11383
一周	-11384
碎片	-11385
角膜	-11386
有林地	-11387
摘要	-11388
进军	-11389
越来越多	-11390
str	-11391
全村共	-11392
为中	-11393
年中	-11394
工业区	-11395
基础教育	-11396
五代	-11397
督导	-11398
为民	-11399
斑点	-11400
无关	-11401
余额	-11402
开朗	-11403
机能	-11404
深远	-11405
bo	-11406
面膜	-11407
各方面	-11408
中心主任	-11409
RT	-11410
化解	-11411
平静	-11412
搬运	-11413
诸如	-11414
批发兼	-11415
的重要性	-11416
亨利	-11417
潮湿	-11418
附近的	-11419
周末	-11420
革新	-11421
足球运动员	-11422
千金	-11423
度和	-11424
时钟	-11425
行李	-11426
问世	-11427
社会责任	-11428
阳性	-11429
▁事件	-11430
▁星座	-11431
▁钱	-11432
着手	-11433
让他们	-11434
▁放	-11435
并可	-11436
David	-11437
出生地	-11438
这两个	-11439
万立方米	-11440
▁镇	-11441
。<	-11442
当你	-11443
背后的	-11444
▁开发	-11445
旅游业	-11446
▁空	-11447
动物的	-11448
学与	-11449
化管理	-11450
优质的服务	-11451
位居	-11452
导游	-11453
一般为	-11454
的经验	-11455
▁集	-11456
银奖	-11457
▁主板	-11458
公开发	-11459
为首	-11460
光的	-11461
形体	-11462
游戏介绍	-11463
药剂	-11464
企业在	-11465
奥斯卡	-11466
世界上最	-11467
经济贸易	-11468
▁范	-11469
宽敞	-11470
花开	-11471
还有一	-11472
师德	-11473
父子	-11474
行政部门	-11475
效能	-11476
燃油	-11477
ute	-11478
传染病	-11479
和一个	-11480
学院教授	-11481
客座教授	-11482
服务机构	-11483
浴室	-11484
的人文	-11485
▁class	-11486
Ed	-11487
独有的	-11488
大王	-11489
色调	-11490
▁电视	-11491
孤儿	-11492
火炬	-11493
纵向	-11494
连载中	-11495
赛季俱乐部号码出场进球国家	-11496
▁亲	-11497
USA	-11498
▁第一部分	-11499
并能	-11500
更能	-11501
年加入	-11502
ensis	-11503
▁%	-11504
成才	-11505
▁「	-11506
经纪人	-11507
工程机械	-11508
四肢	-11509
民居	-11510
监护	-11511
缩小	-11512
脊椎	-11513
自在	-11514
安装服务	-11515
imself	-11516
!"	-11517
受体	-11518
多样性	-11519
沈阳市	-11520
内蒙古自治区	-11521
No	-11522
渤海	-11523
衡量	-11524
路军	-11525
)--	-11526
▁Res	-11527
向东	-11528
片段	-11529
称呼	-11530
决算	-11531
旗帜	-11532
矿石	-11533
红枣	-11534
▁位置	-11535
▁Car	-11536
佳作	-11537
子孙	-11538
副主任医师	-11539
安东	-11540
有两	-11541
证件	-11542
钢丝	-11543
增进	-11544
筹资	-11545
素描	-11546
▁医院	-11547
方法的	-11548
所能	-11549
校园文化	-11550
SL	-11551
锅里	-11552
及销售	-11553
航海	-11554
在省内务工	-11555
幽灵	-11556
看到了	-11557
防爆	-11558
▁)。	-11559
为您提供	-11560
姿势	-11561
村落	-11562
风俗	-11563
人们对	-11564
伊朗	-11565
over	-11566
▁产品尺寸	-11567
不一	-11568
芹菜	-11569
总决赛	-11570
专线	-11571
儒家	-11572
合作的	-11573
日晚	-11574
明月	-11575
领取	-11576
▁et	-11577
全国联保	-11578
正常的	-11579
的主题	-11580
▁发行公司	-11581
装帧	-11582
是非常	-11583
投入使用	-11584
货物进出口	-11585
▁种	-11586
人力资源和社会保障	-11587
彩票	-11588
▁幕后	-11589
图文并茂	-11590
签定	-11591
卓越的	-11592
和政策	-11593
本书主要	-11594
崇尚	-11595
▁广告	-11596
普通话	-11597
不断创新	-11598
利斯	-11599
被动	-11600
副市长	-11601
汽车站	-11602
ated	-11603
受害	-11604
和他	-11605
也不是	-11606
的好评	-11607
计算机及配件	-11608
辩证	-11609
ME	-11610
就不	-11611
▁XP	-11612
同学们	-11613
▁人物评价	-11614
▁易	-11615
全会	-11616
星光	-11617
汇率	-11618
▁楼盘	-11619
现有的	-11620
▁文件	-11621
其主要	-11622
中断	-11623
新媒体	-11624
水电站	-11625
寻常	-11626
旗舰	-11627
毕竟	-11628
▁这一	-11629
的意思	-11630
管理咨询	-11631
茄子	-11632
▁Sm	-11633
大自然	-11634
太极拳	-11635
的方向	-11636
铃薯	-11637
万历	-11638
严禁	-11639
细则	-11640
▁Is	-11641
俱全	-11642
德拉	-11643
从不	-11644
进入了	-11645
注册资金	-11646
▁所获荣誉	-11647
之二	-11648
紧邻	-11649
纳斯	-11650
uss	-11651
组组长	-11652
课时	-11653
考虑到	-11654
当下	-11655
的一家	-11656
首末	-11657
深入浅	-11658
波特	-11659
贮存	-11660
食欲	-11661
为重点	-11662
石刻	-11663
逍遥	-11664
锯齿	-11665
南阳	-11666
宾客	-11667
烧开	-11668
轻易	-11669
服务工作	-11670
地表	-11671
文摘	-11672
加哥	-11673
增生	-11674
对战	-11675
鲁木	-11676
当代中国	-11677
商圈	-11678
愉快	-11679
香菜	-11680
厅长	-11681
回应	-11682
接头	-11683
李白	-11684
自强	-11685
▁广西	-11686
吸血鬼	-11687
离退休	-11688
网络释义	-11689
宣言	-11690
ney	-11691
出一个	-11692
处方药	-11693
fl	-11694
丛林	-11695
水和	-11696
眼科	-11697
粘贴	-11698
第十五章	-11699
乡有	-11700
▁安徽	-11701
▁纸张	-11702
指定的	-11703
线下	-11704
除去	-11705
环境下	-11706
高性能	-11707
企图	-11708
预期	-11709
制成的	-11710
▁Enter	-11711
不堪	-11712
得天	-11713
报价	-11714
昆山	-11715
潜艇	-11716
的内	-11717
债权	-11718
弥补	-11719
易爆	-11720
▁II	-11721
容积率	-11722
它在	-11723
捐款	-11724
饱满	-11725
与文化	-11726
芝加哥	-11727
年代初	-11728
的支持	-11729
▁以人为本	-11730
▁战	-11731
解题	-11732
▁政府	-11733
动画片	-11734
ouch	-11735
rical	-11736
▁气	-11737
▁操作	-11738
自主研发	-11739
富士	-11740
和应用	-11741
的形象	-11742
写真	-11743
必将	-11744
贴心	-11745
科技进步奖	-11746
积极开展	-11747
页正文语种	-11748
客场	-11749
景象	-11750
赞助	-11751
伴有	-11752
减灾	-11753
同人	-11754
高雅	-11755
第十五	-11756
能力强	-11757
ouse	-11758
行政复议	-11759
东亚	-11760
白领	-11761
可以根据	-11762
也不能	-11763
保温材料	-11764
代的	-11765
富裕	-11766
科名	-11767
黄帝	-11768
ext	-11769
除特种设备	-11770
地面接收设施	-11771
吸取	-11772
影音	-11773
▁We	-11774
质量的	-11775
墓地	-11776
惯用	-11777
畜禽	-11778
石英	-11779
汽摩	-11780
视力	-11781
▁小结	-11782
伴随着	-11783
的心理	-11784
该项目	-11785
人身	-11786
再用	-11787
田间	-11788
▁韩国	-11789
▁作	-11790
室内装饰	-11791
脚下	-11792
高职高专	-11793
孕育	-11794
村村	-11795
▁DVD	-11796
角落	-11797
香料	-11798
脑血管	-11799
同比增长	-11800
Force	-11801
圣经	-11802
明了	-11803
表皮	-11804
分子式	-11805
音乐的	-11806
UT	-11807
家属	-11808
二十四	-11809
▁For	-11810
工作委员会	-11811
FM	-11812
右手	-11813
提炼	-11814
率高	-11815
等多项	-11816
▁un	-11817
华大学	-11818
那就是	-11819
助力	-11820
结构和	-11821
▁转	-11822
多么	-11823
密被	-11824
温室	-11825
鲁木齐	-11826
有效期限	-11827
外事	-11828
奶粉	-11829
折叠	-11830
商铺	-11831
民警	-11832
魔鬼	-11833
与时俱进	-11834
都将	-11835
:①	-11836
极致	-11837
交汇处	-11838
的出现	-11839
以上经营范围	-11840
杜鹃	-11841
球菌	-11842
胃肠	-11843
确定为	-11844
市场需求	-11845
中东	-11846
火花	-11847
不顾	-11848
所用	-11849
的实施	-11850
承包合同	-11851
争霸	-11852
以北	-11853
八卦	-11854
替补	-11855
缓冲	-11856
岁以上	-11857
▁路	-11858
命中	-11859
建校	-11860
粤语	-11861
逐年	-11862
奢侈	-11863
野外	-11864
国际电影节	-11865
美术家协会	-11866
加重	-11867
无缝	-11868
有大	-11869
胜地	-11870
国家重点	-11871
强势	-11872
搭档	-11873
格雷	-11874
牢固	-11875
较长	-11876
配以	-11877
阴影	-11878
▁价格	-11879
使他	-11880
清真	-11881
▁对于	-11882
正如	-11883
物质的	-11884
ject	-11885
东经	-11886
十万	-11887
肉羊	-11888
及器材	-11889
ield	-11890
婴幼儿配方	-11891
->	-11892
太后	-11893
结实	-11894
联动	-11895
魔兽	-11896
了一条	-11897
司令部	-11898
名学生	-11899
que	-11900
▁具有	-11901
月下旬	-11902
的商业	-11903
红楼梦	-11904
国家一级	-11905
加固	-11906
实事	-11907
提到	-11908
投身	-11909
末端	-11910
果期	-11911
稀有	-11912
逃离	-11913
的功效	-11914
向下	-11915
开口	-11916
收音	-11917
字体	-11918
的有效	-11919
目前已	-11920
陪伴	-11921
为主线	-11922
苏格兰	-11923
嵌入式	-11924
El	-11925
我会	-11926
在世界	-11927
▁合	-11928
▁达	-11929
花柱	-11930
的战略	-11931
建设工作	-11932
拟任	-11933
PEG	-11934
erc	-11935
人不	-11936
同济	-11937
宏伟	-11938
▁扩展	-11939
是企业	-11940
污染物	-11941
▁十一五	-11942
Flash	-11943
古镇	-11944
数目	-11945
▁Li	-11946
orge	-11947
reen	-11948
保险公司	-11949
有效灌溉面积为	-11950
几次	-11951
突起	-11952
荣耀	-11953
高新区	-11954
▁洪	-11955
不全	-11956
共创	-11957
殊荣	-11958
近年	-11959
OC	-11960
吸入	-11961
的黑	-11962
而有	-11963
建筑师	-11964
一举	-11965
打造的	-11966
中被	-11967
应有	-11968
随即	-11969
先后获得	-11970
机等	-11971
者为	-11972
荒地	-11973
使用寿命	-11974
成名	-11975
抛弃	-11976
磨损	-11977
▁键盘	-11978
纪检监察	-11979
死于	-11980
湘潭	-11981
▁Co	-11982
的文字	-11983
步入	-11984
科教	-11985
言语	-11986
佣金	-11987
商品的	-11988
微电影	-11989
知识分子	-11990
▁假	-11991
受邀	-11992
忍者	-11993
了很多	-11994
公里的	-11995
的儿子	-11996
过去的	-11997
武将	-11998
著称	-11999
集聚	-12000
郑州市	-12001
滋味	-12002
胰岛	-12003
CAS	-12004
学术期刊	-12005
'，	-12006
▁诗	-12007
使者	-12008
工矿	-12009
无色	-12010
烧热	-12011
背部	-12012
金币	-12013
之后的	-12014
井水	-12015
兔子	-12016
卵状	-12017
间隙	-12018
评分	-12019
质量和	-12020
北区	-12021
服役	-12022
熔点	-12023
▁基础	-12024
中国文化	-12025
历年	-12026
困惑	-12027
▁剪辑	-12028
精美的	-12029
问题是	-12030
其中人均耕地	-12031
学业	-12032
望远	-12033
▁河南	-12034
▁麦	-12035
限于	-12036
▁蓝牙	-12037
erman	-12038
精盐	-12039
追逐	-12040
题型	-12041
获全国	-12042
医务	-12043
地层	-12044
玉器	-12045
画廊	-12046
世纪初	-12047
职能部门	-12048
芜湖	-12049
萨尔	-12050
风尚	-12051
技术推广	-12052
erson	-12053
专为	-12054
种的	-12055
▁保修政策	-12056
在水	-12057
进去	-12058
温州市	-12059
经济建设	-12060
困扰	-12061
城墙	-12062
▁出品	-12063
▁发展历程	-12064
更具	-12065
▁儿童	-12066
参加农村合作医疗	-12067
▁袁	-12068
霹雳	-12069
特质	-12070
ano	-12071
▁之一	-12072
互通	-12073
怀念	-12074
▁今	-12075
声道	-12076
盐酸	-12077
里亚	-12078
房屋建筑工程	-12079
演员表角色演员备注	-12080
研究人员	-12081
农村土地承包	-12082
中场	-12083
动人	-12084
同仁	-12085
蛋黄	-12086
erry	-12087
户通自来水	-12088
发表学术论文	-12089
TD	-12090
不当	-12091
后续	-12092
安静	-12093
品尝	-12094
感和	-12095
解说	-12096
购销	-12097
根据地	-12098
▁猪	-12099
众生	-12100
就开始	-12101
▁茶	-12102
兑换	-12103
考评	-12104
▁什么是	-12105
技工	-12106
质疑	-12107
ble	-12108
距离村委会	-12109
ternet	-12110
一声	-12111
管制	-12112
维吾尔	-12113
八角	-12114
川县	-12115
▁主编	-12116
的现象	-12117
的风格	-12118
ience	-12119
挫折	-12120
职权	-12121
代表性的	-12122
汉语词语	-12123
本作	-12124
老婆	-12125
切断	-12126
学问	-12127
矫正	-12128
▁销售	-12129
工商银行	-12130
建立健全	-12131
▁快	-12132
基亚	-12133
大庆	-12134
男演员	-12135
的就是	-12136
的特殊	-12137
网站建设	-12138
的经营	-12139
精良	-12140
天王	-12141
流派	-12142
黎明	-12143
▁但	-12144
平民	-12145
资源丰富	-12146
首选	-12147
巴尔	-12148
热烈	-12149
半径	-12150
水县	-12151
演示	-12152
pi	-12153
一行	-12154
心病	-12155
活着	-12156
镶嵌	-12157
TFT	-12158
为己任	-12159
教学和	-12160
的种类	-12161
▁产品重量	-12162
▁硬盘容量	-12163
惊悚	-12164
查阅	-12165
▁会员	-12166
▁这是	-12167
目标是	-12168
不利	-12169
水系	-12170
破解	-12171
香气	-12172
不确定	-12173
▁]	-12174
即成	-12175
▁Qu	-12176
了一场	-12177
提供商	-12178
景德镇	-12179
社会治安	-12180
▁人口卫生	-12181
管理有限公司	-12182
足够的	-12183
展厅	-12184
闪电	-12185
mAh	-12186
▁包	-12187
▁译	-12188
两部分	-12189
伤亡	-12190
大典	-12191
着眼	-12192
迷宫	-12193
邻居	-12194
高低	-12195
指的是	-12196
食品药品	-12197
北京师范大学	-12198
之以	-12199
方块	-12200
未婚	-12201
王府	-12202
对我	-12203
书画家	-12204
申请人	-12205
▁#	-12206
。④	-12207
等课程	-12208
ason	-12209
XX	-12210
以致	-12211
在了	-12212
定额	-12213
▁武汉	-12214
控制的	-12215
限分支机构	-12216
多了	-12217
安卓	-12218
装修装饰	-12219
▁戴	-12220
失效	-12221
放射性	-12222
子房	-12223
淋漓	-12224
一站式	-12225
与企业	-12226
校训	-12227
认定为	-12228
不止	-12229
典故	-12230
Michael	-12231
de	-12232
的身	-12233
自从	-12234
对自己	-12235
机构和	-12236
大学学报	-12237
▁则	-12238
手套	-12239
off	-12240
是世界	-12241
超声波	-12242
伯格	-12243
何处	-12244
浩特	-12245
的道路	-12246
适合于	-12247
不断发展	-12248
简体中文	-12249
时任	-12250
瓷器	-12251
▁营养	-12252
▁Home	-12253
人选	-12254
掉了	-12255
花梗	-12256
本书的	-12257
年秋	-12258
腌制	-12259
跳舞	-12260
▁中的	-12261
制定本	-12262
建立起	-12263
法和	-12264
者在	-12265
产业园	-12266
庄子	-12267
绘图	-12268
什么样的	-12269
UV	-12270
视听	-12271
隐形	-12272
uck	-12273
MC	-12274
支行	-12275
▁河南省	-12276
语言文学	-12277
ck	-12278
▁想	-12279
▁第十九章	-12280
减排	-12281
电能	-12282
间谍	-12283
红十字	-12284
行政处罚	-12285
便可	-12286
凌晨	-12287
外商	-12288
的真实	-12289
一句	-12290
特区	-12291
rol	-12292
▁主屏	-12293
村隶属于	-12294
oon	-12295
和重点	-12296
▁China	-12297
SK	-12298
注定	-12299
锁定	-12300
国家有	-12301
最受欢迎	-12302
情形	-12303
推销	-12304
道光	-12305
有两个	-12306
统一的	-12307
村卫生所	-12308
集成电路	-12309
脊柱	-12310
厦门市	-12311
拥有一支	-12312
ather	-12313
▁Zh	-12314
▁云南	-12315
工业化	-12316
的保护	-12317
休闲娱乐	-12318
DF	-12319
批准的	-12320
oice	-12321
mp	-12322
▁取	-12323
一口	-12324
增高	-12325
定理	-12326
琉璃	-12327
栽植	-12328
▁酷睿	-12329
本科专业	-12330
▁暗	-12331
领导和	-12332
基层组织	-12333
天子	-12334
才有	-12335
填充	-12336
曹操	-12337
研修	-12338
err	-12339
▁深圳市	-12340
allery	-12341
亦称	-12342
生效	-12343
父亲的	-12344
内容提要	-12345
图文设计	-12346
德的	-12347
记住	-12348
机构改革	-12349
▁入	-12350
▁贾	-12351
蔷薇	-12352
▁国籍	-12353
作品中	-12354
行业中	-12355
高效的	-12356
学和	-12357
批量	-12358
越冬	-12359
黄山	-12360
晋升为	-12361
乳粉	-12362
机枪	-12363
江河	-12364
>>	-12365
猎人	-12366
韭菜	-12367
存在于	-12368
职业道德	-12369
音响设备	-12370
哮喘	-12371
ely	-12372
▁原创	-12373
流动人口	-12374
爱国主义	-12375
▁率	-12376
当初	-12377
uch	-12378
立体声	-12379
余家	-12380
原著	-12381
学系	-12382
火力	-12383
编纂	-12384
至此	-12385
办公室副主任	-12386
pH	-12387
冠军联赛	-12388
固件	-12389
巴巴	-12390
来访	-12391
霜期	-12392
南站	-12393
就可	-12394
烘干	-12395
稳健	-12396
详解	-12397
户居住砖木结构住房	-12398
▁皮	-12399
学堂	-12400
宫殿	-12401
研究生院	-12402
这样一个	-12403
产卵	-12404
出锅	-12405
深造	-12406
绘本	-12407
艰辛	-12408
管理模式	-12409
遗忘	-12410
先后任	-12411
的操作	-12412
没有人	-12413
度过	-12414
中国家	-12415
情概况	-12416
清末	-12417
不愿	-12418
华语	-12419
变身	-12420
客厅	-12421
飞翔	-12422
原有的	-12423
关村	-12424
渲染	-12425
尼西亚	-12426
▁麻	-12427
年与	-12428
悬浮	-12429
披露	-12430
比分	-12431
手持	-12432
颜料	-12433
▁作曲	-12434
可以将	-12435
ji	-12436
▁信	-12437
两委	-12438
用房	-12439
界定	-12440
颠覆	-12441
▁公交	-12442
Java	-12443
经济作物	-12444
重要作用	-12445
人参	-12446
敏锐	-12447
显微镜	-12448
ournal	-12449
工件	-12450
禁用	-12451
阻力	-12452
闹钟	-12453
TER	-12454
同一个	-12455
监督管理局	-12456
光度	-12457
党和	-12458
全景	-12459
学派	-12460
忽略	-12461
▁起	-12462
平整	-12463
石膏	-12464
露天	-12465
异界	-12466
政策法规	-12467
为自己	-12468
就这样	-12469
外星	-12470
剧情简介	-12471
目前正在	-12472
全村有耕地总面积	-12473
正好	-12474
知识点	-12475
网站的	-12476
利息	-12477
巴士	-12478
遇到了	-12479
▁出生地	-12480
之父	-12481
光辉	-12482
将领	-12483
各级各类	-12484
来到了	-12485
iver	-12486
体系建设	-12487
先行	-12488
全能	-12489
宜昌	-12490
不支持	-12491
大奖赛	-12492
自定义	-12493
神圣	-12494
期内	-12495
气血	-12496
教育家	-12497
水平和	-12498
自动控制	-12499
▁离	-12500
奥斯	-12501
采矿	-12502
不一样	-12503
公司以	-12504
积极参与	-12505
有三	-12506
个小时	-12507
的存在	-12508
药制剂	-12509
other	-12510
酰胺	-12511
长篇	-12512
陵园	-12513
He	-12514
元代	-12515
无毒	-12516
农民工	-12517
的家庭	-12518
党中央	-12519
汽摩配件	-12520
精益求精	-12521
▁独	-12522
何时	-12523
这对	-12524
近几年	-12525
第十六章	-12526
四面	-12527
参谋长	-12528
年度计划	-12529
▁去	-12530
情境	-12531
战队	-12532
瓦尔	-12533
鲜艳	-12534
▁资源	-12535
发表了	-12536
的歌曲	-12537
危险化学品除外	-12538
强劲	-12539
金色	-12540
rop	-12541
罗马尼亚	-12542
▁文化教育	-12543
▁孟	-12544
史诗	-12545
规模的	-12546
受损	-12547
揭开	-12548
竞争力的	-12549
落户	-12550
军医	-12551
沧桑	-12552
战斗中	-12553
▁上海市	-12554
农村社会	-12555
溶性	-12556
糖果	-12557
花草	-12558
骨科	-12559
aby	-12560
追求卓越	-12561
理查德	-12562
SH	-12563
肾功能	-12564
ma	-12565
曾为	-12566
的分	-12567
RNA	-12568
的努力	-12569
车时间	-12570
最先进的	-12571
烧烤	-12572
arry	-12573
却被	-12574
ision	-12575
家常	-12576
救济	-12577
标配	-12578
汉代	-12579
oot	-12580
事件的	-12581
波罗	-12582
▁内存类型	-12583
立场	-12584
马铃薯	-12585
电子信息	-12586
修行	-12587
勘查	-12588
接种	-12589
▁牌	-12590
▁远	-12591
教务	-12592
▁适宜	-12593
合肥市	-12594
管理中心	-12595
薪酬	-12596
》:"	-12597
精神和	-12598
解码	-12599
诸侯	-12600
▁。(	-12601
▁鲁	-12602
捷克	-12603
杏仁	-12604
清澈	-12605
火星	-12606
城市建设	-12607
行政机关	-12608
情趣	-12609
询问	-12610
霸王	-12611
等活动	-12612
二氧化碳	-12613
后世	-12614
敌人的	-12615
均价	-12616
阳台	-12617
萨克	-12618
雄厚的	-12619
体操	-12620
宝贵	-12621
时有	-12622
海盗	-12623
特有	-12624
报复	-12625
▁品种	-12626
分钟后	-12627
的公司	-12628
最大限度	-12629
健脾	-12630
恩来	-12631
他又	-12632
工学院	-12633
▁四川省	-12634
培训和	-12635
罗拉	-12636
肺炎	-12637
这也	-12638
员的	-12639
暂停	-12640
结识	-12641
董事会	-12642
向南	-12643
林场	-12644
长沙市	-12645
培养学生	-12646
庄镇	-12647
膜炎	-12648
▁On	-12649
之间的关系	-12650
工程技术人员	-12651
的重要组成部分	-12652
托管	-12653
香蕉	-12654
经典的	-12655
实践经验	-12656
职业学院	-12657
各方	-12658
封装	-12659
焦炭	-12660
中央空调	-12661
IOS	-12662
▁课程	-12663
严格按照	-12664
京城	-12665
回路	-12666
年鉴	-12667
莆田	-12668
阶层	-12669
共同努力	-12670
▁潘	-12671
三项	-12672
九月	-12673
却在	-12674
唐山	-12675
安庆	-12676
螺纹	-12677
人口和计划生育	-12678
人是	-12679
年限	-12680
的特征	-12681
▁走	-12682
成虫	-12683
一无二	-12684
酿酒	-12685
今天的	-12686
黄褐色	-12687
人民日报	-12688
政府部门	-12689
正式成立	-12690
电子技术	-12691
分行	-12692
封印	-12693
▁法律	-12694
生活保障	-12695
▁Love	-12696
七月	-12697
地块	-12698
尺度	-12699
并获	-12700
潜水	-12701
畅通	-12702
绒毛	-12703
颈部	-12704
ther	-12705
图解	-12706
Wh	-12707
▁②	-12708
笑容	-12709
风险管理	-12710
旅馆	-12711
太太	-12712
舞曲	-12713
▁吕	-12714
东站	-12715
中书	-12716
浓厚	-12717
漂流	-12718
精油	-12719
红柿	-12720
iPhone	-12721
和有关	-12722
中山大学	-12723
刻苦	-12724
声优	-12725
大棚	-12726
契机	-12727
极品	-12728
沸点	-12729
轰炸	-12730
计算器	-12731
系列丛书	-12732
SN	-12733
互补	-12734
君主	-12735
壁纸	-12736
平常	-12737
▁常用	-12738
现有农户	-12739
资料来源	-12740
尤为	-12741
已于	-12742
得多	-12743
在家	-12744
本县	-12745
签名	-12746
实用的	-12747
TM	-12748
并用	-12749
影院	-12750
蒙特	-12751
身体的	-12752
北极	-12753
四月	-12754
时常	-12755
督查	-12756
送给	-12757
▁专题	-12758
产品和	-12759
text	-12760
元的	-12761
科夫	-12762
逮捕	-12763
闪光灯	-12764
不绝	-12765
花费	-12766
适龄	-12767
第七届	-12768
厨师	-12769
行列	-12770
难道	-12771
中文名称	-12772
theat	-12773
大兴	-12774
有权	-12775
科协	-12776
let	-12777
的食物	-12778
颇具	-12779
的主要产业为	-12780
本村	-12781
参合率	-12782
▁LED	-12783
生物技术	-12784
环路	-12785
破裂	-12786
防守	-12787
的治疗	-12788
▁体育	-12789
▁成功	-12790
解放后	-12791
通讯录	-12792
面积约	-12793
饮水困难	-12794
电子科技有限公司	-12795
愉悦	-12796
私立	-12797
文化与	-12798
安定	-12799
留校	-12800
骑兵	-12801
副作用	-12802
bert	-12803
遵义	-12804
钻研	-12805
大革命	-12806
连续剧	-12807
散发	-12808
湖区	-12809
草坪	-12810
误区	-12811
奢华	-12812
积极性	-12813
Fi	-12814
▁】	-12815
东山	-12816
会使	-12817
曾是	-12818
的重	-12819
萎缩	-12820
厂长	-12821
管材	-12822
爱情的	-12823
著作权	-12824
国庆	-12825
su	-12826
周到	-12827
还存在	-12828
公司简介	-12829
图标	-12830
报社	-12831
led	-12832
▁单位	-12833
我们可以	-12834
贯彻执行国家	-12835
yr	-12836
掌控	-12837
的中心	-12838
之门	-12839
因病	-12840
演义	-12841
综合素质	-12842
主观	-12843
出台	-12844
在今	-12845
提案	-12846
旁边	-12847
▁演唱	-12848
一根	-12849
号为	-12850
征集	-12851
花纹	-12852
龙泉	-12853
▁之称	-12854
经济技术开发区	-12855
theatrical	-12856
惩罚	-12857
昆仑	-12858
呼吸道	-12859
药业	-12860
文学的	-12861
配备了	-12862
事先	-12863
他被	-12864
话语	-12865
书画院	-12866
保健品	-12867
技术咨询服务	-12868
那是	-12869
龙的	-12870
atch	-12871
设备及配件	-12872
山谷	-12873
报考	-12874
有机会	-12875
得出	-12876
oog	-12877
总之	-12878
涌现	-12879
选项	-12880
结合起来	-12881
光伏	-12882
或不	-12883
副导演	-12884
智能手机	-12885
++	-12886
▁兰	-12887
板上	-12888
酒庄	-12889
ient	-12890
八月	-12891
分院	-12892
促进会	-12893
中国教育	-12894
唐诗	-12895
热闹	-12896
房地产开发有限公司	-12897
母婴	-12898
热心	-12899
游击队	-12900
株高	-12901
水路	-12902
试用	-12903
五星级	-12904
责任制	-12905
头上	-12906
沼泽	-12907
大成	-12908
扁平	-12909
而非	-12910
哪个	-12911
evel	-12912
卧室	-12913
邻近	-12914
二十世纪	-12915
设计与施工	-12916
外地	-12917
水田	-12918
的反	-12919
▁首发	-12920
管理处	-12921
浮雕	-12922
rem	-12923
快来	-12924
立足于	-12925
网络的	-12926
▁我们的	-12927
▁物	-12928
真情	-12929
%)，	-12930
起源于	-12931
▁影响	-12932
DM	-12933
▁费	-12934
学园	-12935
降临	-12936
ena	-12937
设施齐全	-12938
好奇	-12939
拥抱	-12940
插曲	-12941
sup	-12942
▁style	-12943
让学生	-12944
图的	-12945
秘诀	-12946
华山	-12947
完工	-12948
触控	-12949
▁中心	-12950
等各类	-12951
▁can	-12952
图表	-12953
相思	-12954
的男人	-12955
回头	-12956
火腿	-12957
紫外线	-12958
设计及	-12959
心脏病	-12960
对外开放	-12961
电视节目	-12962
壮族自治区	-12963
为宜	-12964
谨慎	-12965
富贵	-12966
只需要	-12967
进驻	-12968
▁电池类型	-12969
听众	-12970
唤醒	-12971
皮具	-12972
杰出的	-12973
的健康	-12974
金黄色	-12975
科学研究院	-12976
病症	-12977
纪实	-12978
▁all	-12979
属于自己的	-12980
▁乔	-12981
七个	-12982
入党	-12983
堆积	-12984
二世	-12985
尊敬	-12986
茶匙	-12987
追寻	-12988
▁娱乐	-12989
汽车零配件	-12990
四处	-12991
尔顿	-12992
山羊	-12993
年以	-12994
越多	-12995
reat	-12996
劳动力的	-12997
德斯	-12998
专长	-12999
之首	-13000
多点	-13001
违法行为	-13002
PK	-13003
无忧	-13004
了他的	-13005
▁第二十章	-13006
▁软	-13007
卵巢	-13008
止痛	-13009
而上	-13010
农业总产值	-13011
化学药制剂	-13012
孔雀	-13013
伴奏	-13014
品德	-13015
布斯	-13016
：《	-13017
hem	-13018
设立的	-13019
针织品	-13020
大床	-13021
▁pr	-13022
英特尔	-13023
▁军	-13024
得很	-13025
态势	-13026
月光	-13027
镇的	-13028
▁建立	-13029
伴随	-13030
商用	-13031
编译	-13032
车道	-13033
中国经济	-13034
师范学校	-13035
生产设备	-13036
的超	-13037
▁独立	-13038
哈哈	-13039
在前	-13040
多万	-13041
建筑业	-13042
培训机构	-13043
网络游戏	-13044
举措	-13045
其为	-13046
加拉	-13047
子上	-13048
▁思考题	-13049
一段时间	-13050
pm	-13051
▁高级	-13052
降低了	-13053
TE	-13054
▁蒋	-13055
纸质	-13056
优异的	-13057
idge	-13058
享誉	-13059
佛罗	-13060
投资的	-13061
可以选择	-13062
网络技术	-13063
高产	-13064
催化剂	-13065
厕所	-13066
与技术	-13067
师资队伍	-13068
易学	-13069
的本	-13070
首部	-13071
ush	-13072
的条件	-13073
生产工艺	-13074
渐进	-13075
的名	-13076
贴士	-13077
鲜活	-13078
▁新闻	-13079
的系统	-13080
法规禁止	-13081
▁行政区划	-13082
一手	-13083
加深	-13084
应试	-13085
现行	-13086
著述	-13087
内心的	-13088
不容	-13089
根源	-13090
▁就是	-13091
晋江文学城	-13092
多达	-13093
白银	-13094
▁还	-13095
深层	-13096
环氧	-13097
先后荣获	-13098
他也	-13099
六月	-13100
同心	-13101
弗雷	-13102
折扣	-13103
拿到	-13104
蓝天	-13105
▁版本	-13106
。★	-13107
计数	-13108
转发	-13109
▁万元	-13110
不容易	-13111
示范性	-13112
oint	-13113
▁说明书	-13114
该村距离	-13115
▁cont	-13116
做一个	-13117
旅游局	-13118
的一所	-13119
。-	-13120
喇叭	-13121
时间和	-13122
▁分子量	-13123
▁奇	-13124
って	-13125
无形	-13126
服从	-13127
濒危	-13128
美誉	-13129
作品被	-13130
ka	-13131
▁旧	-13132
突变	-13133
金曲	-13134
▁会计	-13135
关节炎	-13136
的颜色	-13137
食品有限公司	-13138
上百	-13139
嘉靖	-13140
核定	-13141
肉类	-13142
世博会	-13143
中国特色	-13144
%)	-13145
全天	-13146
格斯	-13147
包含了	-13148
科技部	-13149
这个世界	-13150
▁地理环境	-13151
条纹	-13152
州刺史	-13153
安全技术	-13154
大学出版社出版的图书	-13155
DO	-13156
水墨	-13157
立案	-13158
▁机械	-13159
人所	-13160
想起	-13161
荷花	-13162
葱花	-13163
站首末	-13164
玉石	-13165
管家	-13166
要把	-13167
培养了	-13168
得天独	-13169
▁多媒体	-13170
类专业	-13171
起到了	-13172
ange	-13173
会被	-13174
保守	-13175
校内	-13176
的可	-13177
使用了	-13178
呵护	-13179
海淀	-13180
乌鲁木齐	-13181
换乘	-13182
桃源	-13183
狩猎	-13184
III	-13185
热水器	-13186
earch	-13187
▁头	-13188
之声	-13189
PVC	-13190
冰糖	-13191
在上	-13192
心得	-13193
时可	-13194
log	-13195
医疗保险	-13196
文学作品	-13197
然后再	-13198
高标准	-13199
▁带	-13200
一会	-13201
告知	-13202
小米	-13203
照射	-13204
开拓创新	-13205
▁画	-13206
不准	-13207
还包括	-13208
独一无二	-13209
CF	-13210
供奉	-13211
将是	-13212
武士	-13213
▁校园	-13214
限分支机构经营	-13215
居家	-13216
无情	-13217
算是	-13218
藏族	-13219
不懂	-13220
供养	-13221
双层	-13222
总督	-13223
年北京	-13224
老师的	-13225
指导思想	-13226
▁里	-13227
商机	-13228
实惠	-13229
财税	-13230
贴吧	-13231
第八届	-13232
获得的	-13233
line	-13234
mL	-13235
不育	-13236
二维	-13237
底层	-13238
▁参演	-13239
▁引言	-13240
cess	-13241
日光	-13242
甲醛	-13243
发改委	-13244
是作者	-13245
负责组织	-13246
电子有限公司	-13247
播音	-13248
狙击	-13249
的处理	-13250
目的地	-13251
定期开展	-13252
▁雅	-13253
亚科	-13254
再见	-13255
切削	-13256
▁动画	-13257
分析了	-13258
不为	-13259
妇产科	-13260
idae	-13261
发展趋势	-13262
颈椎	-13263
快乐的	-13264
洗涤用品	-13265
之城	-13266
座位	-13267
瘦肉	-13268
风吹	-13269
多利亚	-13270
交替	-13271
小块	-13272
对人体	-13273
总工会	-13274
集团的	-13275
充沛	-13276
屏蔽	-13277
稽查	-13278
记账	-13279
och	-13280
脂肪酸	-13281
▁铜	-13282
研发中心	-13283
二甲	-13284
介石	-13285
味的	-13286
斑病	-13287
本届	-13288
沿线	-13289
除尘	-13290
难得	-13291
▁两个	-13292
使用者	-13293
构成了	-13294
城南	-13295
河西	-13296
前所未	-13297
日出生	-13298
生长发育	-13299
等荣誉称号	-13300
货物运输代理	-13301
在内	-13302
摧毁	-13303
▁技能	-13304
一直是	-13305
无霜期	-13306
全村共拥有	-13307
▁	-13308
，	-13309
的	-13310
、	-13311
。	-13312
0	-13313
1	-13314
2	-13315
一	-13316
中	-13317
人	-13318
年	-13319
学	-13320
有	-13321
:	-13322
是	-13323
9	-13324
国	-13325
为	-13326
3	-13327
在	-13328
和	-13329
大	-13330
e	-13331
5	-13332
.	-13333
业	-13334
作	-13335
生	-13336
)	-13337
4	-13338
a	-13339
(	-13340
用	-13341
-	-13342
8	-13343
工	-13344
不	-13345
品	-13346
i	-13347
了	-13348
6	-13349
成	-13350
发	-13351
n	-13352
第	-13353
理	-13354
o	-13355
公	-13356
以	-13357
7	-13358
会	-13359
》	-13360
《	-13361
出	-13362
上	-13363
r	-13364
地	-13365
个	-13366
等	-13367
经	-13368
于	-13369
家	-13370
文	-13371
t	-13372
时	-13373
与	-13374
电	-13375
行	-13376
产	-13377
化	-13378
主	-13379
;	-13380
设	-13381
分	-13382
市	-13383
机	-13384
月	-13385
方	-13386
s	-13387
能	-13388
动	-13389
教	-13390
可	-13391
高	-13392
要	-13393
务	-13394
全	-13395
部	-13396
本	-13397
日	-13398
法	-13399
l	-13400
制	-13401
体	-13402
小	-13403
建	-13404
后	-13405
及	-13406
内	-13407
子	-13408
自	-13409
多	-13410
对	-13411
之	-13412
术	-13413
开	-13414
性	-13415
合	-13416
长	-13417
新	-13418
物	-13419
面	-13420
进	-13421
区	-13422
到	-13423
名	-13424
三	-13425
科	-13426
实	-13427
力	-13428
管	-13429
水	-13430
其	-13431
技	-13432
现	-13433
,	-13434
来	-13435
司	-13436
心	-13437
展	-13438
书	-13439
系	-13440
定	-13441
员	-13442
通	-13443
事	-13444
m	-13445
者	-13446
二	-13447
下	-13448
计	-13449
这	-13450
种	-13451
程	-13452
他	-13453
十	-13454
S	-13455
民	-13456
目	-13457
量	-13458
过	-13459
同	-13460
章	-13461
加	-13462
入	-13463
金	-13464
特	-13465
c	-13466
重	-13467
研	-13468
位	-13469
d	-13470
代	-13471
服	-13472
A	-13473
我	-13474
关	-13475
政	-13476
度	-13477
外	-13478
基	-13479
资	-13480
C	-13481
h	-13482
最	-13483
所	-13484
美	-13485
信	-13486
平	-13487
专	-13488
天	-13489
立	-13490
u	-13491
社	-13492
数	-13493
间	-13494
营	-13495
村	-13496
而	-13497
南	-13498
山	-13499
得	-13500
任	-13501
保	-13502
西	-13503
海	-13504
安	-13505
点	-13506
色	-13507
场	-13508
道	-13509
式	-13510
网	-13511
类	-13512
路	-13513
装	-13514
M	-13515
表	-13516
件	-13517
院	-13518
提	-13519
质	-13520
校	-13521
也	-13522
北	-13523
省	-13524
/	-13525
统	-13526
节	-13527
型	-13528
P	-13529
育	-13530
应	-13531
前	-13532
东	-13533
组	-13534
料	-13535
里	-13536
商	-13537
相	-13538
备	-13539
并	-13540
版	-13541
级	-13542
期	-13543
就	-13544
师	-13545
情	-13546
们	-13547
四	-13548
从	-13549
器	-13550
究	-13551
g	-13552
明	-13553
无	-13554
活	-13555
形	-13556
导	-13557
项	-13558
I	-13559
好	-13560
包	-13561
·	-13562
D	-13563
"	-13564
利	-13565
介	-13566
口	-13567
具	-13568
材	-13569
五	-13570
使	-13571
广	-13572
企	-13573
交	-13574
原	-13575
元	-13576
规	-13577
如	-13578
将	-13579
B	-13580
创	-13581
由	-13582
各	-13583
说	-13584
流	-13585
被	-13586
世	-13587
T	-13588
传	-13589
车	-13590
结	-13591
都	-13592
游	-13593
限	-13594
米	-13595
演	-13596
（	-13597
手	-13598
总	-13599
简	-13600
：	-13601
）	-13602
集	-13603
城	-13604
范	-13605
常	-13606
农	-13607
委	-13608
或	-13609
次	-13610
办	-13611
标	-13612
图	-13613
影	-13614
起	-13615
处	-13616
意	-13617
当	-13618
收	-13619
单	-13620
万	-13621
门	-13622
风	-13623
p	-13624
容	-13625
线	-13626
y	-13627
户	-13628
论	-13629
正	-13630
运	-13631
息	-13632
E	-13633
持	-13634
然	-13635
县	-13636
格	-13637
果	-13638
花	-13639
因	-13640
参	-13641
接	-13642
光	-13643
语	-13644
气	-13645
题	-13646
乐	-13647
先	-13648
造	-13649
艺	-13650
着	-13651
战	-13652
女	-13653
斯	-13654
视	-13655
共	-13656
解	-13657
州	-13658
源	-13659
精	-13660
医	-13661
江	-13662
获	-13663
优	-13664
构	-13665
台	-13666
调	-13667
克	-13668
界	-13669
治	-13670
职	-13671
片	-13672
华	-13673
身	-13674
指	-13675
功	-13676
至	-13677
向	-13678
强	-13679
更	-13680
历	-13681
称	-13682
比	-13683
配	-13684
两	-13685
林	-13686
效	-13687
团	-13688
还	-13689
环	-13690
围	-13691
济	-13692
变	-13693
达	-13694
音	-13695
G	-13696
销	-13697
此	-13698
L	-13699
爱	-13700
R	-13701
N	-13702
号	-13703
你	-13704
知	-13705
施	-13706
尔	-13707
支	-13708
神	-13709
军	-13710
属	-13711
联	-13712
德	-13713
英	-13714
记	-13715
划	-13716
头	-13717
O	-13718
奖	-13719
供	-13720
清	-13721
选	-13722
白	-13723
士	-13724
准	-13725
积	-13726
编	-13727
局	-13728
病	-13729
别	-13730
领	-13731
王	-13732
验	-13733
条	-13734
放	-13735
已	-13736
报	-13737
际	-13738
据	-13739
改	-13740
考	-13741
括	-13742
石	-13743
织	-13744
证	-13745
H	-13746
布	-13747
售	-13748
受	-13749
求	-13750
站	-13751
感	-13752
模	-13753
园	-13754
史	-13755
队	-13756
食	-13757
京	-13758
镇	-13759
b	-13760
少	-13761
画	-13762
室	-13763
戏	-13764
境	-13765
该	-13766
义	-13767
价	-13768
观	-13769
空	-13770
完	-13771
想	-13772
河	-13773
%	-13774
深	-13775
养	-13776
直	-13777
责	-13778
字	-13779
录	-13780
客	-13781
k	-13782
球	-13783
带	-13784
青	-13785
易	-13786
评	-13787
马	-13788
老	-13789
府	-13790
古	-13791
防	-13792
但	-13793
问	-13794
f	-13795
每	-13796
护	-13797
党	-13798
百	-13799
首	-13800
房	-13801
投	-13802
注	-13803
药	-13804
修	-13805
协	-13806
置	-13807
副	-13808
维	-13809
推	-13810
习	-13811
样	-13812
做	-13813
思	-13814
热	-13815
景	-13816
真	-13817
素	-13818
存	-13819
率	-13820
V	-13821
阳	-13822
除	-13823
张	-13824
取	-13825
列	-13826
儿	-13827
示	-13828
批	-13829
F	-13830
剧	-13831
去	-13832
己	-13833
整	-13834
土	-13835
需	-13836
亚	-13837
筑	-13838
些	-13839
六	-13840
油	-13841
让	-13842
控	-13843
约	-13844
黄	-13845
算	-13846
乡	-13847
只	-13848
很	-13849
打	-13850
转	-13851
龙	-13852
红	-13853
始	-13854
回	-13855
测	-13856
适	-13857
连	-13858
增	-13859
速	-13860
识	-13861
复	-13862
族	-13863
命	-13864
v	-13865
案	-13866
它	-13867
又	-13868
干	-13869
角	-13870
拉	-13871
!	-13872
才	-13873
试	-13874
步	-13875
认	-13876
费	-13877
她	-13878
牌	-13879
培	-13880
近	-13881
助	-13882
星	-13883
卡	-13884
见	-13885
均	-13886
言	-13887
态	-13888
看	-13889
读	-13890
温	-13891
周	-13892
状	-13893
较	-13894
权	-13895
查	-13896
策	-13897
赛	-13898
监	-13899
W	-13900
负	-13901
域	-13902
著	-13903
引	-13904
离	-13905
采	-13906
含	-13907
则	-13908
w	-13909
卫	-13910
故	-13911
象	-13912
值	-13913
八	-13914
根	-13915
非	-13916
…	-13917
即	-13918
极	-13919
许	-13920
细	-13921
话	-13922
络	-13923
香	-13924
决	-13925
志	-13926
没	-13927
反	-13928
承	-13929
纪	-13930
层	-13931
消	-13932
血	-13933
那	-13934
给	-13935
课	-13936
太	-13937
酒	-13938
曲	-13939
何	-13940
七	-13941
险	-13942
博	-13943
显	-13944
火	-13945
念	-13946
超	-13947
议	-13948
快	-13949
疗	-13950
木	-13951
把	-13952
压	-13953
检	-13954
写	-13955
九	-13956
汉	-13957
歌	-13958
富	-13959
湖	-13960
武	-13961
K	-13962
店	-13963
断	-13964
再	-13965
男	-13966
像	-13967
么	-13968
居	-13969
击	-13970
健	-13971
U	-13972
照	-13973
训	-13974
律	-13975
声	-13976
便	-13977
饰	-13978
核	-13979
罗	-13980
x	-13981
低	-13982
余	-13983
宝	-13984
切	-13985
李	-13986
告	-13987
软	-13988
云	-13989
双	-13990
初	-13991
询	-13992
独	-13993
曾	-13994
植	-13995
秀	-13996
足	-13997
越	-13998
今	-13999
确	-14000
述	-14001
众	-14002
住	-14003
授	-14004
致	-14005
普	-14006
边	-14007
密	-14008
福	-14009
排	-14010
审	-14011
货	-14012
康	-14013
革	-14014
未	-14015
黑	-14016
财	-14017
词	-14018
叶	-14019
响	-14020
皮	-14021
例	-14022
旅	-14023
千	-14024
析	-14025
绍	-14026
兰	-14027
况	-14028
播	-14029
苏	-14030
“	-14031
段	-14032
满	-14033
争	-14034
益	-14035
”	-14036
板	-14037
群	-14038
输	-14039
随	-14040
续	-14041
馆	-14042
升	-14043
典	-14044
难	-14045
印	-14046
依	-14047
咨	-14048
友	-14049
铁	-14050
础	-14051
远	-14052
诗	-14053
预	-14054
几	-14055
落	-14056
按	-14057
微	-14058
械	-14059
篇	-14060
荣	-14061
仪	-14062
亩	-14063
兴	-14064
春	-14065
占	-14066
款	-14067
善	-14068
草	-14069
载	-14070
频	-14071
拥	-14072
J	-14073
势	-14074
智	-14075
良	-14076
终	-14077
银	-14078
届	-14079
亲	-14080
；	-14081
丰	-14082
讲	-14083
~	-14084
喜	-14085
失	-14086
融	-14087
且	-14088
味	-14089
走	-14090
必	-14091
序	-14092
菜	-14093
汽	-14094
飞	-14095
奇	-14096
综	-14097
楼	-14098
略	-14099
巴	-14100
藏	-14101
绿	-14102
执	-14103
般	-14104
阿	-14105
贸	-14106
眼	-14107
波	-14108
班	-14109
底	-14110
灵	-14111
临	-14112
充	-14113
田	-14114
套	-14115
操	-14116
树	-14117
宁	-14118
征	-14119
轻	-14120
死	-14121
担	-14122
零	-14123
座	-14124
端	-14125
盘	-14126
劳	-14127
抗	-14128
'	-14129
望	-14130
肉	-14131
往	-14132
互	-14133
彩	-14134
厂	-14135
请	-14136
举	-14137
川	-14138
官	-14139
粉	-14140
钢	-14141
购	-14142
毒	-14143
针	-14144
概	-14145
什	-14146
尼	-14147
陈	-14148
夫	-14149
距	-14150
附	-14151
摄	-14152
杂	-14153
移	-14154
异	-14155
丽	-14156
射	-14157
止	-14158
辑	-14159
孩	-14160
【	-14161
危	-14162
】	-14163
纳	-14164
街	-14165
港	-14166
毕	-14167
却	-14168
鱼	-14169
毛	-14170
背	-14171
免	-14172
液	-14173
份	-14174
岁	-14175
练	-14176
酸	-14177
母	-14178
桥	-14179
玉	-14180
仅	-14181
佳	-14182
码	-14183
突	-14184
督	-14185
宗	-14186
岛	-14187
害	-14188
朝	-14189
X	-14190
股	-14191
早	-14192
洲	-14193
沙	-14194
[	-14195
]	-14196
钟	-14197
留	-14198
托	-14199
z	-14200
半	-14201
严	-14202
破	-14203
欢	-14204
伤	-14205
剂	-14206
短	-14207
坚	-14208
庆	-14209
察	-14210
斗	-14211
卷	-14212
刘	-14213
脑	-14214
择	-14215
宣	-14216
索	-14217
童	-14218
降	-14219
候	-14220
吸	-14221
松	-14222
冷	-14223
换	-14224
硬	-14225
航	-14226
献	-14227
贵	-14228
床	-14229
玩	-14230
誉	-14231
激	-14232
尚	-14233
探	-14234
固	-14235
矿	-14236
堂	-14237
吉	-14238
库	-14239
奥	-14240
永	-14241
庄	-14242
季	-14243
觉	-14244
令	-14245
威	-14246
须	-14247
享	-14248
册	-14249
礼	-14250
送	-14251
媒	-14252
庭	-14253
甲	-14254
秘	-14255
左	-14256
骨	-14257
梦	-14258
厅	-14259
兵	-14260
欧	-14261
舞	-14262
杀	-14263
税	-14264
刻	-14265
笔	-14266
宽	-14267
刊	-14268
唱	-14269
牛	-14270
茶	-14271
丝	-14272
塑	-14273
绝	-14274
帮	-14275
圆	-14276
减	-14277
散	-14278
尽	-14279
障	-14280
登	-14281
键	-14282
唐	-14283
补	-14284
右	-14285
Y	-14286
派	-14287
父	-14288
夏	-14289
饮	-14290
块	-14291
闻	-14292
雄	-14293
纸	-14294
攻	-14295
蛋	-14296
+	-14297
陆	-14298
魔	-14299
寸	-14300
胶	-14301
释	-14302
雷	-14303
餐	-14304
顾	-14305
央	-14306
继	-14307
末	-14308
夜	-14309
追	-14310
待	-14311
帝	-14312
促	-14313
野	-14314
另	-14315
染	-14316
鲜	-14317
招	-14318
胜	-14319
希	-14320
兼	-14321
塔	-14322
聚	-14323
洗	-14324
盖	-14325
湾	-14326
找	-14327
洋	-14328
佛	-14329
汇	-14330
封	-14331
拍	-14332
幼	-14333
灯	-14334
屏	-14335
×	-14336
遗	-14337
杨	-14338
够	-14339
稳	-14340
讯	-14341
厚	-14342
冲	-14343
圣	-14344
雨	-14345
警	-14346
鸡	-14347
糖	-14348
雅	-14349
熟	-14350
救	-14351
宫	-14352
顶	-14353
森	-14354
尺	-14355
您	-14356
>	-14357
宜	-14358
盐	-14359
竞	-14360
差	-14361
症	-14362
听	-14363
架	-14364
轮	-14365
遇	-14366
池	-14367
静	-14368
守	-14369
皇	-14370
毫	-14371
盛	-14372
吃	-14373
顺	-14374
紧	-14375
辅	-14376
穿	-14377
归	-14378
宋	-14379
休	-14380
亿	-14381
页	-14382
久	-14383
览	-14384
详	-14385
予	-14386
额	-14387
婚	-14388
哈	-14389
弹	-14390
储	-14391
译	-14392
席	-14393
漫	-14394
票	-14395
菌	-14396
韩	-14397
*	-14398
幕	-14399
鲁	-14400
烟	-14401
侧	-14402
豆	-14403
拟	-14404
混	-14405
肥	-14406
纯	-14407
齐	-14408
启	-14409
亮	-14410
诚	-14411
钱	-14412
晚	-14413
津	-14414
似	-14415
蒙	-14416
申	-14417
雪	-14418
否	-14419
泰	-14420
衣	-14421
峰	-14422
描	-14423
址	-14424
净	-14425
镜	-14426
丁	-14427
径	-14428
籍	-14429
蓝	-14430
洛	-14431
秋	-14432
阶	-14433
冠	-14434
伊	-14435
胞	-14436
践	-14437
愿	-14438
靠	-14439
浙	-14440
瑞	-14441
透	-14442
痛	-14443
疾	-14444
胡	-14445
膜	-14446
阴	-14447
牙	-14448
伦	-14449
映	-14450
船	-14451
缘	-14452
若	-14453
氏	-14454
延	-14455
绩	-14456
泉	-14457
岩	-14458
珠	-14459
扩	-14460
虫	-14461
假	-14462
急	-14463
梅	-14464
阅	-14465
辖	-14466
退	-14467
损	-14468
箱	-14469
爆	-14470
润	-14471
逐	-14472
诺	-14473
访	-14474
恩	-14475
趣	-14476
某	-14477
脉	-14478
吧	-14479
苦	-14480
杰	-14481
怀	-14482
买	-14483
档	-14484
谷	-14485
湿	-14486
吴	-14487
巧	-14488
贝	-14489
挥	-14490
停	-14491
翻	-14492
缺	-14493
扬	-14494
祖	-14495
触	-14496
冰	-14497
麦	-14498
借	-14499
途	-14500
摩	-14501
肤	-14502
硕	-14503
订	-14504
错	-14505
汤	-14506
巨	-14507
伯	-14508
炎	-14509
洁	-14510
丹	-14511
哥	-14512
盟	-14513
患	-14514
叫	-14515
仙	-14516
沟	-14517
掌	-14518
判	-14519
耳	-14520
寻	-14521
鉴	-14522
贯	-14523
谈	-14524
锅	-14525
竹	-14526
涉	-14527
泽	-14528
滑	-14529
坐	-14530
梁	-14531
寺	-14532
沿	-14533
烧	-14534
孔	-14535
困	-14536
姓	-14537
烈	-14538
倒	-14539
殖	-14540
努	-14541
颜	-14542
甘	-14543
厘	-14544
繁	-14545
付	-14546
脱	-14547
妇	-14548
诊	-14549
笑	-14550
嘉	-14551
莱	-14552
贴	-14553
泛	-14554
孙	-14555
麻	-14556
绘	-14557
纺	-14558
虽	-14559
刺	-14560
朋	-14561
猪	-14562
渐	-14563
符	-14564
屋	-14565
露	-14566
洞	-14567
诉	-14568
幸	-14569
禁	-14570
插	-14571
讨	-14572
乳	-14573
Q	-14574
弟	-14575
塞	-14576
刚	-14577
句	-14578
氧	-14579
昌	-14580
亦	-14581
呈	-14582
荐	-14583
震	-14584
恶	-14585
敌	-14586
旗	-14587
脂	-14588
剑	-14589
殊	-14590
惠	-14591
旧	-14592
签	-14593
横	-14594
虚	-14595
轴	-14596
谢	-14597
迷	-14598
卖	-14599
紫	-14600
丛	-14601
折	-14602
脚	-14603
君	-14604
萨	-14605
仁	-14606
耐	-14607
缩	-14608
耕	-14609
赏	-14610
苗	-14611
晶	-14612
—	-14613
冬	-14614
怎	-14615
暗	-14616
陶	-14617
宇	-14618
励	-14619
℃	-14620
既	-14621
闲	-14622
赵	-14623
尾	-14624
井	-14625
握	-14626
跟	-14627
<	-14628
瓦	-14629
浪	-14630
罪	-14631
潮	-14632
哲	-14633
羊	-14634
租	-14635
圳	-14636
隆	-14637
拿	-14638
宾	-14639
亡	-14640
俗	-14641
迹	-14642
污	-14643
甚	-14644
迪	-14645
刀	-14646
溪	-14647
邮	-14648
伴	-14649
呼	-14650
Z	-14651
粒	-14652
燃	-14653
乌	-14654
凭	-14655
朱	-14656
沉	-14657
慢	-14658
杯	-14659
敏	-14660
避	-14661
幻	-14662
郑	-14663
徐	-14664
隐	-14665
拔	-14666
徽	-14667
衡	-14668
纹	-14669
莫	-14670
鸟	-14671
灾	-14672
贡	-14673
鞋	-14674
伍	-14675
累	-14676
岸	-14677
伟	-14678
墨	-14679
灰	-14680
煤	-14681
泥	-14682
妈	-14683
晋	-14684
坛	-14685
姆	-14686
彻	-14687
勇	-14688
迁	-14689
迎	-14690
惊	-14691
裂	-14692
币	-14693
答	-14694
刷	-14695
诸	-14696
怪	-14697
败	-14698
墙	-14699
凤	-14700
潜	-14701
旨	-14702
拓	-14703
私	-14704
洪	-14705
j	-14706
仍	-14707
谁	-14708
桃	-14709
唯	-14710
尤	-14711
截	-14712
乎	-14713
鼓	-14714
娱	-14715
凡	-14716
勒	-14717
暖	-14718
坡	-14719
岗	-14720
乱	-14721
溶	-14722
乘	-14723
旋	-14724
尊	-14725
珍	-14726
残	-14727
顿	-14728
曼	-14729
坏	-14730
浓	-14731
肌	-14732
腐	-14733
疑	-14734
恋	-14735
犯	-14736
慧	-14737
焦	-14738
泡	-14739
壁	-14740
兽	-14741
阻	-14742
忆	-14743
粮	-14744
枝	-14745
柱	-14746
=	-14747
秦	-14748
邻	-14749
鼠	-14750
捷	-14751
腹	-14752
铜	-14753
奶	-14754
寿	-14755
枪	-14756
荷	-14757
龄	-14758
圈	-14759
寒	-14760
乙	-14761
振	-14762
艾	-14763
误	-14764
尖	-14765
凝	-14766
瓜	-14767
淡	-14768
栏	-14769
磨	-14770
隔	-14771
挑	-14772
耗	-14773
柔	-14774
牧	-14775
芯	-14776
迅	-14777
束	-14778
勤	-14779
妆	-14780
锁	-14781
陵	-14782
炒	-14783
纤	-14784
雕	-14785
灭	-14786
虎	-14787
倍	-14788
驻	-14789
估	-14790
辆	-14791
俱	-14792
覆	-14793
弱	-14794
豪	-14795
驱	-14796
磁	-14797
薄	-14798
姐	-14799
肿	-14800
澳	-14801
琴	-14802
链	-14803
吨	-14804
壮	-14805
杜	-14806
肝	-14807
谓	-14808
坦	-14809
俄	-14810
姜	-14811
椒	-14812
措	-14813
宏	-14814
窗	-14815
肠	-14816
辉	-14817
缓	-14818
循	-14819
炸	-14820
聘	-14821
暴	-14822
涂	-14823
炼	-14824
董	-14825
鬼	-14826
瓷	-14827
抓	-14828
凯	-14829
奏	-14830
陕	-14831
筹	-14832
跨	-14833
疫	-14834
谐	-14835
幅	-14836
锦	-14837
晓	-14838
辽	-14839
裁	-14840
默	-14841
遍	-14842
刑	-14843
恒	-14844
尿	-14845
宿	-14846
饭	-14847
妹	-14848
谱	-14849
纵	-14850
舍	-14851
吗	-14852
谋	-14853
岭	-14854
「	-14855
忠	-14856
舒	-14857
哪	-14858
」	-14859
沈	-14860
浮	-14861
庙	-14862
辛	-14863
魂	-14864
贫	-14865
羽	-14866
玻	-14867
朗	-14868
璃	-14869
阵	-14870
喷	-14871
玛	-14872
楚	-14873
召	-14874
废	-14875
违	-14876
帽	-14877
绕	-14878
闭	-14879
挂	-14880
杭	-14881
跳	-14882
赢	-14883
搭	-14884
滨	-14885
偏	-14886
卓	-14887
郎	-14888
灌	-14889
辨	-14890
柳	-14891
菲	-14892
株	-14893
貌	-14894
奋	-14895
仓	-14896
欲	-14897
凉	-14898
卵	-14899
券	-14900
莲	-14901
涵	-14902
碎	-14903
炉	-14904
畅	-14905
奉	-14906
妙	-14907
匀	-14908
齿	-14909
邀	-14910
铺	-14911
橡	-14912
浅	-14913
堡	-14914
敬	-14915
伙	-14916
纷	-14917
埃	-14918
厦	-14919
昆	-14920
蒸	-14921
葡	-14922
拼	-14923
妻	-14924
掉	-14925
桂	-14926
倾	-14927
御	-14928
偶	-14929
墓	-14930
畜	-14931
跑	-14932
戴	-14933
午	-14934
碑	-14935
甜	-14936
蒂	-14937
宅	-14938
恐	-14939
弃	-14940
幽	-14941
殿	-14942
惯	-14943
肾	-14944
斑	-14945
狂	-14946
栽	-14947
腔	-14948
赞	-14949
侵	-14950
胸	-14951
驾	-14952
陷	-14953
瘤	-14954
杆	-14955
弗	-14956
搜	-14957
尘	-14958
锋	-14959
胆	-14960
斤	-14961
粗	-14962
壤	-14963
韵	-14964
替	-14965
萄	-14966
逃	-14967
抽	-14968
祥	-14969
乃	-14970
砂	-14971
葱	-14972
轨	-14973
猫	-14974
扎	-14975
郭	-14976
添	-14977
腾	-14978
壳	-14979
颗	-14980
_	-14981
缆	-14982
塘	-14983
忘	-14984
剪	-14985
燕	-14986
娜	-14987
遭	-14988
胃	-14989
绪	-14990
炮	-14991
隶	-14992
粘	-14993
伏	-14994
醒	-14995
黎	-14996
邦	-14997
兄	-14998
阀	-14999
辞	-15000
闪	-15001
娘	-15002
纽	-15003
乔	-15004
桑	-15005
拜	-15006
碳	-15007
脏	-15008
趋	-15009
恢	-15010
崇	-15011
稻	-15012
扮	-15013
&	-15014
稀	-15015
伸	-15016
蔬	-15017
呢	-15018
渠	-15019
孕	-15020
螺	-15021
赤	-15022
浦	-15023
虑	-15024
辣	-15025
煮	-15026
胎	-15027
纲	-15028
烤	-15029
仿	-15030
皆	-15031
秒	-15032
贷	-15033
夺	-15034
芳	-15035
汁	-15036
囊	-15037
玄	-15038
骑	-15039
曰	-15040
徒	-15041
肯	-15042
滤	-15043
钻	-15044
欣	-15045
悲	-15046
癌	-15047
疏	-15048
沃	-15049
返	-15050
孤	-15051
渡	-15052
酷	-15053
署	-15054
肃	-15055
扶	-15056
援	-15057
稿	-15058
拌	-15059
滚	-15060
疆	-15061
舰	-15062
q	-15063
悬	-15064
●	-15065
跃	-15066
柏	-15067
敢	-15068
竟	-15069
酱	-15070
厨	-15071
填	-15072
→	-15073
赫	-15074
债	-15075
曹	-15076
魏	-15077
荒	-15078
砖	-15079
榜	-15080
の	-15081
腺	-15082
颁	-15083
脸	-15084
臣	-15085
履	-15086
贤	-15087
睡	-15088
棉	-15089
冒	-15090
捕	-15091
槽	-15092
炭	-15093
赋	-15094
垂	-15095
赖	-15096
暂	-15097
怕	-15098
递	-15099
锡	-15100
阔	-15101
役	-15102
侠	-15103
廉	-15104
狗	-15105
醇	-15106
婴	-15107
遵	-15108
亭	-15109
肺	-15110
褐	-15111
浴	-15112
袋	-15113
衰	-15114
莉	-15115
饲	-15116
瓶	-15117
浩	-15118
寄	-15119
巡	-15120
梯	-15121
坝	-15122
拳	-15123
偿	-15124
抵	-15125
纠	-15126
摇	-15127
懂	-15128
寨	-15129
旦	-15130
遥	-15131
铝	-15132
坊	-15133
浆	-15134
淀	-15135
俊	-15136
撰	-15137
旁	-15138
泵	-15139
寓	-15140
鼻	-15141
扫	-15142
蜜	-15143
郁	-15144
揭	-15145
氨	-15146
卢	-15147
丘	-15148
函	-15149
驶	-15150
侯	-15151
赴	-15152
廷	-15153
番	-15154
鸣	-15155
°	-15156
携	-15157
翼	-15158
熊	-15159
抑	-15160
诞	-15161
卜	-15162
！	-15163
抱	-15164
腿	-15165
踪	-15166
帕	-15167
涯	-15168
湘	-15169
芝	-15170
盆	-15171
碍	-15172
摆	-15173
毁	-15174
彼	-15175
渔	-15176
峡	-15177
迫	-15178
爸	-15179
腰	-15180
悉	-15181
奔	-15182
霍	-15183
慈	-15184
滴	-15185
朴	-15186
迈	-15187
猎	-15188
萝	-15189
逆	-15190
奈	-15191
佩	-15192
仲	-15193
盾	-15194
盗	-15195
铸	-15196
罚	-15197
赠	-15198
悠	-15199
锈	-15200
袭	-15201
藤	-15202
茎	-15203
焊	-15204
霸	-15205
翰	-15206
斜	-15207
孟	-15208
啊	-15209
燥	-15210
淋	-15211
稍	-15212
棋	-15213
淮	-15214
茂	-15215
孝	-15216
掘	-15217
抢	-15218
铃	-15219
晨	-15220
颈	-15221
岳	-15222
挖	-15223
魅	-15224
爷	-15225
硫	-15226
宠	-15227
忍	-15228
狱	-15229
账	-15230
冻	-15231
妖	-15232
缝	-15233
蹈	-15234
尝	-15235
漂	-15236
狼	-15237
赁	-15238
『	-15239
擅	-15240
柜	-15241
兹	-15242
锐	-15243
摘	-15244
|	-15245
篮	-15246
翅	-15247
凌	-15248
乏	-15249
拆	-15250
漏	-15251
夹	-15252
朵	-15253
弯	-15254
雾	-15255
嘴	-15256
★	-15257
框	-15258
郡	-15259
滩	-15260
艳	-15261
秉	-15262
』	-15263
芽	-15264
邓	-15265
坪	-15266
蛇	-15267
碱	-15268
颖	-15269
割	-15270
漆	-15271
扣	-15272
悟	-15273
敦	-15274
愈	-15275
芬	-15276
抚	-15277
扰	-15278
翠	-15279
鼎	-15280
い	-15281
苍	-15282
阁	-15283
虾	-15284
醉	-15285
磷	-15286
滋	-15287
摸	-15288
姿	-15289
忧	-15290
吕	-15291
肖	-15292
犹	-15293
耀	-15294
祝	-15295
莎	-15296
邪	-15297
鸿	-15298
旺	-15299
穷	-15300
虹	-15301
穴	-15302
酶	-15303
腊	-15304
熙	-15305
眠	-15306
踏	-15307
辐	-15308
弘	-15309
柄	-15310
堆	-15311
鹿	-15312
骤	-15313
ー	-15314
仰	-15315
翔	-15316
泪	-15317
鸭	-15318
吹	-15319
饼	-15320
绵	-15321
牵	-15322
浸	-15323
潢	-15324
捐	-15325
冶	-15326
脊	-15327
蔡	-15328
桌	-15329
穗	-15330
蜂	-15331
忌	-15332
乾	-15333
耶	-15334
枚	-15335
仇	-15336
贾	-15337
怒	-15338
搞	-15339
倡	-15340
悦	-15341
盒	-15342
蒜	-15343
串	-15344
筒	-15345
碧	-15346
睛	-15347
狮	-15348
筋	-15349
柴	-15350
拨	-15351
匹	-15352
萧	-15353
赶	-15354
荡	-15355
咖	-15356
苯	-15357
菇	-15358
仔	-15359
叉	-15360
冯	-15361
箭	-15362
贺	-15363
尸	-15364
颇	-15365
诱	-15366
撤	-15367
吐	-15368
侦	-15369
允	-15370
叙	-15371
祭	-15372
戈	-15373
宙	-15374
披	-15375
佐	-15376
丙	-15377
煌	-15378
硅	-15379
淘	-15380
弦	-15381
蓄	-15382
姑	-15383
瓣	-15384
匙	-15385
氛	-15386
偷	-15387
逻	-15388
宴	-15389
丈	-15390
伐	-15391
肩	-15392
艰	-15393
搅	-15394
纱	-15395
兔	-15396
蝶	-15397
肪	-15398
撒	-15399
逝	-15400
烂	-15401
丸	-15402
韦	-15403
劲	-15404
咸	-15405
阐	-15406
琳	-15407
烦	-15408
拖	-15409
泳	-15410
恨	-15411
婆	-15412
彰	-15413
棒	-15414
渗	-15415
谨	-15416
姻	-15417
妮	-15418
糊	-15419
？	-15420
闹	-15421
喝	-15422
晰	-15423
葛	-15424
旱	-15425
葬	-15426
娃	-15427
禅	-15428
舟	-15429
忽	-15430
汗	-15431
蚀	-15432
潭	-15433
氯	-15434
枣	-15435
叠	-15436
帅	-15437
栋	-15438
帧	-15439
柯	-15440
伪	-15441
潘	-15442
宪	-15443
嫩	-15444
泌	-15445
盈	-15446
唤	-15447
卧	-15448
芦	-15449
辈	-15450
昭	-15451
谜	-15452
撞	-15453
勘	-15454
猛	-15455
霜	-15456
啡	-15457
廊	-15458
霞	-15459
①	-15460
犬	-15461
铭	-15462
飘	-15463
彭	-15464
聪	-15465
穆	-15466
涛	-15467
叔	-15468
讼	-15469
儒	-15470
慕	-15471
擦	-15472
鹤	-15473
戒	-15474
辰	-15475
泊	-15476
冈	-15477
糕	-15478
袁	-15479
钙	-15480
撑	-15481
烯	-15482
吾	-15483
扇	-15484
催	-15485
遂	-15486
鹰	-15487
苑	-15488
氢	-15489
弥	-15490
拒	-15491
菊	-15492
坑	-15493
梨	-15494
萌	-15495
屈	-15496
惜	-15497
迟	-15498
\	-15499
―	-15500
契	-15501
忙	-15502
侨	-15503
痕	-15504
牲	-15505
勃	-15506
漠	-15507
吊	-15508
禽	-15509
②	-15510
饱	-15511
罐	-15512
谊	-15513
泄	-15514
爽	-15515
爵	-15516
搬	-15517
弄	-15518
裕	-15519
嫁	-15520
烹	-15521
昂	-15522
锻	-15523
顷	-15524
煎	-15525
聊	-15526
逸	-15527
ン	-15528
蒋	-15529
鹏	-15530
碗	-15531
苹	-15532
疼	-15533
惑	-15534
妃	-15535
疯	-15536
栖	-15537
浏	-15538
矛	-15539
夕	-15540
瘦	-15541
な	-15542
辩	-15543
玲	-15544
眉	-15545
碰	-15546
剩	-15547
於	-15548
脾	-15549
狐	-15550
卉	-15551
轩	-15552
傲	-15553
～	-15554
霉	-15555
慎	-15556
埋	-15557
凰	-15558
杏	-15559
梗	-15560
袖	-15561
蕴	-15562
旬	-15563
棕	-15564
肢	-15565
茅	-15566
丧	-15567
茄	-15568
堪	-15569
衔	-15570
靖	-15571
兆	-15572
枯	-15573
僧	-15574
傅	-15575
毅	-15576
雌	-15577
巢	-15578
衍	-15579
渊	-15580
酵	-15581
矩	-15582
垫	-15583
噪	-15584
逊	-15585
鑫	-15586
茨	-15587
胀	-15588
荆	-15589
胺	-15590
姚	-15591
勋	-15592
龟	-15593
た	-15594
剖	-15595
逢	-15596
鳞	-15597
狭	-15598
熔	-15599
押	-15600
郊	-15601
扁	-15602
瑰	-15603
馨	-15604
枢	-15605
椅	-15606
粤	-15607
莞	-15608
怨	-15609
绣	-15610
陪	-15611
艇	-15612
酯	-15613
瑟	-15614
窑	-15615
涌	-15616
喻	-15617
劫	-15618
髓	-15619
缴	-15620
醋	-15621
恰	-15622
凶	-15623
汪	-15624
腻	-15625
奠	-15626
臂	-15627
舌	-15628
屯	-15629
膏	-15630
驰	-15631
薯	-15632
芒	-15633
逼	-15634
怖	-15635
削	-15636
奴	-15637
洒	-15638
雀	-15639
杉	-15640
巷	-15641
桐	-15642
崔	-15643
窝	-15644
琼	-15645
瞬	-15646
翁	-15647
脆	-15648
叛	-15649
牢	-15650
牺	-15651
抛	-15652
椎	-15653
钠	-15654
寂	-15655
垃	-15656
叹	-15657
搏	-15658
圾	-15659
赔	-15660
辟	-15661
庞	-15662
蕾	-15663
鹅	-15664
卿	-15665
帐	-15666
沸	-15667
勾	-15668
贞	-15669
骗	-15670
卸	-15671
猴	-15672
樱	-15673
溉	-15674
闽	-15675
é	-15676
薇	-15677
墅	-15678
玫	-15679
睿	-15680
擎	-15681
筛	-15682
て	-15683
#	-15684
扑	-15685
崖	-15686
哭	-15687
斋	-15688
挡	-15689
蓬	-15690
唇	-15691
扭	-15692
嫌	-15693
挺	-15694
沧	-15695
贼	-15696
啦	-15697
秩	-15698
侍	-15699
湛	-15700
舶	-15701
．	-15702
挤	-15703
渴	-15704
壶	-15705
纬	-15706
厌	-15707
豫	-15708
绳	-15709
贮	-15710
酿	-15711
喉	-15712
蜀	-15713
巾	-15714
棚	-15715
孢	-15716
嵌	-15717
晴	-15718
缸	-15719
卒	-15720
し	-15721
竭	-15722
绒	-15723
疲	-15724
に	-15725
夷	-15726
◆	-15727
帖	-15728
缠	-15729
祠	-15730
吻	-15731
る	-15732
丑	-15733
凸	-15734
笼	-15735
椭	-15736
・	-15737
祸	-15738
亨	-15739
浇	-15740
帆	-15741
蟹	-15742
③	-15743
罕	-15744
〕	-15745
怡	-15746
〔	-15747
溢	-15748
渣	-15749
薪	-15750
氮	-15751
攀	-15752
锌	-15753
彦	-15754
遣	-15755
暨	-15756
捉	-15757
捞	-15758
伞	-15759
隧	-15760
赐	-15761
珊	-15762
姬	-15763
泻	-15764
抹	-15765
斌	-15766
泼	-15767
胁	-15768
鲍	-15769
笋	-15770
毗	-15771
晒	-15772
甸	-15773
馈	-15774
蚕	-15775
沥	-15776
哦	-15777
斩	-15778
吞	-15779
坤	-15780
轰	-15781
焰	-15782
盲	-15783
枫	-15784
丢	-15785
と	-15786
跌	-15787
遮	-15788
㎡	-15789
橙	-15790
溃	-15791
か	-15792
匠	-15793
窄	-15794
暑	-15795
薛	-15796
贪	-15797
膨	-15798
◎	-15799
轿	-15800
萍	-15801
宰	-15802
邵	-15803
锂	-15804
滞	-15805
沼	-15806
巩	-15807
沪	-15808
佑	-15809
哀	-15810
绎	-15811
蒲	-15812
锥	-15813
昏	-15814
蓉	-15815
罩	-15816
勺	-15817
瑶	-15818
掩	-15819
惧	-15820
隙	-15821
劣	-15822
仕	-15823
娇	-15824
惨	-15825
沫	-15826
爬	-15827
涨	-15828
鳍	-15829
栗	-15830
旭	-15831
臭	-15832
谭	-15833
涤	-15834
凹	-15835
镀	-15836
藻	-15837
钾	-15838
詹	-15839
陀	-15840
巫	-15841
鄂	-15842
烘	-15843
甫	-15844
闸	-15845
弓	-15846
惟	-15847
雁	-15848
堤	-15849
钓	-15850
欺	-15851
赣	-15852
酮	-15853
钮	-15854
尹	-15855
咽	-15856
弧	-15857
闯	-15858
饪	-15859
坎	-15860
歇	-15861
琪	-15862
伽	-15863
谦	-15864
愁	-15865
邑	-15866
颂	-15867
胖	-15868
±	-15869
拱	-15870
钩	-15871
阜	-15872
剥	-15873
铅	-15874
麟	-15875
澄	-15876
浑	-15877
酬	-15878
侣	-15879
─	-15880
募	-15881
禄	-15882
韧	-15883
桶	-15884
畔	-15885
汕	-15886
牡	-15887
慰	-15888
襄	-15889
瑜	-15890
拾	-15891
－	-15892
爪	-15893
ス	-15894
硝	-15895
愤	-15896
粥	-15897
疮	-15898
陌	-15899
≤	-15900
咏	-15901
衬	-15902
诀	-15903
咳	-15904
痴	-15905
赚	-15906
膀	-15907
彝	-15908
′	-15909
茫	-15910
晕	-15911
钦	-15912
粹	-15913
僵	-15914
厉	-15915
皱	-15916
愉	-15917
隋	-15918
イ	-15919
删	-15920
蜡	-15921
￥	-15922
氟	-15923
骄	-15924
崩	-15925
畏	-15926
恼	-15927
劝	-15928
卦	-15929
篆	-15930
黏	-15931
昔	-15932
ル	-15933
淑	-15934
刃	-15935
刮	-15936
屠	-15937
奢	-15938
禹	-15939
狠	-15940
烷	-15941
绑	-15942
〉	-15943
籽	-15944
沂	-15945
屡	-15946
曝	-15947
竣	-15948
碟	-15949
う	-15950
赌	-15951
芙	-15952
蛛	-15953
萃	-15954
腌	-15955
冀	-15956
帘	-15957
庐	-15958
誓	-15959
淳	-15960
兑	-15961
〈	-15962
饶	-15963
炖	-15964
吟	-15965
Ⅱ	-15966
庸	-15967
懈	-15968
裤	-15969
渝	-15970
罢	-15971
灿	-15972
蔽	-15973
桩	-15974
喂	-15975
瀑	-15976
匪	-15977
颠	-15978
肚	-15979
奎	-15980
悔	-15981
厢	-15982
菩	-15983
矣	-15984
勿	-15985
崎	-15986
殷	-15987
冥	-15988
荫	-15989
は	-15990
酰	-15991
钝	-15992
卤	-15993
顽	-15994
躲	-15995
芭	-15996
萼	-15997
栓	-15998
ら	-15999
仑	-16000
裔	-16001
を	-16002
芹	-16003
敷	-16004
锤	-16005
○	-16006
猜	-16007
汝	-16008
呆	-16009
苞	-16010
馅	-16011
疹	-16012
蕊	-16013
咬	-16014
堵	-16015
榄	-16016
喀	-16017
烫	-16018
棱	-16019
尉	-16020
禾	-16021
豹	-16022
枕	-16023
厕	-16024
稽	-16025
恭	-16026
屿	-16027
釉	-16028
咒	-16029
ラ	-16030
埠	-16031
坠	-16032
魄	-16033
–	-16034
舆	-16035
卑	-16036
蛙	-16037
澜	-16038
舱	-16039
裸	-16040
灶	-16041
悄	-16042
菱	-16043
梳	-16044
佣	-16045
榆	-16046
婉	-16047
妥	-16048
祛	-16049
膳	-16050
奸	-16051
り	-16052
梭	-16053
竖	-16054
孵	-16055
邱	-16056
雍	-16057
胚	-16058
欠	-16059
抒	-16060
っ	-16061
ん	-16062
裹	-16063
惩	-16064
诵	-16065
涡	-16066
仆	-16067
吏	-16068
ま	-16069
μ	-16070
诠	-16071
橘	-16072
も	-16073
祀	-16074
埔	-16075
淄	-16076
刹	-16077
葵	-16078
矢	-16079
絮	-16080
ト	-16081
á	-16082
拯	-16083
幢	-16084
酥	-16085
钉	-16086
衷	-16087
く	-16088
雇	-16089
れ	-16090
莓	-16091
谣	-16092
婷	-16093
炫	-16094
挪	-16095
蛮	-16096
斥	-16097
芜	-16098
锯	-16099
灸	-16100
缔	-16101
抄	-16102
砌	-16103
摊	-16104
笛	-16105
喘	-16106
④	-16107
敲	-16108
鞍	-16109
沛	-16110
き	-16111
溯	-16112
裙	-16113
辱	-16114
傻	-16115
痰	-16116
矮	-16117
彬	-16118
芋	-16119
荧	-16120
尧	-16121
で	-16122
鸦	-16123
呵	-16124
涩	-16125
庵	-16126
汀	-16127
崛	-16128
拘	-16129
艘	-16130
邹	-16131
鞭	-16132
亏	-16133
镁	-16134
轧	-16135
钥	-16136
洽	-16137
麓	-16138
抬	-16139
熏	-16140
棘	-16141
蝴	-16142
蔓	-16143
≥	-16144
坞	-16145
呀	-16146
夸	-16147
虞	-16148
寡	-16149
矫	-16150
潇	-16151
漳	-16152
棵	-16153
闷	-16154
焕	-16155
沐	-16156
が	-16157
膝	-16158
喊	-16159
祈	-16160
蚁	-16161
橄	-16162
柠	-16163
歧	-16164
腕	-16165
兮	-16166
糯	-16167
糙	-16168
}	-16169
捧	-16170
莹	-16171
寞	-16172
骏	-16173
苔	-16174
涅	-16175
葫	-16176
墩	-16177
蹄	-16178
缅	-16179
孜	-16180
凑	-16181
堰	-16182
こ	-16183
醛	-16184
怜	-16185
敞	-16186
弊	-16187
匈	-16188
簧	-16189
楠	-16190
鞘	-16191
狄	-16192
檬	-16193
陇	-16194
棍	-16195
屑	-16196
厄	-16197
萎	-16198
峻	-16199
柿	-16200
楷	-16201
绸	-16202
暮	-16203
廖	-16204
胰	-16205
诏	-16206
蕉	-16207
娅	-16208
揉	-16209
昨	-16210
诡	-16211
哺	-16212
啤	-16213
镶	-16214
リ	-16215
ア	-16216
诈	-16217
潍	-16218
濒	-16219
挫	-16220
迄	-16221
畸	-16222
窦	-16223
肴	-16224
逾	-16225
戚	-16226
邢	-16227
骚	-16228
ク	-16229
懒	-16230
棠	-16231
黔	-16232
撼	-16233
梵	-16234
桔	-16235
垦	-16236
嗜	-16237
庚	-16238
磊	-16239
喇	-16240
鸽	-16241
蔗	-16242
黛	-16243
愚	-16244
垒	-16245
沁	-16246
媚	-16247
沾	-16248
垄	-16249
あ	-16250
挽	-16251
樊	-16252
咪	-16253
窟	-16254
畴	-16255
$	-16256
榴	-16257
缀	-16258
檐	-16259
杞	-16260
朔	-16261
藩	-16262
峪	-16263
肇	-16264
皂	-16265
岚	-16266
稠	-16267
à	-16268
窃	-16269
帜	-16270
梓	-16271
巅	-16272
冤	-16273
乒	-16274
撕	-16275
狸	-16276
娟	-16277
祁	-16278
魁	-16279
盼	-16280
椰	-16281
蘑	-16282
丞	-16283
睐	-16284
贩	-16285
宛	-16286
塌	-16287
钧	-16288
寇	-16289
荔	-16290
◇	-16291
绞	-16292
亥	-16293
滥	-16294
粪	-16295
圭	-16296
杠	-16297
渭	-16298
慨	-16299
韶	-16300
酚	-16301
さ	-16302
焉	-16303
颅	-16304
剿	-16305
菠	-16306
廓	-16307
疡	-16308
耿	-16309
炳	-16310
ッ	-16311
惹	-16312
煲	-16313
虐	-16314
☆	-16315
羞	-16316
皖	-16317
阎	-16318
迦	-16319
肛	-16320
茵	-16321
跋	-16322
娶	-16323
霖	-16324
挣	-16325
俞	-16326
驼	-16327
瞻	-16328
脓	-16329
衫	-16330
骂	-16331
峨	-16332
沦	-16333
矶	-16334
琅	-16335
º	-16336
呕	-16337
妊	-16338
躯	-16339
ā	-16340
筝	-16341
倦	-16342
Ⅰ	-16343
坯	-16344
珀	-16345
肆	-16346
腥	-16347
熬	-16348
颌	-16349
啸	-16350
í	-16351
毯	-16352
洼	-16353
梧	-16354
骆	-16355
柑	-16356
乓	-16357
挚	-16358
楔	-16359
袍	-16360
躁	-16361
贿	-16362
壹	-16363
仗	-16364
绥	-16365
娠	-16366
泣	-16367
砍	-16368
谍	-16369
蔚	-16370
痒	-16371
烛	-16372
﹑	-16373
礁	-16374
崭	-16375
槐	-16376
弈	-16377
舜	-16378
杖	-16379
俩	-16380
驿	-16381
肽	-16382
饥	-16383
拦	-16384
摔	-16385
秧	-16386
噬	-16387
酪	-16388
谎	-16389
鲤	-16390
﹐	-16391
琉	-16392
蜘	-16393
俯	-16394
阱	-16395
靡	-16396
蝉	-16397
滕	-16398
仄	-16399
だ	-16400
憾	-16401
揽	-16402
痘	-16403
踢	-16404
坟	-16405
瘟	-16406
捣	-16407
纂	-16408
耻	-16409
乞	-16410
肋	-16411
驴	-16412
傍	-16413
犀	-16414
敛	-16415
α	-16416
翡	-16417
觅	-16418
藕	-16419
§	-16420
雏	-16421
浊	-16422
翘	-16423
■	-16424
郝	-16425
靓	-16426
摧	-16427
汶	-16428
朽	-16429
岂	-16430
勉	-16431
‰	-16432
妄	-16433
昊	-16434
み	-16435
俭	-16436
窥	-16437
绚	-16438
{	-16439
坂	-16440
枸	-16441
糟	-16442
磺	-16443
掀	-16444
掠	-16445
瞄	-16446
苷	-16447
饿	-16448
斐	-16449
讽	-16450
灼	-16451
瑚	-16452
阮	-16453
樟	-16454
β	-16455
栈	-16456
よ	-16457
宵	-16458
ド	-16459
晖	-16460
聂	-16461
荟	-16462
钛	-16463
栅	-16464
妨	-16465
抖	-16466
簿	-16467
焚	-16468
拐	-16469
▪	-16470
淫	-16471
倚	-16472
窖	-16473
栩	-16474
媛	-16475
シ	-16476
旷	-16477
炬	-16478
蛾	-16479
乖	-16480
锰	-16481
砚	-16482
龚	-16483
巍	-16484
町	-16485
汰	-16486
冢	-16487
吓	-16488
磅	-16489
趁	-16490
漓	-16491
凿	-16492
臀	-16493
裴	-16494
澈	-16495
滇	-16496
け	-16497
芥	-16498
茜	-16499
桓	-16500
瘀	-16501
迭	-16502
贬	-16503
哉	-16504
о	-16505
丫	-16506
恤	-16507
@	-16508
奕	-16509
’	-16510
а	-16511
囚	-16512
圩	-16513
琦	-16514
す	-16515
俘	-16516
淇	-16517
匆	-16518
凄	-16519
	-16520
芸	-16521
斧	-16522
琐	-16523
鹃	-16524
倪	-16525
妍	-16526
辊	-16527
邯	-16528
⑤	-16529
淹	-16530
笨	-16531
昼	-16532
哮	-16533
瞳	-16534
韭	-16535
倩	-16536
厥	-16537
嗽	-16538
驳	-16539
鲨	-16540
溜	-16541
瞩	-16542
眩	-16543
腋	-16544
梢	-16545
霄	-16546
∶	-16547
つ	-16548
耍	-16549
骼	-16550
涧	-16551
^	-16552
茸	-16553
堕	-16554
窍	-16555
雯	-16556
レ	-16557
Ⅲ	-16558
昧	-16559
悍	-16560
藉	-16561
颐	-16562
渤	-16563
泸	-16564
晃	-16565
è	-16566
ì	-16567
戊	-16568
タ	-16569
汾	-16570
踩	-16571
歼	-16572
垣	-16573
牟	-16574
麒	-16575
泗	-16576
嘎	-16577
羟	-16578
绅	-16579
璧	-16580
庶	-16581
嗣	-16582
醚	-16583
陡	-16584
缚	-16585
橱	-16586
彪	-16587
郸	-16588
稚	-16589
ó	-16590
蚊	-16591
ち	-16592
趾	-16593
镍	-16594
鳄	-16595
ロ	-16596
榨	-16597
羡	-16598
簇	-16599
寅	-16600
え	-16601
颤	-16602
痹	-16603
蜗	-16604
慌	-16605
逮	-16606
嘛	-16607
笃	-16608
粟	-16609
淤	-16610
饺	-16611
戎	-16612
铣	-16613
捏	-16614
豚	-16615
眷	-16616
绽	-16617
愧	-16618
镖	-16619
铬	-16620
盏	-16621
瘫	-16622
渍	-16623
榕	-16624
剔	-16625
岐	-16626
贱	-16627
垢	-16628
蝇	-16629
纶	-16630
爹	-16631
吵	-16632
マ	-16633
秆	-16634
瀚	-16635
唑	-16636
徙	-16637
鲸	-16638
睹	-16639
钞	-16640
蚌	-16641
ジ	-16642
碘	-16643
弛	-16644
诣	-16645
酌	-16646
彤	-16647
瘾	-16648
曙	-16649
皓	-16650
羲	-16651
晾	-16652
闵	-16653
圃	-16654
癫	-16655
狩	-16656
谅	-16657
媳	-16658
铲	-16659
靶	-16660
炙	-16661
匾	-16662
茧	-16663
羌	-16664
臻	-16665
嘱	-16666
悚	-16667
カ	-16668
俏	-16669
□	-16670
莘	-16671
侈	-16672
冉	-16673
←	-16674
嵩	-16675
ㄧ	-16676
禧	-16677
娥	-16678
哨	-16679
脐	-16680
蕨	-16681
硒	-16682
犁	-16683
檀	-16684
岔	-16685
札	-16686
�	-16687
陋	-16688
锚	-16689
娄	-16690
焙	-16691
哑	-16692
妒	-16693
缕	-16694
и	-16695
棺	-16696
驯	-16697
逗	-16698
溴	-16699
フ	-16700
е	-16701
茹	-16702
褶	-16703
甄	-16704
寝	-16705
莆	-16706
泾	-16707
晏	-16708
缪	-16709
兜	-16710
逍	-16711
이	-16712
涝	-16713
↓	-16714
莺	-16715
扔	-16716
焖	-16717
莽	-16718
胱	-16719
蔷	-16720
璋	-16721
悼	-16722
桨	-16723
钳	-16724
锣	-16725
翩	-16726
汲	-16727
琢	-16728
伺	-16729
馏	-16730
羁	-16731
躺	-16732
碌	-16733
蝠	-16734
舅	-16735
赎	-16736
蛤	-16737
嘲	-16738
闺	-16739
砸	-16740
％	-16741
浒	-16742
咀	-16743
焯	-16744
蚂	-16745
キ	-16746
猩	-16747
テ	-16748
澡	-16749
喧	-16750
恳	-16751
曦	-16752
め	-16753
袜	-16754
绰	-16755
お	-16756
眸	-16757
狙	-16758
姨	-16759
馀	-16760
荚	-16761
柚	-16762
桦	-16763
亢	-16764
耸	-16765
墟	-16766
衢	-16767
嚣	-16768
猿	-16769
憩	-16770
篷	-16771
皋	-16772
捆	-16773
玺	-16774
摹	-16775
•	-16776
雳	-16777
ǎ	-16778
苓	-16779
阙	-16780
叭	-16781
霹	-16782
ī	-16783
汛	-16784
渲	-16785
峭	-16786
睦	-16787
歉	-16788
妾	-16789
н	-16790
匿	-16791
晟	-16792
轼	-16793
そ	-16794
搓	-16795
※	-16796
竿	-16797
鹦	-16798
苇	-16799
歪	-16800
蝎	-16801
嫂	-16802
捡	-16803
劈	-16804
匡	-16805
聆	-16806
僚	-16807
嚼	-16808
谥	-16809
恪	-16810
鹭	-16811
宦	-16812
肘	-16813
孽	-16814
靴	-16815
沌	-16816
扯	-16817
珑	-16818
诛	-16819
缉	-16820
烁	-16821
咱	-16822
暇	-16823
疤	-16824
聋	-16825
苟	-16826
岑	-16827
谏	-16828
姊	-16829
擒	-16830
ù	-16831
煸	-16832
蜥	-16833
／	-16834
嗓	-16835
鹊	-16836
痢	-16837
蠕	-16838
嫉	-16839
昵	-16840
佼	-16841
祯	-16842
陂	-16843
拂	-16844
甩	-16845
碾	-16846
钨	-16847
谛	-16848
剁	-16849
岱	-16850
紊	-16851
哇	-16852
ˋ	-16853
琶	-16854
鸳	-16855
烽	-16856
洱	-16857
わ	-16858
轶	-16859
薰	-16860
侄	-16861
硼	-16862
痫	-16863
呐	-16864
翌	-16865
‘	-16866
翟	-16867
掷	-16868
″	-16869
逛	-16870
阪	-16871
烃	-16872
祷	-16873
擀	-16874
穹	-16875
蕃	-16876
侗	-16877
ˊ	-16878
禺	-16879
妓	-16880
萤	-16881
陨	-16882
〖	-16883
〗	-16884
腑	-16885
菁	-16886
叮	-16887
〇	-16888
烙	-16889
诅	-16890
煞	-16891
绢	-16892
笙	-16893
冕	-16894
拙	-16895
铵	-16896
↑	-16897
璨	-16898
蜕	-16899
皿	-16900
濑	-16901
绮	-16902
コ	-16903
僻	-16904
缤	-16905
璐	-16906
恺	-16907
逅	-16908
砾	-16909
邂	-16910
耘	-16911
挠	-16912
佚	-16913
豁	-16914
娴	-16915
オ	-16916
萱	-16917
鸯	-16918
盔	-16919
濮	-16920
楂	-16921
挛	-16922
啶	-16923
饵	-16924
炽	-16925
吼	-16926
遐	-16927
瑾	-16928
戮	-16929
ィ	-16930
霆	-16931
扼	-16932
辕	-16933
睾	-16934
隅	-16935
蒿	-16936
鳌	-16937
豌	-16938
闫	-16939
じ	-16940
デ	-16941
挨	-16942
眺	-16943
敖	-16944
铂	-16945
匣	-16946
酉	-16947
鹉	-16948
璀	-16949
峙	-16950
掺	-16951
渺	-16952
殡	-16953
茉	-16954
峦	-16955
楹	-16956
啼	-16957
氰	-16958
秤	-16959
孚	-16960
ú	-16961
ㄨ	-16962
辜	-16963
√	-16964
驭	-16965
颊	-16966
昕	-16967
裳	-16968
夯	-16969
蚝	-16970
溺	-16971
筱	-16972
拭	-16973
釜	-16974
芡	-16975
苛	-16976
滔	-16977
痔	-16978
撇	-16979
溅	-16980
拇	-16981
蝙	-16982
荀	-16983
懿	-16984
韬	-16985
抉	-16986
⑥	-16987
盎	-16988
秃	-16989
吁	-16990
プ	-16991
跪	-16992
卯	-16993
虏	-16994
扦	-16995
吡	-16996
ナ	-16997
帷	-16998
蠢	-16999
佬	-17000
垩	-17001
琵	-17002
裘	-17003
酋	-17004
р	-17005
尬	-17006
凋	-17007
嬉	-17008
缮	-17009
睑	-17010
茗	-17011
娓	-17012
睁	-17013
鳃	-17014
バ	-17015
淬	-17016
铎	-17017
耦	-17018
褒	-17019
扒	-17020
辍	-17021
祺	-17022
屁	-17023
筷	-17024
尴	-17025
衙	-17026
ミ	-17027
糜	-17028
沽	-17029
宕	-17030
汞	-17031
睫	-17032
瓯	-17033
坷	-17034
乍	-17035
侃	-17036
熹	-17037
嘻	-17038
嗅	-17039
琥	-17040
贰	-17041
兢	-17042
槟	-17043
サ	-17044
裱	-17045
襟	-17046
ü	-17047
蟾	-17048
脖	-17049
稣	-17050
с	-17051
佰	-17052
痉	-17053
笺	-17054
殇	-17055
浚	-17056
ウ	-17057
壬	-17058
羹	-17059
铠	-17060
遁	-17061
芍	-17062
疣	-17063
椿	-17064
Ω	-17065
蹲	-17066
や	-17067
钵	-17068
喙	-17069
玮	-17070
寥	-17071
猕	-17072
噩	-17073
槛	-17074
т	-17075
渚	-17076
啥	-17077
傣	-17078
瑛	-17079
芷	-17080
鸥	-17081
镰	-17082
鱿	-17083
粱	-17084
庇	-17085
戟	-17086
璜	-17087
咯	-17088
荞	-17089
刁	-17090
グ	-17091
ャ	-17092
菏	-17093
绯	-17094
熄	-17095
篱	-17096
蘖	-17097
刨	-17098
毙	-17099
讳	-17100
拢	-17101
瞒	-17102
エ	-17103
氓	-17104
ど	-17105
疱	-17106
忱	-17107
藓	-17108
チ	-17109
豉	-17110
噶	-17111
ム	-17112
嘿	-17113
箔	-17114
竺	-17115
メ	-17116
ニ	-17117
毓	-17118
`	-17119
寰	-17120
⋯	-17121
晦	-17122
⑴	-17123
跻	-17124
ブ	-17125
漾	-17126
ュ	-17127
蛹	-17128
绊	-17129
炜	-17130
伶	-17131
羚	-17132
凛	-17133
迥	-17134
叁	-17135
辗	-17136
飙	-17137
涟	-17138
钰	-17139
巳	-17140
绫	-17141
恬	-17142
璇	-17143
娩	-17144
茯	-17145
嫡	-17146
蒴	-17147
⑵	-17148
拷	-17149
汐	-17150
鸠	-17151
淌	-17152
霓	-17153
粳	-17154
殉	-17155
凳	-17156
恕	-17157
в	-17158
妞	-17159
아	-17160
泓	-17161
１	-17162
蓟	-17163
剃	-17164
徊	-17165
婿	-17166
跆	-17167
漱	-17168
鄙	-17169
せ	-17170
虔	-17171
邃	-17172
蚜	-17173
瀛	-17174
擂	-17175
潼	-17176
癣	-17177
ズ	-17178
塾	-17179
颍	-17180
惕	-17181
稼	-17182
窜	-17183
螨	-17184
鳝	-17185
瑕	-17186
褪	-17187
膛	-17188
叩	-17189
忻	-17190
沅	-17191
戌	-17192
瞿	-17193
薏	-17194
驹	-17195
勐	-17196
胤	-17197
지	-17198
郴	-17199
厝	-17200
壑	-17201
盯	-17202
━	-17203
屹	-17204
哩	-17205
蜒	-17206
貂	-17207
帛	-17208
隽	-17209
樵	-17210
ろ	-17211
弩	-17212
箫	-17213
徘	-17214
鲫	-17215
呜	-17216
诫	-17217
姥	-17218
甙	-17219
癸	-17220
芪	-17221
阑	-17222
暧	-17223
廿	-17224
璞	-17225
躬	-17226
л	-17227
煜	-17228
谕	-17229
邸	-17230
诙	-17231
胧	-17232
鞠	-17233
揣	-17234
谬	-17235
袂	-17236
倭	-17237
榈	-17238
瞰	-17239
喃	-17240
眶	-17241
潺	-17242
＊	-17243
徵	-17244
ē	-17245
恍	-17246
滁	-17247
稷	-17248
糠	-17249
朦	-17250
敕	-17251
扳	-17252
柬	-17253
甬	-17254
耽	-17255
к	-17256
骇	-17257
鳖	-17258
曳	-17259
绛	-17260
磐	-17261
馒	-17262
骁	-17263
夭	-17264
胥	-17265
帼	-17266
腱	-17267
厩	-17268
瑙	-17269
砺	-17270
狡	-17271
悸	-17272
颚	-17273
讶	-17274
炊	-17275
搁	-17276
辙	-17277
玖	-17278
ダ	-17279
慷	-17280
沱	-17281
茬	-17282
荠	-17283
钗	-17284
惬	-17285
鳗	-17286
挟	-17287
曜	-17288
膺	-17289
蹦	-17290
나	-17291
哆	-17292
镑	-17293
咫	-17294
筠	-17295
兀	-17296
奚	-17297
蛟	-17298
丐	-17299
蘸	-17300
惰	-17301
澎	-17302
怠	-17303
ビ	-17304
葩	-17305
锭	-17306
‧	-17307
蟒	-17308
戳	-17309
痈	-17310
蟠	-17311
怯	-17312
舵	-17313
ひ	-17314
烨	-17315
다	-17316
ゆ	-17317
哟	-17318
娲	-17319
枭	-17320
疸	-17321
钼	-17322
捍	-17323
楞	-17324
鸾	-17325
가	-17326
螃	-17327
趟	-17328
弼	-17329
珂	-17330
缭	-17331
毋	-17332
蜿	-17333
戛	-17334
ǐ	-17335
歹	-17336
唾	-17337
虱	-17338
憎	-17339
遴	-17340
侏	-17341
匮	-17342
憧	-17343
琛	-17344
螂	-17345
遏	-17346
骸	-17347
赂	-17348
嫣	-17349
赦	-17350
笠	-17351
ず	-17352
哗	-17353
佟	-17354
漩	-17355
 	-17356
憬	-17357
扉	-17358
咕	-17359
鲈	-17360
黯	-17361
ば	-17362
钊	-17363
憨	-17364
矾	-17365
诃	-17366
０	-17367
哎	-17368
亳	-17369
拣	-17370
瓢	-17371
冗	-17372
镌	-17373
⑶	-17374
禀	-17375
ò	-17376
癖	-17377
疽	-17378
宸	-17379
渎	-17380
嗪	-17381
ガ	-17382
臼	-17383
葆	-17384
榻	-17385
颉	-17386
瘙	-17387
悖	-17388
隍	-17389
纫	-17390
拧	-17391
脯	-17392
秸	-17393
ˇ	-17394
谚	-17395
어	-17396
雉	-17397
浣	-17398
踞	-17399
翎	-17400
撮	-17401
熠	-17402
는	-17403
迩	-17404
垮	-17405
ゃ	-17406
茴	-17407
靳	-17408
蛊	-17409
棣	-17410
⑦	-17411
蓓	-17412
喱	-17413
パ	-17414
扛	-17415
掏	-17416
漕	-17417
ū	-17418
癜	-17419
彗	-17420
俑	-17421
茱	-17422
蔻	-17423
骋	-17424
铮	-17425
榭	-17426
Ⅳ	-17427
寮	-17428
熨	-17429
ノ	-17430
ō	-17431
™	-17432
殴	-17433
粽	-17434
浜	-17435
淆	-17436
瓮	-17437
礴	-17438
岷	-17439
隘	-17440
昱	-17441
畲	-17442
γ	-17443
芮	-17444
彷	-17445
鹑	-17446
炯	-17447
啄	-17448
朕	-17449
颓	-17450
△	-17451
毡	-17452
挝	-17453
哼	-17454
疟	-17455
陛	-17456
诬	-17457
铀	-17458
兖	-17459
僳	-17460
瞎	-17461
溧	-17462
痪	-17463
ョ	-17464
蝗	-17465
掖	-17466
骥	-17467
媲	-17468
柘	-17469
栾	-17470
攒	-17471
疝	-17472
▲	-17473
モ	-17474
姗	-17475
磋	-17476
惫	-17477
侮	-17478
麝	-17479
雹	-17480
鄱	-17481
羧	-17482
痿	-17483
跤	-17484
ハ	-17485
枉	-17486
涕	-17487
汹	-17488
	-17489
瞧	-17490
淞	-17491
秽	-17492
赈	-17493
镂	-17494
Φ	-17495
胫	-17496
痞	-17497
ö	-17498
谟	-17499
褚	-17500
擢	-17501
湄	-17502
畦	-17503
孰	-17504
羔	-17505
寐	-17506
涪	-17507
婺	-17508
诲	-17509
酐	-17510
龛	-17511
ô	-17512
胭	-17513
丕	-17514
螟	-17515
偃	-17516
喵	-17517
婪	-17518
馥	-17519
捻	-17520
喔	-17521
坳	-17522
覃	-17523
溥	-17524
缨	-17525
垛	-17526
谒	-17527
嘟	-17528
惶	-17529
昙	-17530
譬	-17531
懦	-17532
殆	-17533
蜓	-17534
潞	-17535
萦	-17536
侬	-17537
俺	-17538
에	-17539
砧	-17540
瘠	-17541
籁	-17542
嫔	-17543
耆	-17544
栀	-17545
厮	-17546
旌	-17547
酣	-17548
晤	-17549
桢	-17550
窒	-17551
俨	-17552
龈	-17553
俐	-17554
戍	-17555
蚤	-17556
蜻	-17557
哄	-17558
斛	-17559
ǔ	-17560
臧	-17561
榔	-17562
蛎	-17563
怅	-17564
翱	-17565
倘	-17566
莒	-17567
匍	-17568
汴	-17569
倔	-17570
ね	-17571
囧	-17572
缎	-17573
辄	-17574
盂	-17575
箴	-17576
迂	-17577
锄	-17578
２	-17579
斓	-17580
腮	-17581
®	-17582
 	-17583
衅	-17584
赘	-17585
篡	-17586
攸	-17587
淼	-17588
讷	-17589
咚	-17590
摒	-17591
拽	-17592
砷	-17593
腓	-17594
그	-17595
弋	-17596
泠	-17597
粑	-17598
莴	-17599
脍	-17600
矗	-17601
谴	-17602
髅	-17603
笈	-17604
도	-17605
瘘	-17606
漪	-17607
酝	-17608
湍	-17609
亘	-17610
谧	-17611
⑷	-17612
峥	-17613
鳅	-17614
蜴	-17615
涎	-17616
滦	-17617
д	-17618
痧	-17619
贻	-17620
偕	-17621
沭	-17622
睢	-17623
亟	-17624
叟	-17625
慑	-17626
φ	-17627
钴	-17628
卞	-17629
ㄢ	-17630
烩	-17631
绷	-17632
蛀	-17633
跷	-17634
祜	-17635
사	-17636
啮	-17637
하	-17638
傀	-17639
悯	-17640
袅	-17641
谙	-17642
鹌	-17643
夔	-17644
浔	-17645
고	-17646
毂	-17647
耙	-17648
洮	-17649
脲	-17650
蕙	-17651
崂	-17652
⊙	-17653
匐	-17654
诰	-17655
甾	-17656
愫	-17657
猝	-17658
鄞	-17659
내	-17660
匕	-17661
荼	-17662
踵	-17663
鹫	-17664
骷	-17665
疵	-17666
窘	-17667
芩	-17668
濡	-17669
邕	-17670
隼	-17671
湃	-17672
獒	-17673
리	-17674
箕	-17675
飓	-17676
м	-17677
箍	-17678
杷	-17679
壕	-17680
苋	-17681
沮	-17682
镯	-17683
镭	-17684
忏	-17685
钣	-17686
爻	-17687
婶	-17688
蔑	-17689
儡	-17690
馍	-17691
婕	-17692
嶂	-17693
♂	-17694
剌	-17695
孺	-17696
枇	-17697
獭	-17698
鬓	-17699
嗨	-17700
磕	-17701
栎	-17702
丶	-17703
痤	-17704
妩	-17705
苣	-17706
桧	-17707
俪	-17708
懵	-17709
珞	-17710
垭	-17711
庾	-17712
匝	-17713
咲	-17714
涓	-17715
을	-17716
ェ	-17717
蠡	-17718
叱	-17719
幡	-17720
게	-17721
蹊	-17722
翊	-17723
耒	-17724
铆	-17725
霾	-17726
у	-17727
炔	-17728
刍	-17729
ふ	-17730
醴	-17731
赃	-17732
徨	-17733
啪	-17734
嗯	-17735
鸢	-17736
叨	-17737
佘	-17738
藜	-17739
﹞	-17740
苄	-17741
﹝	-17742
撩	-17743
蚩	-17744
坍	-17745
犷	-17746
掐	-17747
砥	-17748
腈	-17749
♀	-17750
й	-17751
嵘	-17752
澧	-17753
噻	-17754
너	-17755
嫦	-17756
濠	-17757
珐	-17758
铛	-17759
铰	-17760
镐	-17761
霏	-17762
哌	-17763
幂	-17764
漯	-17765
阈	-17766
皎	-17767
闰	-17768
髦	-17769
珈	-17770
踝	-17771
劾	-17772
蚓	-17773
绶	-17774
畈	-17775
褥	-17776
籼	-17777
啉	-17778
纣	-17779
ワ	-17780
煨	-17781
疙	-17782
膈	-17783
煽	-17784
谪	-17785
嘧	-17786
屉	-17787
屎	-17788
莅	-17789
萘	-17790
燮	-17791
筐	-17792
飒	-17793
婢	-17794
荨	-17795
ツ	-17796
玥	-17797
塬	-17798
瘩	-17799
芎	-17800
荪	-17801
郧	-17802
蔺	-17803
喆	-17804
⑧	-17805
洙	-17806
湮	-17807
稃	-17808
佗	-17809
晔	-17810
涿	-17811
皙	-17812
簪	-17813
嘘	-17814
へ	-17815
ょ	-17816
钒	-17817
魇	-17818
髋	-17819
啃	-17820
芊	-17821
讹	-17822
屌	-17823
恃	-17824
螳	-17825
│	-17826
梆	-17827
筵	-17828
辫	-17829
旖	-17830
吝	-17831
泷	-17832
逞	-17833
惘	-17834
의	-17835
攘	-17836
燎	-17837
氽	-17838
缇	-17839
은	-17840
σ	-17841
儋	-17842
钡	-17843
嘶	-17844
扈	-17845
岙	-17846
闾	-17847
蛰	-17848
セ	-17849
蜚	-17850
ケ	-17851
伎	-17852
拮	-17853
猬	-17854
麾	-17855
娆	-17856
旎	-17857
霁	-17858
羯	-17859
铨	-17860
弑	-17861
嵊	-17862
肱	-17863
桀	-17864
坨	-17865
撷	-17866
痊	-17867
跖	-17868
犊	-17869
缜	-17870
해	-17871
栉	-17872
樽	-17873
噜	-17874
疚	-17875
箐	-17876
馄	-17877
眨	-17878
蕲	-17879
ネ	-17880
畿	-17881
讥	-17882
榛	-17883
苜	-17884
기	-17885
夙	-17886
螯	-17887
婧	-17888
猾	-17889
俾	-17890
驮	-17891
한	-17892
呱	-17893
拈	-17894
殃	-17895
茁	-17896
碉	-17897
荃	-17898
迢	-17899
跗	-17900
涸	-17901
ァ	-17902
蟆	-17903
饯	-17904
ピ	-17905
谤	-17906
骈	-17907
⑸	-17908
盅	-17909
気	-17910
趴	-17911
ボ	-17912
呤	-17913
晁	-17914
祚	-17915
饨	-17916
髻	-17917
瞪	-17918
甥	-17919
裨	-17920
桁	-17921
む	-17922
恣	-17923
玑	-17924
鲷	-17925
歙	-17926
ا	-17927
烬	-17928
砼	-17929
捺	-17930
蓿	-17931
瘢	-17932
钤	-17933
晗	-17934
艮	-17935
咤	-17936
牍	-17937
藿	-17938
崮	-17939
粕	-17940
腩	-17941
斟	-17942
骅	-17943
歆	-17944
琊	-17945
腭	-17946
荸	-17947
嗟	-17948
ほ	-17949
枳	-17950
锑	-17951
柒	-17952
疃	-17953
萸	-17954
琨	-17955
び	-17956
踊	-17957
︰	-17958
蜈	-17959
俸	-17960
孪	-17961
枷	-17962
淖	-17963
猥	-17964
罂	-17965
蹬	-17966
ě	-17967
遨	-17968
邛	-17969
讴	-17970
锆	-17971
揪	-17972
蚣	-17973
钎	-17974
戦	-17975
堇	-17976
濂	-17977
饷	-17978
吒	-17979
阆	-17980
骰	-17981
涮	-17982
라	-17983
逵	-17984
郢	-17985
锉	-17986
煅	-17987
阡	-17988
ソ	-17989
罹	-17990
迤	-17991
阖	-17992
傩	-17993
荤	-17994
邺	-17995
懋	-17996
я	-17997
げ	-17998
ǒ	-17999
咋	-18000
铿	-18001
ы	-18002
桉	-18003
咎	-18004
岫	-18005
轲	-18006
沓	-18007
ゴ	-18008
黍	-18009
斡	-18010
颞	-18011
ぎ	-18012
峒	-18013
罡	-18014
胄	-18015
葺	-18016
昶	-18017
痣	-18018
谯	-18019
奂	-18020
郓	-18021
捶	-18022
芾	-18023
袱	-18024
龋	-18025
惭	-18026
袤	-18027
奄	-18028
忒	-18029
杵	-18030
ベ	-18031
燧	-18032
陲	-18033
赡	-18034
咧	-18035
搐	-18036
焱	-18037
羿	-18038
鬃	-18039
ぐ	-18040
搪	-18041
纨	-18042
簸	-18043
茭	-18044
帚	-18045
镉	-18046
呗	-18047
灏	-18048
郫	-18049
槌	-18050
蟋	-18051
筏	-18052
佃	-18053
矜	-18054
赭	-18055
苡	-18056
潦	-18057
饕	-18058
炀	-18059
徇	-18060
舷	-18061
	-18062
囱	-18063
奘	-18064
骶	-18065
∕	-18066
舫	-18067
蔼	-18068
觞	-18069
霭	-18070
掰	-18071
虢	-18072
π	-18073
豇	-18074
冼	-18075
煦	-18076
锵	-18077
咆	-18078
噢	-18079
哒	-18080
서	-18081
ザ	-18082
喋	-18083
枋	-18084
槭	-18085
钜	-18086
г	-18087
幌	-18088
薹	-18089
郦	-18090
锢	-18091
岖	-18092
柞	-18093
脘	-18094
沢	-18095
溟	-18096
翳	-18097
만	-18098
⒈	-18099
缙	-18100
邬	-18101
呋	-18102
唢	-18103
挞	-18104
咐	-18105
鲶	-18106
ヒ	-18107
垠	-18108
灞	-18109
牦	-18110
蜇	-18111
б	-18112
渥	-18113
ə	-18114
僖	-18115
臆	-18116
骊	-18117
랑	-18118
堀	-18119
熵	-18120
ポ	-18121
诘	-18122
시	-18123
鞣	-18124
膊	-18125
吋	-18126
鳕	-18127
Δ	-18128
氙	-18129
惺	-18130
衮	-18131
菅	-18132
祉	-18133
荥	-18134
迸	-18135
鼬	-18136
桅	-18137
槿	-18138
洵	-18139
焗	-18140
痂	-18141
蚧	-18142
⒉	-18143
幄	-18144
邨	-18145
眯	-18146
鲵	-18147
ㄥ	-18148
珉	-18149
皈	-18150
墉	-18151
ä	-18152
冽	-18153
璟	-18154
嚷	-18155
ㄣ	-18156
澹	-18157
贲	-18158
娑	-18159
桡	-18160
缥	-18161
诂	-18162
〜	-18163
惆	-18164
戾	-18165
蹭	-18166
氩	-18167
掳	-18168
［	-18169
蓼	-18170
嘌	-18171
螈	-18172
昀	-18173
］	-18174
ヤ	-18175
대	-18176
３	-18177
悴	-18178
徕	-18179
沣	-18180
巽	-18181
ь	-18182
蝌	-18183
骡	-18184
泯	-18185
鸪	-18186
侥	-18187
蜍	-18188
п	-18189
偎	-18190
沔	-18191
	-18192
δ	-18193
々	-18194
荻	-18195
俚	-18196
蟀	-18197
²	-18198
ㄐ	-18199
胳	-18200
ω	-18201
佤	-18202
鲲	-18203
蚯	-18204
ご	-18205
宥	-18206
蚪	-18207
铉	-18208
鬟	-18209
銮	-18210
篝	-18211
λ	-18212
瞭	-18213
幔	-18214
傈	-18215
镗	-18216
狈	-18217
瓤	-18218
苕	-18219
를	-18220
呦	-18221
로	-18222
瞥	-18223
ギ	-18224
⑹	-18225
疥	-18226
邳	-18227
驸	-18228
鲟	-18229
撬	-18230
蒡	-18231
遒	-18232
綦	-18233
鹧	-18234
餮	-18235
呃	-18236
抨	-18237
唉	-18238
徉	-18239
愣	-18240
疳	-18241
葶	-18242
崽	-18243
泮	-18244
酗	-18245
⑨	-18246
ぶ	-18247
湟	-18248
ε	-18249
暹	-18250
鲑	-18251
鲛	-18252
箨	-18253
啰	-18254
楣	-18255
喹	-18256
徜	-18257
亵	-18258
猖	-18259
碣	-18260
蛔	-18261
牒	-18262
糅	-18263
谑	-18264
С	-18265
澍	-18266
姝	-18267
요	-18268
埂	-18269
猷	-18270
瘿	-18271
薨	-18272
ヴ	-18273
惮	-18274
拴	-18275
焘	-18276
蜊	-18277
娣	-18278
稹	-18279
仟	-18280
吠	-18281
憔	-18282
菖	-18283
鹄	-18284
琮	-18285
鹳	-18286
ɡ	-18287
邈	-18288
黜	-18289
麸	-18290
咔	-18291
旻	-18292
枞	-18293
마	-18294
伫	-18295
粼	-18296
髯	-18297
搔	-18298
涣	-18299
啬	-18300
唠	-18301
舀	-18302
¥	-18303
谗	-18304
蟑	-18305
垅	-18306
骞	-18307
磬	-18308
幺	-18309
惚	-18310
俟	-18311
镛	-18312
Ⅴ	-18313
鲢	-18314
니	-18315
바	-18316
绀	-18317
肄	-18318
θ	-18319
ل	-18320
後	-18321
苴	-18322
偈	-18323
嚎	-18324
肮	-18325
嬗	-18326
瑄	-18327
缈	-18328
铢	-18329
恻	-18330
琰	-18331
滓	-18332
咙	-18333
ㄠ	-18334
抠	-18335
拗	-18336
Ⅵ	-18337
搂	-18338
楽	-18339
皑	-18340
阕	-18341
楝	-18342
疖	-18343
⒊	-18344
慵	-18345
馋	-18346
佥	-18347
９	-18348
蛭	-18349
ч	-18350
炕	-18351
聿	-18352
轭	-18353
鄢	-18354
우	-18355
吩	-18356
盱	-18357
蓦	-18358
姣	-18359
楸	-18360
氦	-18361
芫	-18362
颏	-18363
憋	-18364
祗	-18365
稔	-18366
↘	-18367
ㄌ	-18368
咄	-18369
埭	-18370
べ	-18371
婵	-18372
谲	-18373
濯	-18374
수	-18375
ㄒ	-18376
杳	-18377
舔	-18378
蜃	-18379
嵇	-18380
捂	-18381
榷	-18382
罔	-18383
尕	-18384
觐	-18385
靛	-18386
妲	-18387
珩	-18388
珲	-18389
钺	-18390
锲	-18391
吮	-18392
珏	-18393
吱	-18394
呎	-18395
妤	-18396
＜	-18397
敝	-18398
稞	-18399
锶	-18400
窈	-18401
吲	-18402
祟	-18403
萜	-18404
鸫	-18405
보	-18406
５	-18407
飨	-18408
淅	-18409
郯	-18410
凫	-18411
壅	-18412
з	-18413
姫	-18414
嬴	-18415
矸	-18416
绔	-18417
虬	-18418
鲇	-18419
炝	-18420
缢	-18421
垌	-18422
唔	-18423
藁	-18424
箩	-18425
ユ	-18426
嚏	-18427
檄	-18428
畑	-18429
陟	-18430
岌	-18431
眙	-18432
惋	-18433
皴	-18434
ρ	-18435
น	-18436
碁	-18437
囤	-18438
ㄕ	-18439
伝	-18440
┃	-18441
飚	-18442
자	-18443
仞	-18444
篓	-18445
傥	-18446
堑	-18447
橇	-18448
揍	-18449
鎏	-18450
笆	-18451
邝	-18452
泱	-18453
犍	-18454
蹇	-18455
嘈	-18456
⑺	-18457
哚	-18458
÷	-18459
丨	-18460
弁	-18461
萋	-18462
ゲ	-18463
圪	-18464
珺	-18465
俎	-18466
捅	-18467
殁	-18468
＞	-18469
ホ	-18470
恙	-18471
오	-18472
ペ	-18473
椽	-18474
纭	-18475
	-18476
佞	-18477
蝽	-18478
槎	-18479
圻	-18480
仡	-18481
頫	-18482
骧	-18483
汨	-18484
들	-18485
ォ	-18486
朐	-18487
衄	-18488
诽	-18489
蛆	-18490
颧	-18491
４	-18492
羰	-18493
锗	-18494
嗔	-18495
発	-18496
肼	-18497
喽	-18498
嫖	-18499
菟	-18500
蹼	-18501
鼹	-18502
唆	-18503
蓑	-18504
楫	-18505
诩	-18506
ñ	-18507
佯	-18508
일	-18509
潴	-18510
仝	-18511
粲	-18512
豺	-18513
赉	-18514
嘀	-18515
胛	-18516
讪	-18517
卅	-18518
峋	-18519
苻	-18520
忡	-18521
П	-18522
없	-18523
膦	-18524
鸮	-18525
翦	-18526
琬	-18527
麋	-18528
琏	-18529
菀	-18530
蠹	-18531
娼	-18532
洄	-18533
坻	-18534
砀	-18535
蒽	-18536
岘	-18537
暄	-18538
廪	-18539
忿	-18540
砭	-18541
淙	-18542
溏	-18543
난	-18544
ㄓ	-18545
眈	-18546
呛	-18547
鞅	-18548
า	-18549
燊	-18550
剽	-18551
碚	-18552
膘	-18553
醌	-18554
恽	-18555
鸵	-18556
稗	-18557
阉	-18558
倜	-18559
宓	-18560
Ø	-18561
ㄤ	-18562
嶙	-18563
汊	-18564
阂	-18565
鞑	-18566
면	-18567
ㄚ	-18568
髂	-18569
墒	-18570
椁	-18571
蚬	-18572
讫	-18573
実	-18574
窕	-18575
있	-18576
疔	-18577
叽	-18578
颛	-18579
庠	-18580
揖	-18581
瘁	-18582
囿	-18583
揆	-18584
螭	-18585
铐	-18586
ぼ	-18587
谆	-18588
榫	-18589
檗	-18590
苎	-18591
濉	-18592
猗	-18593
蔫	-18594
劭	-18595
窠	-18596
蹴	-18597
赊	-18598
珪	-18599
涞	-18600
觊	-18601
変	-18602
殒	-18603
말	-18604
擘	-18605
獾	-18606
舂	-18607
陉	-18608
６	-18609
矽	-18610
날	-18611
怆	-18612
镕	-18613
К	-18614
诧	-18615
颔	-18616
舛	-18617
葭	-18618
袒	-18619
嵋	-18620
搽	-18621
滘	-18622
羸	-18623
鏖	-18624
闱	-18625
狒	-18626
崧	-18627
茏	-18628
颢	-18629
馗	-18630
鳜	-18631
ㄉ	-18632
恵	-18633
悌	-18634
愕	-18635
瓒	-18636
掇	-18637
祎	-18638
骐	-18639
狞	-18640
瓠	-18641
诋	-18642
崴	-18643
↔	-18644
嗦	-18645
蛏	-18646
骠	-18647
刈	-18648
勰	-18649
窿	-18650
В	-18651
觑	-18652
赅	-18653
绦	-18654
泞	-18655
８	-18656
臾	-18657
蕈	-18658
觎	-18659
ㄩ	-18660
啧	-18661
嗡	-18662
爰	-18663
蝈	-18664
钿	-18665
祐	-18666
钽	-18667
⑩	-18668
ɪ	-18669
嗒	-18670
霰	-18671
ㄏ	-18672
秭	-18673
ヨ	-18674
峤	-18675
癞	-18676
戸	-18677
づ	-18678
掣	-18679
柩	-18680
涙	-18681
⒋	-18682
婀	-18683
怦	-18684
야	-18685
呻	-18686
淦	-18687
薮	-18688
−	-18689
㎜	-18690
樾	-18691
辘	-18692
浠	-18693
腧	-18694
阚	-18695
鬣	-18696
정	-18697
孑	-18698
缄	-18699
ゅ	-18700
庖	-18701
赓	-18702
ࠀ	-18703
懊	-18704
瘴	-18705
袄	-18706
锹	-18707
ø	-18708
А	-18709
ร	-18710
ざ	-18711
盥	-18712
铌	-18713
ç	-18714
巻	-18715
獐	-18716
褂	-18717
铳	-18718
М	-18719
‖	-18720
Ⅹ	-18721
膑	-18722
⑻	-18723
顼	-18724
珙	-18725
И	-18726
掬	-18727
氡	-18728
贽	-18729
상	-18730
嬛	-18731
氐	-18732
อ	-18733
醪	-18734
≈	-18735
棹	-18736
鹟	-18737
瘪	-18738
ㄙ	-18739
嬷	-18740
笏	-18741
蹂	-18742
驷	-18743
恸	-18744
Ф	-18745
ㄔ	-18746
踹	-18747
迳	-18748
鹜	-18749
嵴	-18750
煊	-18751
胯	-18752
荽	-18753
인	-18754
攫	-18755
杲	-18756
饴	-18757
鲉	-18758
ŋ	-18759
蚴	-18760
鼾	-18761
거	-18762
汩	-18763
罄	-18764
ั	-18765
拎	-18766
纾	-18767
菰	-18768
蹉	-18769
铋	-18770
진	-18771
ㄟ	-18772
腆	-18773
膻	-18774
莪	-18775
酞	-18776
瀬	-18777
麂	-18778
ぬ	-18779
昴	-18780
狍	-18781
菡	-18782
谩	-18783
垸	-18784
蚱	-18785
骜	-18786
扪	-18787
痨	-18788
缰	-18789
เ	-18790
崃	-18791
溱	-18792
苒	-18793
ㄅ	-18794
垓	-18795
怂	-18796
鹞	-18797
ㄊ	-18798
裟	-18799
遽	-18800
Ⅷ	-18801
埕	-18802
桜	-18803
腴	-18804
赝	-18805
钯	-18806
铡	-18807
镳	-18808
ر	-18809
彧	-18810
饽	-18811
안	-18812
τ	-18813
↙	-18814
噎	-18815
﹪	-18816
碛	-18817
饧	-18818
鼐	-18819
焓	-18820
鹘	-18821
ن	-18822
獠	-18823
跛	-18824
唏	-18825
躏	-18826
钹	-18827
堃	-18828
髌	-18829
ˈ	-18830
ㄍ	-18831
岬	-18832
주	-18833
桠	-18834
潋	-18835
峄	-18836
炁	-18837
芗	-18838
와	-18839
庑	-18840
颦	-18841
砝	-18842
谌	-18843
鹬	-18844
俳	-18845
嘹	-18846
崆	-18847
모	-18848
嵬	-18849
玟	-18850
ж	-18851
Т	-18852
棂	-18853
篁	-18854
绾	-18855
미	-18856
辇	-18857
筮	-18858
糍	-18859
偌	-18860
滂	-18861
簋	-18862
糸	-18863
椹	-18864
獗	-18865
胗	-18866
蓖	-18867
蜢	-18868
♦	-18869
漉	-18870
篾	-18871
锷	-18872
ㄑ	-18873
偻	-18874
滢	-18875
蝼	-18876
忤	-18877
缬	-18878
榉	-18879
睽	-18880
纥	-18881
钏	-18882
侑	-18883
莼	-18884
辻	-18885
鹂	-18886
惦	-18887
葳	-18888
逶	-18889
伉	-18890
珅	-18891
苁	-18892
스	-18893
ê	-18894
唧	-18895
孛	-18896
怔	-18897
戬	-18898
査	-18899
潟	-18900
谶	-18901
눈	-18902
	-18903
＋	-18904
Б	-18905
晞	-18906
茼	-18907
踌	-18908
醍	-18909
劵	-18910
哔	-18911
炅	-18912
่	-18913
啾	-18914
饬	-18915
黠	-18916
ˉ	-18917
蛱	-18918
소	-18919
ɑ	-18920
孳	-18921
蜷	-18922
埼	-18923
篦	-18924
腼	-18925
佶	-18926
湫	-18927
玳	-18928
眦	-18929
臊	-18930
訇	-18931
х	-18932
鲀	-18933
裆	-18934
까	-18935
屐	-18936
杓	-18937
胪	-18938
镊	-18939
馁	-18940
馔	-18941
橹	-18942
肟	-18943
﹒	-18944
ก	-18945
狰	-18946
砰	-18947
∞	-18948
氲	-18949
Ⅸ	-18950
ㄛ	-18951
嗝	-18952
挈	-18953
榧	-18954
璘	-18955
蝮	-18956
躇	-18957
繇	-18958
辋	-18959
김	-18960
래	-18961
倏	-18962
氤	-18963
네	-18964
م	-18965
斫	-18966
茔	-18967
瘰	-18968
衿	-18969
僮	-18970
咩	-18971
喳	-18972
広	-18973
甑	-18974
蝾	-18975
Ⅶ	-18976
⒌	-18977
嗷	-18978
埚	-18979
恂	-18980
捌	-18981
砻	-18982
莠	-18983
忐	-18984
滟	-18985
蝰	-18986
蛳	-18987
鬲	-18988
음	-18989
噱	-18990
嶋	-18991
蛐	-18992
靼	-18993
黝	-18994
ㄡ	-18995
嵯	-18996
杈	-18997
７	-18998
卟	-18999
桎	-19000
ν	-19001
ม	-19002
ㄜ	-19003
蹿	-19004
⑼	-19005
撸	-19006
闳	-19007
坩	-19008
愍	-19009
拄	-19010
霎	-19011
두	-19012
檩	-19013
˙	-19014
ߌ	-19015
昉	-19016
荏	-19017
诤	-19018
려	-19019
제	-19020
浯	-19021
茌	-19022
钕	-19023
≠	-19024
浐	-19025
砜	-19026
糗	-19027
ш	-19028
搀	-19029
叼	-19030
橼	-19031
続	-19032
雒	-19033
尻	-19034
忑	-19035
髁	-19036
₂	-19037
무	-19038
悱	-19039
跎	-19040
亓	-19041
羣	-19042
邾	-19043
郜	-19044
鹗	-19045
⑾	-19046
ゼ	-19047
佝	-19048
掾	-19049
醮	-19050
旸	-19051
殚	-19052
缱	-19053
蛉	-19054
杼	-19055
梏	-19056
椴	-19057
瑁	-19058
胨	-19059
酊	-19060
吆	-19061
穰	-19062
茛	-19063
黟	-19064
唁	-19065
蚶	-19066
锏	-19067
〞	-19068
纮	-19069
袈	-19070
던	-19071
淝	-19072
跚	-19073
﹕	-19074
勖	-19075
秣	-19076
鳔	-19077
ง	-19078
诒	-19079
蹒	-19080
蜉	-19081
邰	-19082
ㄝ	-19083
菘	-19084
蜱	-19085
Д	-19086
僭	-19087
罘	-19088
赟	-19089
嗳	-19090
莜	-19091
雠	-19092
鲳	-19093
骛	-19094
간	-19095
ф	-19096
珥	-19097
疬	-19098
여	-19099
ي	-19100
嶷	-19101
帙	-19102
绻	-19103
胴	-19104
郗	-19105
靥	-19106
唬	-19107
胍	-19108
铍	-19109
ㄇ	-19110
仃	-19111
熘	-19112
篙	-19113
赳	-19114
蹑	-19115
錾	-19116
樨	-19117
渌	-19118
剡	-19119
欤	-19120
瞑	-19121
谔	-19122
椤	-19123
燹	-19124
蹶	-19125
轸	-19126
∼	-19127
凪	-19128
塍	-19129
挎	-19130
滹	-19131
牯	-19132
磴	-19133
蛄	-19134
鸱	-19135
売	-19136
悪	-19137
晌	-19138
沤	-19139
莳	-19140
藐	-19141
咿	-19142
巯	-19143
硐	-19144
Р	-19145
籀	-19146
峯	-19147
谘	-19148
ヘ	-19149
邋	-19150
η	-19151
凇	-19152
缟	-19153
诟	-19154
坭	-19155
惇	-19156
雎	-19157
啜	-19158
豕	-19159
부	-19160
원	-19161
℉	-19162
硖	-19163
芈	-19164
埙	-19165
奁	-19166
姒	-19167
県	-19168
込	-19169
걸	-19170
∈	-19171
﹔	-19172
邙	-19173
鹈	-19174
桷	-19175
碴	-19176
⑽	-19177
拚	-19178
箬	-19179
咦	-19180
抟	-19181
瑠	-19182
舸	-19183
蒌	-19184
蘅	-19185
铤	-19186
속	-19187
»	-19188
Н	-19189
爿	-19190
竜	-19191
邡	-19192
萩	-19193
诿	-19194
阊	-19195
栲	-19196
恿	-19197
梶	-19198
殓	-19199
溆	-19200
阗	-19201
啖	-19202
囡	-19203
隰	-19204
ว	-19205
垟	-19206
孀	-19207
対	-19208
睨	-19209
瞠	-19210
醐	-19211
隗	-19212
鬻	-19213
않	-19214
渑	-19215
粿	-19216
으	-19217
و	-19218
弭	-19219
더	-19220
刎	-19221
犸	-19222
璎	-19223
遢	-19224
鲅	-19225
墀	-19226
蒹	-19227
谄	-19228
鳙	-19229
남	-19230
抡	-19231
衾	-19232
辺	-19233
镞	-19234
镬	-19235
鳟	-19236
⑿	-19237
ぞ	-19238
汜	-19239
碓	-19240
铄	-19241
镓	-19242
呷	-19243
徭	-19244
玷	-19245
蹋	-19246
람	-19247
噗	-19248
夼	-19249
砣	-19250
蹙	-19251
﹡	-19252
ย	-19253
้	-19254
㎝	-19255
嬅	-19256
狎	-19257
邗	-19258
³	-19259
ο	-19260
摈	-19261
攥	-19262
韫	-19263
掸	-19264
晷	-19265
鹛	-19266
枥	-19267
痱	-19268
瞌	-19269
祢	-19270
葚	-19271
鲭	-19272
暝	-19273
醺	-19274
炷	-19275
ㄈ	-19276
睬	-19277
처	-19278
⒍	-19279
嗤	-19280
耄	-19281
侪	-19282
毽	-19283
铼	-19284
∑	-19285
妫	-19286
瘸	-19287
癔	-19288
秕	-19289
襞	-19290
谵	-19291
铯	-19292
捭	-19293
砒	-19294
谀	-19295
신	-19296
瑗	-19297
缫	-19298
铧	-19299
锜	-19300
鳏	-19301
圜	-19302
垚	-19303
楮	-19304
瓴	-19305
笳	-19306
æ	-19307
枧	-19308
芨	-19309
铟	-19310
ц	-19311
箧	-19312
蛸	-19313
逋	-19314
동	-19315
｡	-19316
û	-19317
唛	-19318
铱	-19319
ʰ	-19320
箸	-19321
钚	-19322
铖	-19323
锴	-19324
鼩	-19325
ب	-19326
∥	-19327
螅	-19328
襦	-19329
謇	-19330
ㄗ	-19331
円	-19332
栝	-19333
橐	-19334
❤	-19335
姹	-19336
桫	-19337
槲	-19338
笞	-19339
诶	-19340
镝	-19341
영	-19342
전	-19343
س	-19344
ى	-19345
ี	-19346
肓	-19347
遛	-19348
봐	-19349
운	-19350
刽	-19351
樗	-19352
洹	-19353
瞅	-19354
诹	-19355
鄄	-19356
為	-19357
缂	-19358
蔸	-19359
沩	-19360
胝	-19361
ぜ	-19362
圮	-19363
垴	-19364
菽	-19365
豳	-19366
跺	-19367
郅	-19368
魉	-19369
鸨	-19370
倌	-19371
哽	-19372
懑	-19373
挹	-19374
虻	-19375
褓	-19376
辔	-19377
颙	-19378
瓿	-19379
穂	-19380
魍	-19381
물	-19382
세	-19383
妪	-19384
泫	-19385
義	-19386
蓥	-19387
데	-19388
살	-19389
조	-19390
ت	-19391
┉	-19392
捎	-19393
箓	-19394
∠	-19395
揩	-19396
烊	-19397
蒺	-19398
襁	-19399
鲎	-19400
┳	-19401
氪	-19402
肫	-19403
薙	-19404
금	-19405
위	-19406
ɛ	-19407
啫	-19408
磡	-19409
린	-19410
咛	-19411
娉	-19412
潸	-19413
爨	-19414
琚	-19415
碲	-19416
竑	-19417
蝣	-19418
蠲	-19419
镒	-19420
阏	-19421
늘	-19422
못	-19423
장	-19424
璠	-19425
臃	-19426
鄯	-19427
鲮	-19428
▼	-19429
埯	-19430
铙	-19431
剣	-19432
妣	-19433
О	-19434
阇	-19435
隈	-19436
루	-19437
㏄	-19438
徂	-19439
戡	-19440
â	-19441
摺	-19442
ߒ	-19443
趸	-19444
厍	-19445
叵	-19446
峁	-19447
缶	-19448
镣	-19449
魑	-19450
鷷	-19451
∩	-19452
ㄞ	-19453
㎏	-19454
噌	-19455
瑀	-19456
笄	-19457
觚	-19458
ぱ	-19459
莨	-19460
螽	-19461
骢	-19462
鸩	-19463
	-19464
叻	-19465
缛	-19466
翕	-19467
趺	-19468
锟	-19469
馓	-19470
骺	-19471
鲩	-19472
널	-19473
偁	-19474
蕤	-19475
裾	-19476
酢	-19477
醣	-19478
嚓	-19479
旄	-19480
椋	-19481
睥	-19482
凼	-19483
沏	-19484
禛	-19485
笹	-19486
醅	-19487
건	-19488
울	-19489
­	-19490
د	-19491
匏	-19492
摭	-19493
筚	-19494
郤	-19495
버	-19496
⒎	-19497
摁	-19498
曷	-19499
皲	-19500
轫	-19501
구	-19502
咂	-19503
寤	-19504
瘕	-19505
貉	-19506
遑	-19507
화	-19508
Г	-19509
卍	-19510
孱	-19511
翥	-19512
髹	-19513
선	-19514
呓	-19515
増	-19516
柊	-19517
蒯	-19518
貔	-19519
逯	-19520
鳢	-19521
같	-19522
蔵	-19523
豸	-19524
럼	-19525
ิ	-19526
嗲	-19527
旃	-19528
毎	-19529
ю	-19530
⒀	-19531
牖	-19532
绡	-19533
胼	-19534
苌	-19535
É	-19536
鲱	-19537
龢	-19538
惴	-19539
砦	-19540
┈	-19541
噼	-19542
欹	-19543
猞	-19544
翈	-19545
생	-19546
畹	-19547
缁	-19548
吭	-19549
唳	-19550
奭	-19551
珣	-19552
覚	-19553
郏	-19554
镫	-19555
鲔	-19556
성	-19557
ι	-19558
絵	-19559
讧	-19560
때	-19561
또	-19562
비	-19563
･	-19564
ς	-19565
痍	-19566
蓇	-19567
衲	-19568
貅	-19569
 	-19570
猁	-19571
芃	-19572
嗑	-19573
浉	-19574
硚	-19575
碇	-19576
葖	-19577
ë	-19578
ค	-19579
‌	-19580
乂	-19581
喾	-19582
聩	-19583
薤	-19584
捋	-19585
袴	-19586
龌	-19587
연	-19588
弢	-19589
掂	-19590
浃	-19591
纡	-19592
茚	-19593
逖	-19594
酆	-19595
酩	-19596
것	-19597
ㄆ	-19598
昇	-19599
椪	-19600
槁	-19601
犄	-19602
耜	-19603
茕	-19604
邠	-19605
龊	-19606
었	-19607
유	-19608
ห	-19609
抜	-19610
鳐	-19611
ㄎ	-19612
俦	-19613
囹	-19614
夥	-19615
犒	-19616
砬	-19617
缯	-19618
赍	-19619
郾	-19620
민	-19621
￠	-19622
嘤	-19623
圄	-19624
摞	-19625
竦	-19626
워	-19627
할	-19628
収	-19629
埝	-19630
耋	-19631
躅	-19632
러	-19633
樯	-19634
艽	-19635
蓠	-19636
铗	-19637
〝	-19638
嘭	-19639
煳	-19640
玠	-19641
缵	-19642
鹚	-19643
佻	-19644
≦	-19645
♥	-19646
仮	-19647
噫	-19648
団	-19649
庹	-19650
撂	-19651
榊	-19652
犇	-19653
笪	-19654
螫	-19655
鄣	-19656
ʃ	-19657
르	-19658
ː	-19659
學	-19660
愔	-19661
痼	-19662
跸	-19663
钍	-19664
鲽	-19665
줘	-19666
佺	-19667
喟	-19668
桴	-19669
苈	-19670
鏊	-19671
铑	-19672
길	-19673
돌	-19674
堺	-19675
竽	-19676
簌	-19677
赀	-19678
	-19679
昺	-19680
柽	-19681
洺	-19682
디	-19683
艹	-19684
霊	-19685
鲂	-19686
剜	-19687
眇	-19688
秾	-19689
艸	-19690
俶	-19691
氵	-19692
讵	-19693
铈	-19694
咻	-19695
巿	-19696
曩	-19697
翮	-19698
艿	-19699
誊	-19700
＂	-19701
ゾ	-19702
乜	-19703
啻	-19704
帰	-19705
濛	-19706
眞	-19707
绂	-19708
蓁	-19709
驺	-19710
했	-19711
圹	-19712
坜	-19713
弾	-19714
牝	-19715
筌	-19716
篑	-19717
葑	-19718
豢	-19719
辎	-19720
雫	-19721
∣	-19722
篌	-19723
翀	-19724
鹀	-19725
드	-19726
박	-19727
현	-19728
¨	-19729
Á	-19730
ล	-19731
洸	-19732
琇	-19733
笕	-19734
鵙	-19735
ψ	-19736
≧	-19737
垆	-19738
枰	-19739
桕	-19740
